[PAD]
[UNK]
[CLS]
[SEP]
[MASK]
!
"
#
$
%
&
'
(
)
*
+
,
-
.
/
0
1
2
3
4
5
6
7
8
9
:
;
<
=
>
?
@
[
\
]
^
_
`
a
b
c
d
e
f
g
h
i
j
k
l
m
n
o
p
q
r
s
t
u
v
w
x
y
z
{
|
}
~
¡
¢
£
¤
¦
§
¨
©
ª
«
¬
®
°
±
²
³
´
µ
¶
·
¸
¹
º
»
¼
½
¾
¿
×
ß
æ
ð
÷
ø
þ
đ
ı
ł
œ
ƒ
ƫ
ƭ
ƽ
ɑ
ə
ɛ
ɨ
ɪ
ʒ
ʲ
ʺ
ʼ
ʽ
ˆ
ˇ
ˈ
ː
˘
˚
˜
˝
ˮ
ͼ
α
β
γ
δ
ε
ζ
η
θ
ι
κ
λ
μ
ν
ξ
ο
π
ρ
ς
σ
τ
υ
φ
χ
ψ
ω
ϕ
ϲ
а
б
в
г
д
е
ж
з
и
к
л
м
н
о
п
р
с
т
у
ф
х
ц
ч
ш
щ
ъ
ы
ь
э
ю
я
ђ
є
ѕ
і
ј
љ
њ
ћ
џ
һ
ա
վ
א
ב
ג
ד
ה
ו
ז
ח
ט
י
כ
ל
ם
מ
ן
נ
ס
ע
פ
צ
ק
ר
ש
ת
׼
،
ا
ب
ة
ت
ث
ج
ح
خ
د
ذ
ر
ز
س
ش
ص
ض
ط
ظ
ع
غ
ـ
ف
ق
ك
ل
م
ن
ه
و
ى
ي
پ
چ
ک
گ
ی
क
त
न
म
य
र
ल
व
स
ा
ि
ी
ক
ন
ব
য
র
া
ি
ে
க
ட
த
ப
ா
ி
ு
ก
ข
ค
ง
จ
ช
ด
ต
ท
น
บ
ป
พ
ม
ย
ร
ล
ว
ส
ห
อ
ะ
า
ำ
เ
แ
โ
ใ
ไ
ა
ი
ᄀ
ᄂ
ᄃ
ᄅ
ᄆ
ᄇ
ᄉ
ᄋ
ᄌ
ᄎ
ᄏ
ᄐ
ᄑ
ᄒ
ᅡ
ᅢ
ᅣ
ᅥ
ᅦ
ᅧ
ᅩ
ᅪ
ᅬ
ᅭ
ᅮ
ᅯ
ᅳ
ᅴ
ᅵ
ᆨ
ᆫ
ᆯ
ᆷ
ᆸ
ᆻ
ᆼ
ᕮ
ᗩ
‐
‑
‒
–
—
―
‖
‘
’
‚
“
”
„
‟
†
‡
•
…
‰
′
″
‹
›
⁄
⁰
€
℃
№
™
←
↑
→
↓
↩
⇒
∆
∈
−
∙
√
∞
≈
≤
≥
⋅
⋆
─
│
┌
┐
└
┘
├
┤
┬
┴
┼
█
■
□
▪
▬
▲
▸
►
◄
◆
◊
○
●
★
☆
☎
☑
☺
♂
♠
♢
♣
♥
♦
⚽
✓
✔
❑
❤
➡
⠀
⦁
、
。
「
」
【
】
あ
い
う
え
お
か
き
く
け
こ
さ
し
す
せ
そ
た
ち
っ
つ
て
と
な
に
の
は
ま
み
め
も
や
よ
ら
り
る
れ
わ
を
ん
ア
ィ
イ
ウ
ェ
エ
オ
カ
キ
ク
ケ
コ
サ
シ
ス
セ
タ
チ
ッ
ツ
テ
ト
ナ
ニ
ネ
ハ
ヒ
フ
ヘ
ホ
マ
ミ
ム
メ
ャ
ュ
ョ
ラ
リ
ル
レ
ロ
ン
ヶ
・
ー
一
万
三
上
下
不
与
专
世
业
东
两
个
中
为
主
么
之
乐
九
也
买
了
争
事
二
于
五
亚
交
产
京
人
什
今
他
代
以
们
件
任
会
传
伦
位
体
何
作
你
使
供
保
信
值
做
元
先
光
免
入
全
八
公
六
关
其
具
内
册
准
出
分
划
创
利
到
制
前
力
加
务
动
助
势
動
包
化
北
区
十
华
单
南
博
历
原
县
及
友
双
发
取
口
可
台
史
号
司
各
合
吉
同
名
后
吗
员
和
品
哪
商
器
四
回
国
图
在
地
场
址
坛
城
基
場
士
外
多
大
天
头
奖
女
好
如
姐
娱
婆
子
字
学
安
官
定
宝
实
客
室
家
富
对
将
小
少
就
尾
局
展
山
岳
島
川
州
工
巧
市
师
常
平
年
广
庆
库
店
度
建
开
式
强
当
录
彩
影
律
得
微
心
必
快
怎
思
性
总
情
想
意
感
戏
成
我
户
房
所
手
打
技
投
报
持
挂
接
推
提
播
改
放
政
教
数
文
料
新
方
无
日
时
明
易
星
是
時
更
最
月
有
服
期
本
术
机
杀
来
林
果
查
校
样
格
業
機
次
正
比
民
气
気
水
求
江
没
河
法
波
注
活
流
测
海
清
港
游
湖
澳
点
然
爱
片
版
牌
物
特
狗
玄
王
玩
现
球
理
生
用
田
电
男
画
界
登
白
百
的
目
直
相
省
看
県
真
着
知
石
码
研
破
示
社
神
票
福
秀
科
程
究
空
立
站
第
等
算
管
精
系
红
级
线
组
经
结
统
网
美
群
老
考
者
而
聊
联
肖
育
能
自
色
花
行
表
被
装
西
要
見
視
规
视
解
話
计
认
记
论
设
证
话
说
请
财
费
资
赌
赛
赢
走
起
足
跑
路
身
车
软
载
过
运
还
这
进
送
选
通
道
那
部
都
里
重
量
金
钱
长
間
门
间
际
限
院
集
電
霸
靠
面
音
頻
预
领
频
香
马
高
黄
黑
龙
ﬁ
ﬂ
！
（
）
，
：
？
👍
😀
😁
😂
😃
😄
😆
😉
😊
😍
😎
😘
😛
😦
🙁
🙂
🙄
🤗
##u
##b
##a
##k
##g
##h
##i
##v
##n
##e
##l
##z
##t
##o
##r
##d
##m
##4
##7
##8
##c
##ф
##и
##с
##5
##s
##p
##j
##0
##w
##2
##6
##y
##1
##3
##9
##f
##と
##ま
##る
##q
##л
##е
##т
##к
##а
##は
##ב
##ל
##י
##ם
##כ
##ı
##x
##о
##р
##υ
##ν
##ο
##ρ
##ι
##α
##ς
##þ
##н
##コ
##ᅡ
##ᄒ
##ᅬ
##ᄇ
##ᆼ
##ᄉ
##ᅵ
##ᆨ
##ᄋ
##ᅦ
##ᅥ
##れ
##п
##у
##त
##व
##ा
##य
##º
##з
##м
##щ
##і
##¬
##ل
##ص
##و
##ر
##ع
##د
##ا
##ز
##ظ
##ه
##г
##в
##م
##ч
##я
##ط
##ق
##€
##た
##ち
##д
##ж
##ス
##ミ
##の
##ł
##ק
##ি
##ক
##া
##র
##π
##γ
##η
##😀
##ะ
##ม
##อ
##า
##ย
##ก
##ร
##ใ
##ง
##น
##ว
##ь
##ø
##£
##ˮ
##ш
##ю
##─
##┐
##ц
##ᆯ
##ᄅ
##ᅧ
##ᄌ
##ᅮ
##ᆫ
##б
##ク
##サ
##リ
##フ
##を
##て
##い
##お
##˝
##´
##र
##क
##レ
##ル
##ƒ
##ッ
##チ
##ン
##ア
##δ
##ξ
##ζ
##ε
##°
##┴
##ि
##न
##ल
##ᅢ
##ᆷ
##ъ
##ß
##ы
##х
##¸
##ð
##τ
##σ
##ن
##ت
##ی
##ʼ
##ᄆ
##ک
##ᅣ
##ᅳ
##ᅩ
##│
##đ
##ᆸ
##ᄃ
##®
##¼
##×
##す
##か
##シ
##ュ
##ব
##ে
##ѕ
##β
##😆
##¦
##イ
##メ
##ー
##し
##ט
##য
##ন
##┘
##©
##™
##ﬂ
##ล
##ด
##พ
##เ
##├
##┤
##ض
##¨
##μ
##λ
##φ
##ら
##¢
##˜
##κ
##½
##ˆ
##æ
##ͼ
##خ
##צ
##ע
##り
##ﬁ
##こ
##˚
##³
##ロ
##オ
##タ
##┬
##ำ
##ส
##ห
##ต
##ค
##บ
##ラ
##ホ
##ケ
##≤
##❤
##🤗
##њ
##ə
##س
##ي
##ω
##−
##ى
##ん
##ك
##є
##ᄀ
##נ
##ה
##ו
##ح
##گ
##ɪ
##⁄
##џ
##み
##ش
##カ
##ハ
##●
##ђ
##ث
##ƫ
##ן
##²
##ᅯ
##ᄎ
##θ
##க
##த
##ி
##ト
##キ
##ャ
##😁
##😂
##ː
##ψ
##÷
##ب
##ム
##ف
##け
##な
##ա
##ة
##ヒ
##ニ
##ר
##ש
##ת
##म
##っ
##ج
##┼
##ћ
##ј
##љ
##セ
##め
##テ
##エ
##ョ
##ウ
##⠀
##ா
##ட
##さ
##わ
##に
##え
##せ
##も
##э
##±
##マ
##һ
##վ
##ข
##จ
##ช
##ท
##ไ
##ป
##แ
##う
##ᄂ
##ᅴ
##¤
##ª
##よ
##く
##⁰
##ᅭ
##׼
##ᄐ
##そ
##χ
##स
##ד
##ـ
##ツ
##פ
##ヘ
##ʺ
##ʒ
##µ
##ナ
##א
##ס
##►
##👍
##き
##ᆻ
##ג
##や
##ɑ
##ェ
##ᄑ
##ी
##ᄏ
##œ
##ネ
##♣
##♠
##ィ
##ϲ
##😍
##ᅪ
##מ
##☆
##😉
##⋅
##ח
##ு
##あ
##つ
##¹
##ɨ
##ז
##😎
##☺
##ɛ
##★
##˘
##ʽ
##∆
##ƭ
##โ
##✔
##→
##ப
##😊
##😘
##♦
##ʲ
##≥
##◊
##♥
##√
##غ
##⇒
##ƽ
##پ
##№
##ˈ
##℃
##└
##ذ
##∙
##■
##چ
##😃
##🙄
##┌
##ი
##ა
##😄
##↩
##▪
##😦
##ヶ
##✓
##∈
##○
##◆
##¾
##🙂
##➡
##◄
##⚽
##∞
##□
##←
##ˇ
##≈
##♂
##↓
##↑
##ϕ
##█
##😛
##⋆
##▲
##ᗩ
##ᕮ
##▬
##▸
##⦁
##🙁
##☎
##☑
##❑
##re
##at
##ri
##nt
de
##ul
##st
in
##in
##le
##ra
ca
##or
si
##it
##an
##ic
pe
##ar
##ie
##ea
##on
sa
##un
##ce
##are
##ti
##al
##te
##ru
la
##ui
cu
##me
##ste
##ro
##ii
##ate
un
se
ma
ce
co
##de
##ut
##il
re
##nte
din
##ata
care
##ca
##ia
##ului
##se
nu
##ntru
##ol
##mp
pentru
su
##si
##ve
##uri
##ta
##ati
##pe
pro
##ma
##nta
mai
pri
##sa
##ci
##ct
al
##sc
##rea
##ori
##lor
con
po
##la
##ine
fa
este
##sta
ac
##za
pre
##oc
##fe
di
##om
##ni
au
fo
ace
##area
##um
##pa
##ne
me
fi
int
ne
##va
te
va
##ica
##ur
st
##hi
##ici
##du
##ge
ar
ex
##oa
##di
##ze
##da
am
le
do
##ura
to
an
##sti
##sp
##li
sp
mo
##rii
pa
fost
20
ve
par
##rie
ap
sau
##ana
##and
##uc
sc
##mb
inte
ra
##ite
##ala
no
##ile
##ice
##ga
tre
##ina
##atii
mul
imp
da
##us
##zi
##une
##ua
##mi
##cti
##ment
##iei
sunt
vi
##he
##pt
##ita
##rs
##ilor
ti
rom
##bil
acest
##ran
fe
##os
##oare
##ane
prin
du
ale
##vi
##rat
ta
##na
mi
##lu
pu
li
cre
##gi
##cat
##rm
##nti
dar
at
##atea
##ini
##ani
201
##iti
cont
##og
##ind
##eaza
loc
##be
##nd
inc
##orm
##rul
##ona
##ot
ad
##fic
roman
eu
vor
comp
av
lui
##lic
fie
##ali
daca
##ba
##mul
ba
dupa
cat
##men
##ort
##una
ge
tot
af
##itate
pl
or
##urile
iar
ince
##bu
##ntre
##atori
##orul
ob
##oi
acea
pers
ga
fac
ani
##rit
ci
ori
cand
com
intre
luc
poate
cum
cel
aceasta
cele
put
inter
##rile
timp
mult
inf
as
##sul
spe
##arte
##tii
ul
##sca
tra
##stru
##uta
ni
##zat
aj
ec
ju
##itatea
pot
##ing
##uni
##ria
intr
ai
##cte
##spre
are
##00
mare
chi
19
face
ur
##stit
ele
rea
lu
acti
##oane
##onal
##ult
aut
mar
##ili
despre
##rt
##pre
sub
pol
##ric
##ntele
une
##ora
euro
tran
bi
##ure
##od
pub
nici
cop
##stra
##ute
zi
era
cal
##fa
##dit
dintre
##tul
trebu
##vit
buc
##arat
##zit
toate
##dic
el
pana
##meni
ora
produ
##pi
trebuie
##pta
foarte
##rilor
asa
##ver
doar
apro
doua
be
##care
##gra
fun
leg
noi
##ov
asta
prop
##ord
ast
cea
##scu
##atia
##spe
pla
##rv
sti
ei
##ces
romania
##fel
##op
##one
fata
unui
pute
org
##mele
##feri
dum
rec
ro
##iile
part
##arul
oa
bine
sex
##rc
multe
desc
##atul
cate
san
##bi
cei
urm
dep
##unea
parte
fara
so
##orta
caz
##atie
sta
car
pie
dec
jude
##lul
ii
##nit
na
##sm
##up
nati
preze
aceste
##uti
##mente
##urilor
##olo
exi
mu
##vol
##lo
chiar
conf
##mis
ab
avea
dez
##rept
prima
il
lucru
##tele
##ai
##ator
organi
proie
gra
mas
lor
vre
art
##olog
mun
acum
##ntul
200
incep
exp
##dea
cons
catre
##mn
##rioa
speci
unei
pi
##tu
por
unde
##duce
noa
sol
sup
astfel
cad
##rum
priv
uni
##onale
urma
drept
##atura
gene
asi
cap
polit
##vo
##veni
##mentul
mari
fiind
##unci
peste
viata
lum
sec
mini
ade
inv
pat
cun
##liz
atunci
##sit
contin
data
disp
uti
##dul
10
##orit
prim
##itati
##ja
exe
ri
##do
alte
##rin
##oni
ie
##orma
gre
ajun
vede
apa
tine
##bile
zile
inca
fapt
fil
anul
##cut
##pul
##easca
gu
##pte
ase
stra
insa
##no
dom
op
cla
public
##je
##ntii
fiecare
isi
##tin
deci
oc
sf
serv
persoane
##mbrie
copii
##ctie
per
##ud
##orii
dire
inform
dra
putea
facut
fin
alt
##uit
##use
##gura
##im
num
##mai
##rate
##lica
repre
anu
##mil
##fect
decat
min
val
ban
##ble
europe
##stin
##ole
##atoare
##iale
##alul
ceea
perioa
##rica
##stul
reg
nr
##raf
##cum
atat
stat
comun
##rg
pun
##onala
##tate
ins
ave
rez
##sedi
med
ho
echi
##dent
bar
##vers
cer
schi
##lie
##cta
proiect
##neze
##rim
scri
importa
##che
##ntei
bun
avut
exista
##ub
acesta
##ope
##ntat
##lea
##nul
##cul
##nic
cadrul
##gu
soc
trans
contra
dumneze
intal
ofe
lan
mon
perioada
privind
des
form
##tre
man
schimb
mode
ia
##scut
pra
##rati
##eam
bucure
unul
siste
ulti
putin
ch
unor
##rare
##ula
bu
##mo
##art
18
##fica
trei
##loc
##ctia
situ
sing
##res
of
##ozit
multi
inceput
progra
##oara
dezvol
proble
aici
profe
mod
decl
##rului
on
respe
fot
##zare
feme
nevo
##atele
lun
comple
2018
##rata
##ron
ea
spre
15
cor
rep
celor
act
##sibil
spune
##itatii
adev
presedi
precum
orice
nive
desi
bucuresti
ame
##ral
che
##spun
fol
us
ru
##olul
intele
parti
consta
inde
inai
dumnezeu
##cur
inve
ist
inta
sen
guver
##man
12
tele
##stre
##ore
mate
prote
pari
afa
regi
##gat
cole
##orului
tara
##reaza
cuno
##ativ
##sele
##aturi
##upra
##menea
sca
sim
partici
potri
fel
adm
cent
mol
##onom
ate
cine
##uza
numai
##mat
ceva
lei
##rist
##atiile
##hn
##lat
asemenea
mana
cult
joc
##bui
##ete
##arta
##ctiv
##zarea
expe
##icii
##rarea
##oase
##line
11
artic
famil
ope
mili
##mag
var
istori
camp
##ke
ide
libe
met
apoi
lo
proce
##val
simp
om
##ule
impre
aceea
una
dat
##ania
##ghe
frum
sar
mic
constru
##cea
buna
consi
princi
eveni
nou
cred
##atate
##iet
bise
##stri
afla
direct
##tia
##ola
##atilor
00
et
prea
conce
folos
##ha
##nati
gru
##bila
timpul
##stii
##anda
come
econom
acce
##oasa
cateva
instit
ind
imi
##sat
##lin
##anu
moldo
functi
admini
tur
##fere
ha
imb
##ograf
##strat
asupra
oameni
##chi
primul
##atorii
30
sur
tri
copil
bo
neg
cazul
ales
##iere
##nea
repreze
deschi
##cu
mine
acestui
acestea
##ch
romane
vo
stu
drag
oamen
clu
ada
##lui
##onat
##rij
##zia
raspun
##ond
partea
spus
intalni
pen
site
##usi
cul
pove
mil
creste
imag
##ape
##oarea
core
conside
can
medic
##ual
000
jur
##bat
baza
##mant
vin
cit
inclu
inainte
cara
##prin
univers
faptul
ag
plan
##sului
##tra
prezent
vide
##ctul
##nului
##tine
utiliz
ing
condit
trebui
##diul
##odata
##andu
elect
nume
##iilor
sal
##fle
sala
echipa
voi
iti
acord
aca
memb
activ
##diu
nevoie
##tului
indi
aproape
moti
declarat
14
##oli
local
##ptam
romaniei
aplic
##zut
cere
for
pare
##po
alta
ord
rel
edit
##mic
dezvolt
dece
##siv
luni
sea
trecut
obie
##onul
potrivit
acela
cri
toti
ajut
##co
dem
tip
tehn
16
noua
zona
mart
13
neces
sale
##unii
doi
##min
modi
intamp
##zate
##ficie
venit
##oci
##dere
##lice
##rn
alege
##ntr
posibil
soci
sco
dan
##urii
ore
rezult
internati
##atiei
pier
tar
ter
ste
inchi
natura
conform
ple
##gur
casa
mea
vine
limb
desfa
ene
##vin
perm
sunte
17
transp
avem
casti
privi
##urt
##rior
2017
national
efect
prof
ae
##ict
##bo
##car
folo
para
##nii
astazi
cultura
post
##ocu
##bit
aste
##zeaza
asigura
dori
munca
edu
ver
rand
special
##xi
##zinta
stii
acolo
##otri
sfa
##atului
##ss
semn
##ziti
vrea
apar
##oana
lip
resp
maj
##lig
desfas
##utie
auto
##zie
##port
cerce
adu
##fi
poti
##orilor
noastra
toata
domeni
##tit
iu
##xe
came
online
personal
vie
contro
##oaste
ape
tu
popul
viit
ze
cauza
he
consili
bene
continu
anga
locul
priete
rece
supe
exa
cump
za
lumea
vedere
##ntie
##oria
and
vol
##mei
##otriva
stabil
eli
ali
porno
docu
##ila
##rge
##ose
25
lucra
pract
age
##jul
arata
bra
inal
##nu
grat
impreuna
##ard
compan
luna
##stat
activit
is
##inea
exce
##inci
exemp
##uale
milioane
piata
##forma
##brie
nostru
##rand
##derea
fra
deja
noastre
meu
nivel
pune
autorit
reali
##resa
produse
oamenii
raz
##ativa
##regi
date
iul
moldova
saptam
##mentului
tru
##ntilor
proprie
pac
##mine
afi
##tal
realiz
lin
##oam
##zii
##ntia
##xim
2016
lume
aface
vom
rus
gand
##ferite
asoci
condu
stiu
ziua
ajuns
##mului
##unile
inregi
forma
fl
muz
nimic
##mentele
ami
##atile
##ok
##zata
informatii
esti
scop
##lab
general
acelasi
##──
##arului
asc
ram
constit
langa
##rei
##lele
faca
arti
publice
##gh
io
199
ofici
tin
we
##uie
##ntelor
##riu
##gul
pag
##ctura
scris
conte
princip
caracte
erau
conc
video
curs
bune
tit
sufle
hi
cart
##urat
##ctor
capit
dese
##lei
nea
##siune
ant
##stea
germ
pret
presedintele
##ctive
##roa
##cii
munici
##met
the
servicii
numele
impotriva
partene
judete
##stic
##venit
constanta
fina
##en
##stine
societ
ministe
comis
limba
suc
##menta
invata
##cia
##atorul
##ret
descope
nic
port
moment
##orie
caut
##mea
fond
profes
grup
incer
ev
##rala
##ative
cur
ajuta
angaj
parla
##melor
##ntului
term
ofera
usor
servici
##denta
mie
##stenta
spun
##sei
##siunea
spi
bl
##ote
comunic
vorba
24
real
tut
ja
bat
##seste
van
100
solic
##fera
oct
printre
prem
petre
experie
dev
disc
col
prezenta
mici
##dinta
##of
puteti
sanat
##utul
repe
21
##orti
viz
##ter
##data
lea
pus
reprezenta
conta
##arsit
##pat
legi
poe
bani
dore
preci
##rita
totul
persoana
reus
##mentare
important
##ficarea
ps
profesi
dia
acasa
##rut
fran
mij
uri
recom
cite
cra
proba
telef
initi
ghe
anum
numarul
##tei
##ram
suntem
##riei
barb
##ctii
juc
termen
transport
##atiilor
unele
##xa
en
##rma
participa
##ier
##eamna
luat
##arca
repub
abs
nationale
complet
noie
acces
##fice
inseamna
noiembrie
##oneaza
hota
##ntare
preve
2015
##anci
recun
sem
patru
organizat
sigura
plus
incepe
ati
adau
buge
dete
cetate
22
romani
energ
circ
datori
masa
gri
##cin
tere
##atat
lite
oblig
americ
##sesc
conduce
acestei
lim
avand
incat
##anul
singur
clie
plat
sfi
raport
tari
##oarece
##mas
biserica
motiv
##bal
varsta
punct
jos
cas
pop
etc
##unie
alaturi
sus
um
deoarece
##ros
vazut
fur
anului
reprezinta
putem
##dem
razb
europene
diferite
##is
ata
##ho
spati
2014
inche
niste
##ctele
##ombrie
adevar
vot
decembrie
fii
##rale
consum
octombrie
ridic
capa
anali
speciali
continua
prom
drum
domeniul
scoala
supra
interne
##ande
cuvi
##veste
50
septe
##die
educat
##itatile
##rele
trece
sustin
##tel
nationala
opti
insc
turi
mama
vechi
cunoaste
sfarsit
sef
ref
obse
primit
conse
septembrie
incre
fiz
def
investit
antre
lege
privire
##smul
pasa
legea
categ
##atorilor
cluj
problema
oferi
administrat
indu
atra
iunie
momentul
ser
##uala
ian
go
exemplu
concur
##gust
preg
23
sce
##dio
##genta
judetul
place
##ctiva
cl
mani
##oastra
fotograf
nivelul
sustine
ros
##uror
calitate
alba
tuturor
##ptat
sprij
stud
##pl
meci
nor
masura
##mpe
mesa
presedinte
##urit
tau
mat
insta
domnul
comb
urmare
greu
##ntea
civ
##cale
intrea
ret
##und
##ume
##dica
adica
##ribu
scrie
##itare
romana
##ferit
vict
fre
politica
##unat
propune
bal
##strul
instru
afara
interes
##ven
##ris
intra
cercet
municipi
anti
dos
dea
ajunge
##nis
menti
vei
##lal
tex
pet
##dele
dintr
aduce
functie
adevarat
##bili
eta
rapi
aspe
urmatoare
##go
efectu
cuva
##el
##itul
minute
##ck
implic
##telor
doam
seara
centrul
martie
totusi
##diat
utili
destin
deose
##ins
##ntarea
##ilea
##inat
diver
iz
##ierea
ina
confi
respectiv
ului
evi
probleme
preva
alex
##pti
copiii
##riile
##inul
corp
proces
bog
dreptul
##rop
##bru
trata
##gaz
extre
inse
2013
benefic
##inge
siguranta
juri
infra
spirit
timis
##gn
stru
europa
##ntin
orig
ultima
masina
niciodata
iulie
destul
##itor
##riale
experienta
cli
##ara
ruga
cuprin
##lue
probabil
rezi
##itat
scol
publica
alb
acestora
muzica
carti
inclusiv
intelege
festi
##onare
razboi
##ologie
schimba
folosi
lice
psd
femei
acci
bol
alin
fru
##smului
modul
##rici
##utii
majorit
ese
sistemul
##stica
ramane
august
dispozit
unii
singura
norm
cunosc
acope
apri
azi
politi
ion
grad
medica
##itar
mot
##eau
gi
##pen
simplu
gal
aceeasi
dus
mih
prel
extra
##dat
##onarea
terit
avi
##ban
presa
oca
obtin
locale
ante
reusit
afl
sport
##stie
jum
reduce
tale
lucruri
##unde
arm
##ficat
absol
dumnea
trec
anunt
legatura
program
flori
iubi
vedea
psi
pal
27
calcul
##vent
pas
cinci
28
intreaga
vizi
##utia
lasa
achi
lit
dure
##der
proiectul
##oz
revi
##cata
efe
sin
film
incal
specta
teat
furni
##ital
pur
##uarie
26
ianuarie
legii
departe
##ima
obtine
##inile
saptamana
##ristos
mere
##gii
devenit
faci
##arie
oficial
foc
subie
cod
pici
2012
##bor
##irea
carte
ol
##selor
stie
cam
intro
aproxim
nord
tan
toc
importanta
respon
manage
##fici
aprilie
40
##urata
##zele
articolul
intampla
ara
res
eficie
consul
mondi
conditiile
##ung
media
##scul
##vizi
##voastra
crea
afaceri
vreme
##diti
consiliului
epi
cineva
altfel
pic
vietii
sele
exc
modifica
bib
##num
produs
dumneavoastra
datorita
veti
judecat
incepand
gasi
regula
##dia
##osi
total
##oarele
##inii
vorbe
prevede
caru
ten
aproximativ
ort
pozit
tat
##tic
ero
##sea
politic
veri
promov
##ficare
sat
raspuns
disponi
##fecti
elev
mag
ofer
clasa
strada
intalniri
marea
##mii
mica
ramas
nec
##itud
gara
##ratie
lua
nimeni
articol
jurul
dv
##ns
aveti
judetean
##siuni
simt
##sh
##gal
fier
##spi
zone
campi
sistem
contract
##uia
invit
##hii
comuna
financi
ment
##tat
premi
##ova
activitatea
merge
international
vezi
##cati
##itori
gol
legis
omul
mihai
control
ioan
iub
echipe
exerc
priveste
amp
multa
succes
cant
responsa
acestor
##unilor
jocuri
valoare
pamant
magaz
club
##lia
##tari
rau
numar
##icul
##dura
dis
situatia
odata
lumina
caci
proiecte
alexand
ime
domnului
manife
camera
##deauna
seama
eval
ajutorul
sect
##iat
bloc
##odo
reze
drago
##run
acestia
sanatate
biro
european
acestuia
mand
lic
##ierul
cauta
europeana
sarb
urgenta
rezol
teren
mereu
##inica
indep
dimine
locuri
##mentelor
##barea
ulte
##stal
compe
##sara
gaz
aiba
primele
telefon
29
iasi
moder
tv
##cam
##zarii
stan
evol
urmeaza
lupta
ine
31
cale
fund
oras
sla
importante
##denti
sez
candi
orasului
##icei
##han
##bilitate
duce
sine
2011
varia
dezvoltarea
permite
eveniment
lista
programul
ef
##uali
final
gratuit
trai
##rioare
primi
frumos
##iaza
##arde
pagina
ue
justit
parcur
lucrurile
##stice
##ferinta
aflat
chel
adresa
##male
##ft
##rian
##rice
istorie
##zati
familie
ministerul
determ
capac
guvern
##ziu
sociale
extrem
##ki
teritori
je
cau
gasit
apare
##rva
caro
psih
##nilor
anii
##onate
##viu
agric
##onali
dezvoltare
hotel
colab
stand
nicola
hristos
guvernului
citeste
##scop
social
comuni
198
identi
materi
anuntat
##indu
apre
emi
fete
febru
tarii
jumatate
cost
##icti
naste
stare
prov
##ans
statului
##reapta
##ue
scopul
realizat
ww
aplica
mit
astea
intru
scena
cladi
mele
sud
recuno
cali
pres
##stilor
februarie
foto
continuare
jurn
cru
indust
detal
##zul
dvs
cunoscut
copiilor
ado
duminica
propriet
dimineata
dove
fir
arta
meto
coa
blog
dru
porn
trim
macar
aprop
valori
explic
gheor
resta
jo
muze
##uma
##var
##las
##itoare
facem
lar
##ws
exact
prevaz
samb
partid
sai
##ou
indivi
ghi
printr
crit
##onia
##ptie
##atelor
##book
##otul
lipsa
orasul
altii
pierd
scurt
vara
zis
ingrij
www
pregat
##usa
inceputul
putut
vad
iata
##atorie
consil
tehnolog
las
##vanta
arh
inima
fab
depa
baie
defin
filme
interme
sporti
libert
democ
##su
marti
##gen
mii
obicei
pan
dau
influe
biseric
conditii
serie
##carea
barbat
##sce
##tarii
spectac
##ps
##urie
ocup
plata
publicat
deput
intreba
##bra
sens
##rl
strate
##ferent
##pres
nicolae
pacie
##umul
prime
dedic
necesare
fu
intere
considera
majoritatea
mijloc
##oaca
intalnire
brit
peric
##bele
mediu
##sov
tocmai
2010
##inele
anumite
##ka
inchis
##ratii
vederea
urmat
contine
doilea
##upe
##cina
persoanele
vaca
indic
lans
stati
desfasura
##form
##giu
respect
exte
##to
activitati
execut
lide
sm
proiectului
rem
sfarsitul
emo
locuit
gas
noul
britan
urmatoarele
femeie
it
##oar
##oace
pere
duh
##atra
vreau
vineri
folosit
sange
##lului
inspe
slu
web
senti
multum
pregati
familia
acel
supli
elibe
imediat
exclu
negru
##zator
##cra
##────
##bate
sambata
##roase
vreo
legisl
timisoara
ultimul
suspe
##nice
##dar
##itele
spec
##dare
ministrul
##nia
autom
consiliul
rege
##zari
##orda
guvernul
super
##nie
diverse
distri
##sina
##riul
difere
organiz
aer
stran
invat
imple
##par
##vei
performa
##strati
scur
##ire
gheorghe
povesti
##ratia
km
fal
doresc
tatal
contribu
producat
stri
##dei
trat
##otdeauna
amb
##rnic
istoria
transm
ortodo
##rci
convin
zilele
##orare
hot
tarziu
france
cresterea
zilei
##neste
##unda
instal
vla
facebook
supraf
194
interesa
facult
sua
observ
putern
geor
nostri
practica
solicita
##andi
vorbi
fro
bur
demon
suprafata
impa
lini
##ratura
dimen
top
dr
vizit
lemn
##arti
suma
##mantul
500
contact
cone
##nei
recomand
renu
##eaua
##itorul
rol
mem
##rarii
autori
nascut
60
##ntata
uneori
net
revol
##iel
##rioara
##onului
rapid
##rina
##sile
cunosti
##raj
lumii
motive
##nele
posibilitatea
document
compania
romanesti
mor
##uite
##for
operati
materiale
##ster
internet
infii
oare
evalu
##fer
explo
concurs
afect
2009
obis
sigur
impe
##oti
ital
dob
bul
fisc
est
acu
castig
##van
nep
drumul
manasti
cartea
puncte
permane
interpre
comune
mondial
anal
tul
locui
mierc
discut
integra
##zei
intrat
crestere
energie
liber
##zeze
stef
accident
im
ulei
niciun
viitor
indepen
pretul
cuvinte
##zand
far
efort
##gale
republica
recomanda
vite
valoarea
comenta
liv
##stanta
adus
instituti
altele
##ieri
peri
risc
municipiului
##puri
##iera
persona
##ceava
activitate
imo
competit
vrei
purt
republic
brasov
##mina
##diului
practic
##sii
chisina
tare
bru
##poca
suficie
astept
suceava
celui
existe
joi
xx
cheltu
redu
2008
##uirea
##ntu
munte
distru
vremea
felul
bisericii
uita
descoperi
iesi
credinta
banii
sase
cure
dreapta
glo
poarta
resur
##inde
poveste
##20
tineri
35
traie
datele
putere
clar
strateg
particip
exec
principal
gen
trea
intotdeauna
##gle
##uda
indiferent
parteneri
curt
##ures
arun
past
idea
detin
##ctiei
comanda
tempe
##tt
cab
##ph
procesul
romanesc
##vel
##we
sara
poziti
intermediul
##orarea
##itatilor
##gerea
tera
oamenilor
##bilitatea
durata
##upa
maria
ran
##ologice
aminte
refu
unite
referit
bibli
em
ochii
##utiei
decizia
deschis
puterea
politice
##nific
sluj
maxim
##inal
serviciu
simb
dina
bucura
castigat
citit
sfantul
deza
anunturi
zic
membru
anume
randul
clas
##tare
##olari
##olului
pierdut
detalii
autoritatile
omului
miercuri
campan
prezinta
##nl
alexandru
##cand
produce
##guri
contex
curtea
misc
##tice
saptamani
abia
veni
retra
##lalte
deb
ideea
regul
traditi
model
bile
datelor
afirm
##roi
zil
parca
##ton
festival
totodata
primaria
prezentat
ana
conda
##les
germania
##vat
##lini
circul
##can
##orat
##gere
anunta
invatamant
aparut
sibi
grija
sunteti
denum
fostul
marg
devine
studii
deveni
constantin
candid
dor
merg
nicio
tradit
american
incerc
trafic
infracti
spital
sistemului
gale
imbunat
fierbi
inregistra
##cer
spera
greut
metri
45
extin
har
inloc
lac
##ierii
##jele
legate
dific
punctul
vice
vrem
sursa
persoanelor
##ntate
puternic
ieri
##itarea
bus
##lam
juca
perfect
##cip
##itara
##rana
acesteia
sediul
noapte
societatii
gar
chisinau
compete
##omet
intreb
internationale
adole
##gre
pasi
##lici
kil
plac
adolesce
prevazute
frumoasa
feric
stiri
fri
seri
imagini
neam
copilul
personale
strain
aparat
decis
##alt
necesar
##stata
eram
pict
semnific
inspi
compone
ocupa
##pri
##mnat
simti
comerci
##inei
pil
proa
academ
surprin
scu
ajung
##ntial
restaura
mers
##stei
##ficate
barbati
ucra
speciale
rugaci
coord
asociatia
videoc
expozit
crede
##oziti
frec
corect
197
##uita
vinde
##tica
ech
rusia
intor
##atorului
participat
actiune
produsele
secti
statul
director
##vine
presup
##alizare
roc
##nica
pote
urmari
bucata
##ry
vasile
inscrie
cana
##sesti
gro
discu
secret
formul
lucrari
evenimente
situatii
repede
vina
ochi
##onata
stiinti
apel
copilului
stil
##dente
adauga
corespun
2007
lucrat
ocazia
ident
##minte
les
##vara
universitatea
incar
individu
##oarce
lat
alti
apropi
creat
##rar
romaneasca
dub
orie
ameste
pierde
fotbal
petrece
iarna
securi
trimite
tema
bibliote
fact
##cau
##atis
##dact
suport
up
ras
vis
##ieni
lungi
bla
##mos
sedinta
rolul
victi
inteles
normal
ordona
frumoase
jurnali
articole
aprobarea
functia
evident
parintii
numit
gay
stefan
salari
editie
##duri
soare
secre
vale
indra
george
ajutor
naturale
jap
##ost
hid
videocli
murit
mobil
regle
imbunatati
mal
ultimii
crescut
romanii
placut
##vale
##nesc
##gno
engle
analiza
forta
vizita
##stian
exter
masuri
##garia
primarul
atentia
fav
##oneze
atentie
##inare
sociala
vorb
rai
opt
##parat
lung
obiectiv
povestea
politistii
die
80
##dice
aminti
star
viole
ultimele
##cate
format
interve
centru
##uire
statele
avanta
societatea
sufletul
caracter
mentine
bot
mediul
rezultate
electron
cultural
zice
trib
antren
modificarea
calea
##ons
operat
asigur
bran
certi
obiective
incercat
tro
191
incon
comporta
inalta
iube
##viz
log
faceti
##lus
culoare
plecat
comisia
marii
##har
##ptea
##mit
craci
temp
ulterior
teme
declar
90
##urg
gura
##iciile
cumparat
lasat
##icule
colegi
##site
comisiei
cazuri
spatiu
ministerului
##ly
inci
bel
##ntari
completa
lungul
196
##lara
##ulta
procedura
poze
material
prece
cro
pacat
emoti
obtinut
carie
joaca
##ilal
utilizarea
curat
multume
##valul
lansat
intreprin
vita
##alog
##ket
andrei
fiul
volu
pacate
cursul
plin
familiei
##sie
transil
etapa
provoc
acele
umb
##ritate
fla
starea
funda
##cului
70
gandi
calitatea
ridicat
##ligi
##utului
##iche
celelalte
trebuia
actiuni
nece
banca
prezi
achiziti
doamna
##icle
##ogra
cuvant
##rca
##matica
inregist
conclu
##dan
structura
spunea
radu
gesti
##rcea
firma
dolari
transform
facute
##eala
cin
excele
incearca
serviciile
desp
dispoziti
transmite
##bia
stap
##mult
stim
##rti
craciun
protej
rezultatele
miliarde
finali
ben
radio
medie
##reasca
arhite
##ptia
but
toam
lovit
anim
uniunii
opin
prelu
sibiu
altor
codul
aero
##date
parcursul
rele
ka
situatie
##iene
imbra
##omp
urile
constie
medicale
educatie
salv
##stele
incredere
administrati
recent
miha
pui
spate
ling
sint
protectie
maxi
##rol
##hia
##con
integ
intoarce
##oturi
adul
minim
##zatoare
ep
gande
vorbit
companiei
vig
stia
promo
cativa
existenta
ane
##ologic
membrii
capitala
ministru
dezbate
trase
##mise
mant
uci
suflet
fierbinte
duc
credit
dul
feno
2006
rit
base
cerut
sesi
celeb
distanta
sil
sexuale
investi
aliment
flo
insul
##artea
principa
##icile
son
aur
vedem
deloc
complex
limita
economice
##ork
verde
36
##ciu
spatiul
asadar
##ilalti
judecata
fiindca
introduce
pache
libera
franta
imagine
aratat
domeniu
adres
##vie
link
rutie
administra
facil
fiu
protectia
ceilalti
piatra
soli
prefe
cercetare
195
##sera
simil
trimis
unic
dragnea
propriu
##et
avoc
evenimentul
studiu
fede
preluc
##relor
som
animale
manifesta
asistenta
vest
wi
##sia
##son
##ritia
##mna
mircea
marturi
sarbatori
lunii
ambele
##per
##jun
vii
confru
pnl
##mara
##tarea
concent
femeile
religi
descoperit
electora
acoperi
parinte
multumesc
sanatatii
depune
##strului
##ju
##gea
dorinta
##darea
micro
bugetul
caracterist
##voca
htt
invatat
rete
comerc
adrian
intai
aveam
gh
dragoste
bor
case
dorit
crest
##itei
reprezentantii
insi
serviciul
sapte
##tea
dispozitie
##ler
07
ascun
vala
32
moartea
recunoaste
mel
utilizat
conflic
gust
organizarea
##ieli
televizi
inteli
altul
ed
aparta
##cine
zeci
sh
spatele
abu
sancti
achizit
recupe
ven
oferit
retele
beneficia
##ob
toamna
semnat
fizice
masini
realizarea
##tile
elimin
specifice
financiare
substa
viitorul
ridica
noaptea
conducerea
sos
procu
imparat
##sem
echili
##vada
muncii
aveau
sexy
adevarul
mail
procur
uniunea
refle
##utat
solutii
##sim
plina
informatiile
perspe
09
nota
stabilit
misca
##bul
sute
300
procuro
caruia
rasp
actual
oferta
doamne
##geri
zece
tanar
democrat
rela
crai
##anca
##gare
bate
atinge
cuvantul
ceri
##lare
descrie
##fecta
incerca
##colo
##iesti
carora
investitii
##ietate
cind
ameni
republicii
tinere
asteapta
politie
recla
##verti
nat
##cit
usc
bb
dna
intamplat
necesara
det
lucreaza
restul
problemele
instanta
33
lucrarile
preveni
struct
presedintelui
generala
poata
02
##atic
##alitate
inspector
german
finala
cos
doreste
amena
##itari
tana
01
##ful
##fu
taxe
##vii
cic
uman
exprim
ji
picioare
parinti
frumuse
ferici
sprijin
securitate
193
filmul
bro
ingre
noroc
sot
##aru
gran
soluti
experi
##nesti
merita
##poi
teen
##nda
##siona
##anului
rot
design
reprezent
boala
##reze
italia
mei
introdu
vrut
2000
editia
tub
cup
domen
curand
directorul
vigoare
gl
culori
turne
##vita
##basa
stoc
##oale
seful
rata
combin
vas
patri
elevii
##cel
##gure
##eama
deschide
acelea
##rimoni
circa
##loace
atitud
xxx
educatiei
##iara
agricult
mijloace
sustinut
titlul
folosite
dincolo
satul
##tilor
##jului
##sirea
acesti
sch
##ger
2004
degra
##zile
atribu
iesit
directia
conformitate
aspect
suge
incheiat
##urs
lunga
##nteaza
victor
singurul
stanga
constat
serviciilor
numeroase
##rima
##schi
alco
desfasoara
test
yo
adevarata
##ntal
plo
##ghi
##riorul
tehnica
arad
text
##ple
fizica
condus
economic
##urate
conseci
realizate
frate
comert
##ptele
incura
stimul
##ino
autor
locala
##inale
hai
stau
##olit
femin
timpului
atac
pasarica
busine
##sibile
pron
grupul
fire
intreg
inaintea
cm
mediului
##hannis
dele
dig
mer
ber
gata
economica
internationala
realitate
eva
include
new
vacanta
##hnic
hand
stiinta
functioneaza
liga
gaseste
companii
umane
zamb
sind
programului
sfanta
tal
crestin
fon
pastra
varianta
isus
##lii
basescu
inalt
agre
natural
##riti
campion
oli
liviu
baut
credinci
fapte
anche
##onati
comite
admi
judetului
pli
##ele
citi
viteza
aro
facuta
rega
isra
conferinta
cet
benefici
abord
astepta
totala
doct
propria
event
insot
tai
aia
##siva
recunosc
mus
agent
profesioni
jocul
intoc
contri
crist
nere
tratament
elemente
gama
financiar
dezval
municipiul
teritoriul
##onar
deosebit
drepturile
sensul
finalul
amen
arte
antic
justitiei
orase
modele
inregistrat
##ker
##atice
##cie
buni
##pei
mures
oport
expres
virt
produselor
mane
romanilor
##oza
##ctiile
ala
penal
marca
34
confirm
dumit
deoseb
fix
flu
##carui
iohannis
dura
iv
institutii
categoria
exclusiv
castiga
capul
ascult
##nici
tab
iii
aloc
didact
careia
sansa
revista
episcop
str
trage
ambasa
atmos
arhi
elab
implement
transforma
simpla
rog
non
##ficata
##ceva
acorda
definiti
##by
live
referitoare
desigur
##cani
##samb
##oaie
intrebari
comunicat
bucurie
cif
clin
##umb
videoclipuri
gaze
##ologica
dosarul
gabrie
diferenta
suficient
pozitia
absolut
zilnic
scoate
sprijinul
auzit
meta
spit
napoca
profesor
grade
prieten
fotografii
imparta
student
altceva
societate
lichi
initial
mesaje
##bura
aeroport
business
bic
inten
activitatii
situat
universitatii
suprave
eficienta
rezultatul
stic
ph
clic
contemp
transilv
constituie
##ical
insusi
imprum
interior
partidului
anterior
companie
pd
util
coope
muzeul
##venta
prieteni
autoturi
concure
##phone
vorbim
retin
disponibile
ile
##rus
influenta
tata
strainatate
##sita
actuali
idei
inteleg
derul
##com
orele
fer
viitoare
voie
##iasca
primar
set
##inarea
##sari
th
realiza
subiect
folosesc
spa
echipei
##pele
oricare
propus
comunicare
decor
mijlocul
precizat
##zo
iau
cheltuieli
usa
departa
grasi
parlament
securit
monitorul
apost
2005
cioc
##ya
fet
tinut
simbol
##siunii
tehnic
##gia
##sive
camere
##dra
coc
boli
argu
semi
monu
sotia
metoda
##ogle
elevi
##alului
##arele
cariera
valea
mone
##get
etiche
teatru
##ye
cererea
##cilor
casei
bolna
hotarare
minte
##50
adopt
sov
editura
select
aust
treaba
grav
oricum
ponta
ump
literatura
spal
plane
voc
##den
specific
fonduri
raman
piesa
succe
moarte
corpul
performanta
ingredie
parintele
##ms
schimbat
extraord
jud
aparitia
srl
##sus
vul
hd
cante
raspunde
gandit
##atisfa
apartin
##tiile
relatii
dezvolta
caf
fim
piele
cresc
##rid
surpri
rezerv
##oanele
explica
rosu
centrala
##uiesc
oportun
forme
distin
volum
opera
femeia
gala
constituti
principi
neagra
vit
momente
solutie
wa
mese
dovada
concept
pr
ach
alegerile
conve
inov
functiona
inalti
conducere
transmis
sac
##arh
apreci
interiorul
membri
##ang
veh
ordin
traian
rati
##nale
08
google
period
aplicatii
##ografie
intrebat
externe
documente
ansamb
##mes
lumin
engleza
nastere
conducat
atelie
calatori
bote
furniz
##mentale
sto
relig
vreun
transfe
afecti
cui
vorbeste
conv
proced
legat
arge
fc
modelul
comerciale
agentia
intrarea
scolar
##mon
perce
surse
intrucat
##oriei
carne
##sche
03
parea
scand
plimb
##ortul
jucat
##ber
cron
foloseste
inapoi
fiscal
ilu
##stur
dialog
sper
38
##nita
37
daniel
stea
hotararea
minun
##ky
aflate
galbe
poli
05
speciala
aci
##ll
##ieste
imaginea
oara
##zilor
concert
averti
suta
rab
##onescu
fan
##supra
##leaza
specialitate
faza
fili
legale
asociatiei
secolul
ecran
##ctelor
primavara
noti
deciz
stabile
prot
decizie
supraveghe
adaug
##uno
tes
afirma
culturale
metal
considerat
rugam
emis
moderni
06
fuse
doriti
##ware
politici
pomp
gasesc
adesea
cristian
imagin
profesionala
rezultat
fondul
##atei
consulta
##arga
satisfa
buget
responsabil
productie
kilomet
inchisoare
##ologia
sectorul
egal
monitori
distribu
intelect
detine
##suri
energe
##ale
ke
conferi
reuse
rac
neb
puternica
##ratiei
##delor
iubire
presupune
compozit
crite
##ateste
##wa
vada
inconj
ilie
tinerii
criza
respecta
##ir
rezerva
obisn
organizeaza
##aturii
nut
veche
cook
frica
localitatea
##bert
relatia
premiul
##utiv
termenul
48
serviciului
urmand
capacitatea
basara
adun
parche
##cile
traduce
craiova
##alin
evidenta
luci
##oda
nei
##ateasca
brand
desfasurat
fenomen
locali
deasupra
paris
gradina
construit
guverna
istoric
##ptii
##mentara
lond
modificarile
referi
initiativa
faptului
cunoscuta
cuprinde
spitalul
profil
##stului
domic
promovarea
##sco
finantare
intera
stiti
accept
uz
incredi
read
pregatit
transilvania
generale
##ntit
iisus
mintea
amenaj
determina
pielea
smart
trebuit
devina
medical
http
olimp
multor
culturii
controlul
tarile
obli
completarea
mentionat
dai
prietenii
aduna
##zar
padu
state
##orte
comunica
intors
##sen
##ner
partener
personala
mp
##atica
parlamentului
##rom
rada
pul
sedi
profit
europei
biblioteca
stre
alerg
celei
ig
39
infrastru
observa
pede
tipuri
costa
alegerea
invita
impres
magi
seria
sfantului
192
multime
impozit
sche
ciuda
scriu
ordine
vorbesc
programe
doctor
distra
cumpara
she
consoli
principala
##pescu
##arate
colaborare
cata
implica
more
florin
soviet
accesul
04
perspectiva
avans
evan
depozit
justitie
vand
verifica
pronu
scurta
examen
suspend
odi
intune
actuala
cosm
iubit
greutate
bacau
treia
fis
superior
rob
calatorie
wee
##seze
drepturilor
medicina
apara
vreodata
##anc
##ff
oradea
mesaj
carui
prevederile
activitatile
rest
pose
bbw
alimentare
tanara
sune
privinta
gratuite
meciul
actiunea
elega
locului
cookie
strat
dosar
plati
stele
ves
crearea
rutier
chine
posta
uria
aplicarea
piese
simtit
primariei
acordat
market
##scri
##oiu
tric
china
petru
catol
politiei
juridice
##rari
marele
conect
vicepre
discutie
aduc
atata
planul
##inara
reveni
don
##luri
dispune
paul
mete
magazin
##nat
hart
slab
##mica
asiste
vaz
tras
dege
prins
voia
sfant
miscare
2002
alea
domicili
atmosfera
secolului
echilib
##vele
##misi
municip
speranta
##ricul
zbor
botos
evanghe
puna
sezon
sho
alter
regiunea
savar
obisnu
bre
##gan
discuta
##gar
aceleasi
negre
armata
aseman
priorit
chesti
bule
##itale
##iesc
corpului
acte
diagno
singure
comunei
dro
impo
##tie
patrimoni
2003
galerie
##nter
unitati
tehnice
44
emine
41
genera
vers
ajunga
trecuta
raspunsul
asteptam
educati
##bali
raportul
intalnit
milf
ang
civili
oferite
cazare
adaugat
rezistenta
##alitatea
2001
aute
fructe
prezentate
incad
##psa
aleg
permis
respi
organe
caror
prile
constructii
usoara
impie
maine
sarcina
imposibil
undeva
del
realitatea
400
experti
ic
radi
soft
##bire
bata
##itelor
inscri
##plini
aplicare
xi
batran
ferm
##ko
##ld
negoc
fort
##dului
contextul
##uria
sofe
liderul
##riilor
dorm
celule
anual
pina
42
institutul
urb
inch
aflati
management
##zeci
urmatorul
##ove
##curi
bogdan
##mers
intalneste
paro
vanzare
tranza
##pie
provin
##ation
accepta
##ny
canta
hol
mecani
moste
rei
casatori
scolii
##ser
reve
complic
##stare
cf
rura
##para
grupa
reducerea
##latiei
##ouri
iulia
central
constant
incet
credi
domn
gim
administratiei
ume
##pren
mobile
curent
izv
ure
##andar
pis
##let
cuvintele
cumva
occi
tabe
industria
maxima
platforma
frun
dezvoltarii
penala
afis
bala
ingine
##mir
##seasca
cuce
wil
roma
gat
binecu
sezonul
color
evre
regim
bon
celal
##mer
##cen
##zatia
barbatul
politia
poporului
militare
carei
##rani
traiesc
mancare
rama
scos
div
prezenti
roa
rein
150
colect
##sel
autoritatea
partidul
putine
55
ideal
##sme
alcool
folosind
##onez
functii
iubirea
gimna
ungaria
utilizare
tero
idee
dragostea
electrice
publicata
##uca
larg
autorul
interviu
sanatatea
relax
impact
populatiei
inau
numi
continut
puse
elena
##uptie
angajati
men
##uieste
centre
relatie
foa
publicului
##mail
modificari
sfat
##len
##ong
##versa
##vesc
zonele
stabili
temperatura
optimi
efectuate
manastirea
degraba
##starea
intar
tom
sori
##ntiale
##────────
bebe
anilor
organizate
reda
categorii
jandar
continutul
##ed
postul
constii
antrepren
spuna
davi
ordinul
combate
provoca
adulti
organizata
##rite
mont
pericul
spectacol
exceptia
dracu
##telul
kilometri
##roasa
farma
ip
43
clientii
marius
scor
##itii
ruse
##mene
grig
##atesc
gosp
tratamentul
news
ceai
##ciara
hom
not
rap
recon
administratia
suplimentare
##zz
parteneriat
sensibil
mascul
medicala
militar
venituri
##gani
slo
##rurg
moldovei
##put
##red
intreru
tribun
cert
zb
##cle
pai
hal
totii
lucrarilor
cunoscute
dedicat
conserv
##zelor
##inata
ful
plaja
furt
##ght
festivalul
premierul
biserici
urmatoarea
contractului
indeplini
grea
ministrului
avent
respectiva
apei
teatrul
seve
autoritatilor
deschisa
institutiile
diferi
##pro
efecte
permit
popescu
petrecut
conteaza
libertatea
mm
andre
celalalt
indepart
urmator
crim
galati
##ateaza
descar
pace
marcat
nein
prevederilor
vesti
75
csm
britanie
obiect
resurse
lapte
formula
scoli
active
facea
suf
uitat
scaun
by
##ierului
proprii
finan
subti
antrena
asigurarea
intrebare
##don
domnis
47
dun
utila
sportiv
evaluare
grupului
buza
atrage
lucrarea
parlamentul
eg
volumul
##th
declara
permanenta
##10
cance
informeaza
tinerilor
motivul
obiecte
49
ucraina
##tata
sate
urs
festivalului
profesionale
trait
cob
demers
##nto
##umat
deplas
centrului
interesul
##scale
folosirea
actiunile
##dentul
contractul
ordonanta
imen
desig
atent
facultatea
cetatenii
##des
coti
taxa
sticla
crestini
privat
intregi
ciud
##ten
tud
realizeaza
cetatenilor
alternati
respective
dispar
dans
imobil
dorim
##ich
inscris
dispe
ign
##teze
schimbare
alcat
titlu
marketing
##scuti
##venti
filos
unica
##inali
interesant
critic
scazut
mae
bil
ulterioare
##oriale
prost
intretine
autostra
##gari
2019
participarea
##rel
##derii
proprietate
capat
incen
tva
locuitori
parul
cursa
##eze
##inilor
investig
dimensiuni
acumul
magazine
legal
adapt
realizata
israel
1989
diagnostic
procesului
sectiunea
pap
justi
targu
aprobat
mur
cafea
vicepresedi
schimbarea
46
vinov
og
cadru
##zam
vecin
##rane
pozitie
eficient
kg
medicul
##zatie
##icala
bai
permanent
epis
dreptate
abil
##siunile
cocos
caldura
aspecte
moderne
publicul
bea
izol
locurile
incul
##inala
comunitatii
##gara
premiera
acordul
drepturi
curi
sapta
sexual
lectura
campania
trup
botosani
elevilor
favori
spect
rut
personali
##sch
remarca
inim
evita
sfe
explicat
os
asigurari
indeplin
intens
stilul
sl
naturala
concursul
##anescu
istorice
vali
##isa
detali
standard
##luc
saptaman
afere
sinte
produsul
pagini
cot
cada
teore
necesita
##icu
indrept
plani
buz
constienti
iubesc
indem
reabil
stabilirea
##oro
clientilor
contrib
sare
utilizate
angaja
cerere
lux
moldove
asculta
nom
rezolv
mut
##pada
hotarat
##ks
bicicle
##ere
apart
dovedit
impune
show
##cr
fiica
cealal
cald
obos
traditionale
populatia
hard
membre
numita
genul
civila
precedent
parintilor
puternice
mitrop
evenimentului
##oniale
impart
egi
dumitru
preturi
vari
directiei
cai
firme
fotografie
pavel
##inar
fizic
regiz
terminat
##rescu
temperat
suferi
##niu
bac
##ntati
textul
televiz
##matice
sociali
felic
##venind
rapida
comen
cealalta
##que
alia
contul
larga
##net
mainile
scapa
ura
parcul
##xic
##ovita
incuraj
opri
copa
dispozitiv
confrunta
teod
pielii
nua
reme
plic
telefonul
trecerea
america
alimente
jucatori
eminescu
imprej
campanie
mesajul
##del
disponibil
televiziune
mad
discutii
##nteles
tradu
spania
intenti
vlad
##itata
curtii
interzi
relatiile
opre
curata
mort
ot
perfecta
ipo
arhitectura
executiv
citate
baga
##cini
numara
baz
adec
ajute
dam
obtinute
pericol
original
folosita
##bes
vedeti
dulce
depinde
populare
intern
credincios
repro
colo
nevoia
51
treilea
senz
1990
65
##rimoniale
gandesc
autobu
linia
scrisa
pedep
start
bucur
bom
depus
clienti
aduca
frag
preot
##streaza
feminin
es
##matic
##nire
##plom
ies
crema
supre
inge
tipul
banda
afirmat
fle
##uat
##her
regele
excelenta
fusese
divi
platit
##ficiale
kla
riscul
modern
cle
##lina
rost
familii
reala
asteptat
continuat
componenta
compar
palatul
sanatos
ief
home
litera
##mentar
noile
diplom
aspectul
informare
##veh
itali
ocazie
implini
##ptura
chirurg
existat
david
camerei
uite
lansarea
intelea
arbit
origine
cerc
##reme
cheie
nunta
duhov
deputatilor
colegii
##ratis
functionare
refere
sisteme
##mar
##gres
cetateni
cartile
teama
neamt
licit
gradin
rede
asoc
mearga
cursuri
masaj
##zice
inghe
##oreaza
imprumut
bara
trump
dificult
autoveh
administrativ
expune
neaparat
mondiala
suferit
parf
##uiasca
instrument
cautare
##ntic
##arda
pregatire
condamn
probe
difu
exerciti
incalzi
tudor
ajutat
dip
reusi
londra
##ovici
plante
transpare
argi
aband
gasiti
ud
##ritatea
ilum
mac
peisa
stabilite
statelor
52
grave
exprima
posibila
elve
necon
birou
campionat
petro
placere
copila
electric
proiectele
ofite
dreptului
iese
baieti
simple
53
hartie
desf
principale
brate
ari
plea
oaspe
purta
rug
praf
consult
interventie
sotul
implin
##oul
judici
##oriu
gor
maram
independenta
melod
anumita
fiecarui
culoarea
zahar
190
aparte
corecta
fericire
fiinta
cape
##din
dobro
compa
mature
financiara
obtinerea
vladi
imbun
victoria
ovi
rosii
##ys
ramana
poezie
metode
amenda
sav
nud
numeste
##sire
moda
ange
oficiala
##ienii
##nera
capita
##misa
fere
cazut
ortodoxa
remar
54
efectele
libertate
ierar
sustinerea
constata
energia
rasa
facand
table
intrebarea
cerceta
intelige
obisnuit
##ndu
##mati
matrimoniale
##alia
binecuva
dol
fetele
exploat
tren
evolutia
scrise
##mare
##ulara
fetita
##dentii
ned
domenii
tulbura
free
prete
##titi
trecute
linie
observat
austria
calitatii
epoca
valorile
electrica
potential
obligatia
devin
alegeri
judetene
##ntarii
clipa
cunostinta
consumul
cabine
57
angajat
arat
consuma
productia
prefect
fabrica
raza
gandul
vizuali
haine
reteaua
labor
judet
##ant
plas
varf
pamantul
##zil
##lit
klaus
urilor
efectuat
opozit
conditi
navi
circulatie
depla
vac
culti
automat
baia
dati
deschiderea
articolului
##ceanu
##ds
##cas
evit
recip
procurorii
opinia
oprit
fiscala
one
##land
aparea
retur
patriarh
traim
abuz
primii
preturile
semne
termina
tempora
ofere
fiscale
suna
ton
cautarea
primeste
apartine
##xt
spatii
miste
oricine
sindic
proasp
popa
raul
recen
jocurile
##ei
ent
afacerilor
deschise
##osul
##lau
odih
dieta
retea
pleca
chip
ploiesti
##late
##lome
studenti
unitate
recunoscut
emite
voluntari
chin
##hie
##fo
600
##cere
nerv
john
scriit
red
sarbat
curaj
##ulescu
luam
bucatarie
arhe
marginea
plastic
##oriile
##kend
apropierea
categorie
chat
centrale
##buc
##ano
rezolva
private
front
##inic
pod
vete
umana
demis
noului
necuno
aparare
context
##atoriu
filosof
bistri
dezvoltat
##ranj
trupul
56
poporul
##fia
corne
iuli
marile
colt
biroul
99
luati
masurile
magh
rosie
potriv
slujba
reprezentanti
clau
late
juridica
retine
mihail
##anesti
curte
inculp
simpto
diferit
stiintifice
fas
specialisti
medicamente
##bel
exterior
penale
ziarul
reale
progre
refera
putini
admite
weekend
referend
propriile
mosc
gabriel
motor
generatie
condamnat
contribuie
cumpar
parc
64
##bara
premii
respectarea
hidro
init
existente
gresit
propunerea
gasesti
comunitatea
lupte
capitalei
ama
matei
##ance
##nci
##mm
invitati
##inteles
delic
zapada
stadi
agricultura
straine
drumuri
glu
ok
nes
lot
intreprinde
urme
petrec
reziste
gradul
patrun
comparat
capitolul
sue
steaua
ordinea
##streze
beneficiaza
lider
unitatea
promovare
germana
institutiei
imbunatatirea
uim
##itudine
solicitat
franceza
solutia
clubul
##ruri
auzi
##voi
inferi
bucuria
depi
refa
formarea
economie
decizii
concre
##iri
juni
mira
ortodox
##tis
const
convins
actiona
apropiat
latina
critica
len
##bon
spiritul
rusa
calend
frontie
primesc
tate
##scina
ire
wind
inregistrate
liberal
fum
denumirea
cati
formare
turism
principalele
sorin
serios
fiti
tehnici
bineinteles
##dis
cutre
doban
aprin
pad
activitatilor
surpriza
nov
galben
simte
scara
##orica
##sip
sectia
york
medicii
didactice
poezii
stiam
energiei
institutiilor
deo
##ziune
##rte
##inga
##multum
inchise
metod
##usc
anumit
mos
dl
discip
devreme
locuinta
##lim
black
stiut
rod
sume
materie
avantaj
ridicata
oferim
abre
##tara
deosebita
executa
bucov
coleg
nemultum
##xel
femeilor
intrare
cha
##mice
turcia
dinamo
##ciei
salva
gest
parerea
crezut
pleaca
pt
sanse
mc
straini
populatie
personaje
##ren
primului
seg
experiment
tehnologia
cupa
bio
audio
subiectul
aduse
agentiei
voastra
##dor
imun
administratie
cola
sold
organizare
treaca
norma
cinemat
software
capital
creeaza
superioara
avion
##uci
record
##ficati
frontiera
temei
##ctiilor
papa
stiinte
er
##atatea
fabric
organizatiei
constatat
propriul
##ualul
##voarea
declaratie
impresiona
prevazut
populara
email
luate
cantare
##mie
companiile
testa
duhul
##ube
sha
cs
58
aflam
spiritual
##seala
##ji
colegiul
cartii
rar
##alii
nout
substante
legiti
trag
unirea
inti
oferte
integral
retinut
constructie
insula
contest
depen
intitul
pornit
##usul
pati
curate
caracteri
bulgaria
durere
blo
oricand
secund
##osex
materia
reglement
##vate
air
evaluarea
regimul
vene
culturala
deta
picioarele
revenit
indraz
dragi
incarcat
##unt
sexul
##riene
comentarii
publicate
##bet
porti
romanul
spectacul
polonia
liceul
colectiv
rat
padure
economiei
gospoda
##dui
rugaciune
homosex
price
scul
aflata
apropiere
sexuala
actuale
implementarea
redus
fratele
##insa
linguri
organ
audie
bunuri
arges
grecia
##escu
caste
mantuit
artisti
desa
##seli
tablo
marian
meste
individual
pc
##onie
definit
soi
marin
tehnologie
##er
calu
terenul
constiinta
reteta
cancer
interacti
##sy
pietei
service
membrilor
gratuita
mastur
evenimentele
activa
buzau
##stina
raf
targ
protoc
profesional
fosta
insu
efectul
moscova
privit
##oarelor
concursului
update
pline
dispozitia
arma
demn
piet
feci
inm
declaratia
apararii
##bis
import
munc
##ream
releva
acuzat
nato
acordarea
statutul
harta
fit
grupuri
interna
##ota
indica
manipul
cadou
scot
constructia
##lav
imobili
fericit
fundament
apropie
reprezentat
uit
circum
bri
iei
pregatirea
nucle
##rez
off
##stia
rul
decit
legume
parere
sarbatoare
invi
play
dn
schimbari
sector
end
pit
interesante
uitam
hotelul
consilier
##24
organizatii
indrago
zg
documentele
##cl
250
pale
sportive
solida
impresi
##alizarea
ocupat
legislatia
obiectul
buzun
hune
respinge
pamantului
pastreaza
##nturi
##rolog
aferente
59
praj
pala
cutrem
efectua
##otera
pedea
abreve
pite
persoanei
##itarii
civile
satului
olte
sfaturi
votat
emil
catalin
##stiti
ki
ortodoxe
calda
rev
demonstrat
agricole
publici
numarului
67
suprafe
##zului
fundatia
adoptat
transportul
lucian
istoriei
cumpa
pedeapsa
straluc
sora
sublini
citesc
forum
major
mig
##lr
##nten
##ursul
spani
echipamente
industri
##hei
restri
baiat
bron
##uro
partida
compute
finantelor
gla
inteligenta
competitie
##ocup
simona
moderna
valcea
informatiilor
##nirea
tineret
mona
oglin
estim
piept
descarca
supraveghere
ingrediente
eugen
##mpa
spui
consecinta
studiul
##hor
sacri
damb
proc
##30
click
ganduri
parale
##sion
franci
pauza
profesori
spunem
morti
incomp
infe
partile
administrarea
comentariu
lucrul
intelegere
prezentarea
cafe
sufera
personalul
studio
##spon
confort
personalului
liceu
global
comercial
traieste
guvernare
organism
shemale
##tale
profesorul
pietre
vizeaza
actul
##ozitate
##deze
rezulta
##vente
propa
occident
exceptie
continue
competenta
spitalului
formata
##zarile
##sac
capacitate
prezentare
sap
duca
reclama
elimina
vraj
minci
dispus
punem
##cenic
comunitate
windo
paste
entu
recomandat
gaseasca
sme
utilizeaza
albe
robert
preventi
##bus
minorit
spectacole
usuri
##chia
prefera
##star
entuzia
md
preferat
electro
##cari
apostol
dimin
contempo
sfert
85
fortele
lesbi
americane
pictura
ampla
giur
excepti
##buri
nera
deleg
tipa
cladiri
considerare
##ens
ren
##inate
tw
popor
ceas
subord
restaurant
posibile
adapo
##set
sor
asigure
dator
##bare
miscarea
punctele
nevoile
clubului
implicat
atatea
studiile
##pci
angajatii
semnal
politisti
##urgh
patron
##dy
prelun
website
educatia
##dentiale
minunat
circula
academiei
##ien
nasc
urmarit
##oft
francez
mecan
##ceni
ovidiu
dedicata
afecteaza
deosebire
intregii
fine
barbatii
audit
automo
tron
intalnirea
##stro
promova
rare
militara
razboiul
mamei
locuinte
##roid
localitate
trime
destinate
functionarea
retro
studentilor
cen
##cire
2020
lucrare
fundul
usurinta
800
veniturile
participantii
##rta
legata
ml
pusa
acceptat
abse
competiti
prepar
sonda
resedi
nem
mentinerea
out
##urul
prevenirea
liniste
comunist
id
prospe
crezi
##ntiala
specialistii
institutie
##riului
##tina
##21
note
##ity
regiune
188
ou
##larea
medi
faptele
fanta
spuse
agentii
participare
studentii
popular
stres
ultra
similare
proprietatea
reuni
cercetari
adanci
cuprinse
vop
universitar
interesati
##gue
expi
identifica
card
gun
directa
campionatul
credem
licenta
intervalul
parcare
conforta
obiectivul
dre
incheie
frumusetea
##olata
tina
participanti
impus
votul
dict
apele
regulamentul
destinat
##king
smartphone
##stan
cupt
bugetului
antici
##sto
credea
##cipl
orizo
vladimir
serioa
inalte
casatorie
##randu
asf
pof
tranzit
##cele
##roc
decide
66
bistrita
groa
ome
corespunzatoare
administrare
preocup
terori
##oarei
grigore
##riana
##ronom
frecvent
mond
povestit
sy
esenta
fotbali
inteleaga
secunde
dificil
tanarul
pierderea
soarelui
gazdu
hale
hrana
tulcea
doresti
189
##forme
mentionate
societati
infiintarea
placa
##fon
metro
confe
mortii
##ografia
reacti
##tiilor
prilej
ron
##pp
##mile
altora
religioase
ager
folositi
inaltime
venea
bebelus
invatamantul
rusiei
aspi
deocam
esential
##ologi
favoarea
prest
bere
grele
##inati
apuc
proiectelor
##sam
deputatul
95
city
windows
prezentei
aceia
memoria
teste
malul
laure
##ctare
multumim
jucator
muntii
deocamdata
invitat
element
##ritie
instrumente
considerata
bord
episod
##uiti
voda
huned
spectacolul
relativ
portu
##dita
cura
tone
infrastructura
##anii
completarile
##ril
eliminarea
putina
obligat
placuta
limbii
indo
120
cip
sab
accele
referitor
partide
oficiale
sali
tinta
bruxel
pitesti
187
meciuri
##oral
##biene
##ham
scorul
mondiale
situata
electronice
refuzat
comand
economia
voturi
organizatia
identitate
atins
imbraca
corespunzator
tatalui
##renta
perfecti
naturii
trupa
##dii
sectorului
infa
vaccin
##sb
export
mandat
lauda
musc
violenta
distrib
scandal
satu
formeaza
voa
acelui
parlamentare
##ologii
etape
##vata
inregistrare
indel
vag
efectuarea
##cturii
vaslui
construita
##oiala
medii
salbat
##ierilor
arate
##dom
agerpres
cantitati
atri
semnificativ
ancheta
vizibil
lovitura
filmului
arhie
potrivita
vointa
##orme
arme
transformat
gasim
neo
rena
iasa
ridicate
##mentari
reducere
misiunea
spirituala
ava
cheltuielile
poza
risca
refuza
municipal
deva
cerea
confirma
teatrului
renunta
vocea
cfr
all
iert
discutat
glob
victorie
certific
conflict
alde
tvr
examin
hra
cautat
cn
voastre
accesorii
intregul
anexa
nar
tenis
preluat
lungime
reguli
soarele
reviz
flux
negative
1999
revine
##berg
pregateste
impiedica
atitudine
definitiv
propunere
incheierea
intelepci
cule
desen
##rirea
cated
inva
sufletului
##eal
nai
contracte
greseala
##hova
urmareste
cov
elementele
silv
electronic
somn
esc
aplicat
pachet
##sec
consec
spori
##bre
##ntina
strans
mile
creativ
profund
ordonantei
separ
##oasca
primite
virg
frecventa
bij
interese
##lian
mass
arhiepi
secole
parfum
comunicatul
##uirii
##mentarii
##viste
client
lasati
andreea
bruxelles
inj
unitatii
3d
turistice
masculin
tendinta
anticor
duna
prevazuta
purtat
introducerea
##rire
dureri
##inescu
liturgh
crestine
simpli
sincer
vizitat
hunedoara
##lant
medici
amintesc
##mpi
maini
##ring
pensii
preda
186
apartament
manual
absor
bogat
desfasurarea
impoz
mergem
austra
vran
expozitia
antena
utiliza
pct
amint
##ras
##fax
##oneza
referinta
##ografice
americana
dow
create
dosare
bazeaza
##spreze
cuprins
scrisoare
iphone
amplas
##ht
colectia
##cerea
arhiepiscop
suferinta
##rine
mijlo
factori
##bar
armatei
bolnav
##cs
plateasca
independent
pozitiv
scaz
wor
securitatii
increderea
favora
onoare
randuri
ataca
europeni
##ieze
limbi
deal
majore
imaginile
utilizatorii
vehicule
diplo
atras
album
casele
gratis
##sarii
##ont
amand
##stase
micros
cetatea
##rator
##onarii
grasime
arunca
zero
resedinta
dublu
traditie
##poarte
privata
esentiale
forte
standar
autoritatii
desemn
amiaza
bm
urcat
taie
giurgiu
##vas
##orial
cuplu
amuza
dedicate
succesul
clasic
alegere
sprijini
inspectoratului
parut
unirii
android
##fat
##alit
lunar
tumb
condusa
##so
matematica
declaratii
institutului
interse
sfinte
vea
efectueaza
sentiment
bogata
apreciat
locuitorii
brow
chil
vehicul
desene
ela
##otice
cunostinte
merit
##orate
##zon
utile
unitatile
civil
eventual
##ith
proven
##cesti
aplicatia
61
vizite
afric
##ise
obiectivele
tumblr
cantitatea
atenti
##riere
##zol
char
recol
##rasi
produsului
pacientii
noii
taran
##deaza
vitamina
avan
evalua
partial
stai
yout
sarcin
br
##oresti
##cesc
##gerii
reprezentand
##niul
primeasca
dinai
relu
fug
competente
paine
insasi
marf
secunda
##fen
majora
##anat
##ari
informatie
superioare
comparativ
actele
campul
impresia
varful
deop
invins
##onald
prelua
legile
bilete
##bri
puterii
cifra
##rve
intervi
vreti
motivele
orei
##oric
ligii
manager
viu
asiatice
ingro
roz
modal
cota
##ptiei
organismului
bucurat
flexi
fut
comparatie
ble
carol
incluse
greseli
consider
socializare
utilizator
insemna
lup
presei
defic
jert
prezente
dacia
bob
totdeauna
luata
##uz
victima
publicitate
dige
magistrat
stal
coment
individuale
vostru
oce
comparti
cantitate
trupe
tabara
ceause
valor
lesbiene
##wer
cladirea
69
penite
zgom
costurile
77
##oxi
revoluti
dane
informati
creasca
via
##ctorul
bacte
destinatie
zo
calara
mobili
afectiuni
mix
dadea
beneficii
##ficari
dunarii
##jeze
apple
lase
conexi
##aa
debit
cristina
##galia
vacante
sams
neva
plece
mediafax
oriunde
##vire
distributie
excur
##stita
##cov
fostului
bancii
##kt
dispozitive
regia
line
pon
primei
##lar
industrie
wh
atit
suflete
echivale
durerea
##rusali
instructi
acopera
##ologiei
bijute
cosmet
mala
##nteze
preala
conditia
centen
profita
singuri
targo
cerintele
precizeaza
pastrat
accesibil
ocuparea
implicate
lapt
preoti
incor
sanatoasa
citat
##bata
fiecarei
ierusali
expert
##ografic
##arma
##viet
alat
amanu
muta
autoturism
wal
tehnologii
deplin
sotie
tudo
libere
miros
ucraine
faina
##cent
sublin
practice
verzi
##vitatii
scadere
legislatiei
nasterea
asemanatoare
afacere
turn
premier
##ela
facultatii
##ness
cetatean
activi
cerem
asigurare
nef
economici
ceausescu
1918
sterge
includ
porun
hotara
aparatul
autostrada
turisti
versiunea
gros
liderii
mergi
##anele
geam
700
##icale
vech
salariul
pdl
desfii
dubla
braila
militari
supraviet
intelegem
1000
urca
apas
68
tie
##rest
nede
prelungi
traseul
jucatorii
63
sk
76
boc
aprecia
aeroportul
caracteristici
juridic
razboiului
samsung
credeti
crestina
planeta
calitati
ceara
participe
tribunalul
disparut
##oca
fapta
mobila
into
conditiilor
sun
standarde
firmei
##anos
semnul
statea
batut
vata
artist
implicati
##oresc
##zez
victime
amatori
normala
nepla
cladire
scopuri
presiune
separat
grava
inclus
ascuns
invete
albastru
copilarie
indoiala
##peut
razvan
prej
organismul
asigurat
utilizatorilor
posturi
maturi
arb
remarcat
72
maicii
ipote
principiul
coada
actioneaza
##cila
planurile
vant
presc
traditional
poi
dj
argint
##ricat
vandut
negativ
perioade
localitati
poste
traficul
securitatea
cotidi
ascunde
maramures
##ultura
federatia
##rali
##vil
##fecte
##nes
clara
efectiv
referendum
regional
planta
##riat
aproba
creatie
asum
tort
varie
tole
conferinte
decenii
campaniei
utilizati
62
susp
luca
functional
expl
lupt
##sprezece
dimp
schimbe
regionale
comportament
##stu
##utele
determinat
proteja
academia
oxi
cerul
office
convers
hr
scolare
aventura
1998
aruncat
vitamine
modificare
confirmat
##lope
inimii
cursurile
noptii
milion
world
progno
saptamanii
specifica
halep
cazurile
ecu
omeni
complexe
##orati
##znic
oricat
postului
introdus
ionut
78
componente
concluzia
speram
##inse
tendi
ciocolata
incape
specialist
corespon
producator
zod
zonei
optiuni
puteau
infi
umbra
##ular
plasa
construirea
secrete
trecere
intrerupe
##ng
subliniat
sfintii
bec
perc
domiciliu
infractiuni
##orale
eficiente
##onii
sir
##mid
##cara
presti
job
microsoft
stabileste
patra
dinspre
discipl
tent
personaj
nas
rock
aerul
picior
##bilitati
buda
companiilor
penitenci
dovede
acordate
interesele
##sfi
electorale
##rem
##dro
iubeste
circulatia
muncit
electorala
##usti
candidat
unt
vremuri
reuseste
radic
##catoare
primarului
magne
profesionisti
judeteana
punerea
xix
necesitatea
regulile
lipsit
adolescenti
184
institutia
my
mila
reflecta
telefoane
##liei
repar
emotii
cupl
regimului
laptop
gandurile
iubirii
##urd
inspectoratul
180
piz
taxi
intereseaza
##mate
asezat
mitropol
ingh
soferul
cititi
regelui
plicti
proaspat
##miti
adanc
scaune
pasiune
##ley
mentin
americani
nastase
legislativa
##ntale
aplicate
indian
domeniile
dambovita
pens
##cal
targoviste
fr
foloseasca
stop
linii
fondurilor
antrenorul
propag
##12
bmw
dureaza
actrita
codului
##onel
ya
gustul
alegerilor
economi
##bei
viena
construi
obligatoriu
jul
##uel
principalul
modificat
tinuta
aplicatie
britanic
combaterea
sfintei
##stici
firea
stiintific
##scar
cercetarii
89
inmat
fals
##eapa
stiintifica
anglia
gea
magazinul
planuri
treze
indepline
##ood
refugi
cooperare
credite
benz
strazile
##gma
ambula
renum
ambasad
problemelor
organiza
umple
##sma
pilda
sam
bunurilor
lama
eliberarea
##dentei
parului
insar
calificat
exemple
deri
rugaciunea
divers
fisiere
##oroc
you
termeni
enu
variante
inchei
voce
orche
compus
##ratiile
74
ingrijire
sri
delici
parcurs
muzeului
secretar
identificarea
##stept
##verse
grij
##lari
miro
tel
invers
resurselor
casca
constante
treptat
ajungem
romano
peda
##sif
ilegal
blogul
##mida
masca
portof
relateaza
pregatiti
implicarea
zambe
expozitie
##san
pozitive
frumusete
##ntai
nutriti
strict
galax
ansamblu
bet
istorica
interioara
##ocali
partenerii
isp
##ling
exercitii
##onic
##bol
calarasi
religie
regina
partic
amator
##redit
raului
pescu
autovehicule
aline
extraordinar
finantarea
lazar
scurte
frig
max
obligati
multumit
##zu
oricarei
soarta
##shing
horm
##orala
oferind
experiente
##stituti
televizor
negli
alina
xii
depoz
rutiere
master
situatiei
meteor
drumurile
gradinita
creata
##icele
uscat
butonul
##ntar
indea
atrag
acuz
##oreasca
autoc
pics
formati
indicat
urban
ideala
valabil
adreseaza
adre
##sor
##zezi
protest
preotul
norve
premiu
anima
##onezi
solicitarea
parasit
pricina
nenum
fortei
vanzari
cadouri
filt
cruce
filip
dur
severin
cj
infin
##onam
micul
motoc
initiative
bicicleta
departamentul
banci
selectie
dejun
preti
oricarui
programele
prelung
1991
deosebite
subiecte
genun
teritoriale
pasul
sina
atitudinea
postat
multiple
divin
##gene
indrum
hum
depuse
ungh
trezit
lam
blon
berlin
hip
apararea
97
ghid
confecti
muri
autonom
mace
informa
estul
##veze
aud
rabdare
cartierul
fini
misiune
dispozitiile
demisia
##mani
##iari
##uiala
tun
fericita
potrivite
##organi
americii
cade
anticoruptie
minunata
jocului
##seni
work
traiasca
insarcin
deschidere
##milor
utilizatori
transfer
73
anterioare
chemat
consultanta
##lay
celorlal
intreaba
paginile
coruptie
ferea
deplasare
initiat
kilogra
oarecare
71
adunat
capt
obtina
unice
placea
relatiilor
teoretic
tinand
sand
urge
scria
circuit
dezbatere
supa
ºi
desert
youtube
semin
federatiei
##cator
##itudinea
descopera
uleiul
minune
##ziile
nominali
vorbeasca
inuti
interesanta
alternativa
##ski
continuarea
##dam
reactie
discrim
##spect
##hen
##silor
draga
informatia
morma
bihor
##nite
victoriei
mananca
vib
deciziei
scaderea
##pute
intim
despa
goluri
aprec
aglome
comunicarea
sit
xvii
filoz
ajungi
adevarate
referire
cimiti
managementul
##rimi
lucreze
##rovi
stapani
jean
fratii
##ome
branza
prelucrarea
otel
diavol
traditia
##dov
gratie
fondului
celorlalti
maste
discurs
infran
romant
84
##fun
administ
colectie
##diata
relaxare
ficti
##andit
infl
incendiu
neca
##ventii
##gog
intri
bursa
iarasi
fundamentale
zid
auz
##hilor
domnisoare
tranda
plu
lanseaza
teodor
obra
personalitate
aju
dancila
vulnera
cuant
tarife
88
96
calin
##ografica
preferi
afectate
defa
licitatie
cererii
abona
fura
scriitor
articul
devenind
evacu
pantal
slava
limitele
suce
topul
ritm
principiu
incalzire
asia
descri
interzice
prietena
carmen
viol
masinile
responsabilitatea
cna
ceru
ideile
blue
prinde
implicit
comportamentul
pele
incercam
##cai
mina
patrul
profesorii
operare
##sk
gabriela
generat
temeiul
spatiului
##nr
imbog
revin
anivers
personalitati
invatatura
miere
clasi
scapat
recente
bit
nasa
dimensiunea
exercitiu
mihaela
potenti
comentariile
majoritate
iesire
desfasurare
raspundere
localitatii
prezentul
fic
adjun
hit
nationali
senzatia
1996
insol
constituit
bila
generatii
pran
##jelor
desfasurate
versiune
spala
argument
paralel
pota
nisip
livrare
fereastra
datoria
astra
scade
continuu
manca
pragul
##fata
donald
japonia
medit
##ciuc
alune
brat
surprins
compati
indemni
moral
aminteste
artistic
1997
combinatie
##oliu
proprietati
inflam
##mbur
lesbian
patr
##atoarele
ioana
prahova
iesirea
##bac
biroului
incercare
bei
##lan
diza
indre
mire
##uim
reusesc
brut
modalitate
fuga
##pia
since
pacienti
abordare
##magi
exprimat
excelent
##liu
depasi
irl
prepa
intretinere
##ntile
factor
directie
sistemele
ong
##orel
producatori
strategia
resursele
salarii
materialele
##qui
fortelor
prezinte
astia
digi
capabil
judiciar
##stor
firesc
descriere
registrul
##his
##biri
aparate
facultate
bacala
suve
ingra
sfinti
##dite
logica
coe
depasit
atribui
incinta
stoma
##anei
caracterul
datoreaza
regulamentului
intentia
editii
##cute
trofe
deca
dimpotriva
##11
infiintat
flut
partenerul
competitia
##ofi
preocu
faceau
vrancea
respins
literat
stralu
##fie
considerate
morala
prive
##rime
apartinand
##alina
armoni
atare
bacalaure
scut
ploaie
nordul
simta
eliberat
vege
bancar
organizatie
pozitii
odihna
bonus
dac
##soara
declans
teza
##view
##sculare
comerciali
confidenti
alegi
mize
petrecere
agriculturii
mutat
manev
##gon
costul
tamp
sul
##lon
blu
suporta
invoc
vert
renuntat
##zatiei
veniti
##cuta
adunarea
##ranja
1992
98
eforturile
rezona
prada
digital
arhiva
insemn
inlocuit
implinit
brusc
##state
emb
primiti
olt
procent
cunoasterea
gheata
nee
spons
##udici
deputat
culorile
big
domnule
contribua
campionatului
bucati
linistit
diploma
##odoc
##urn
animalelor
materialul
impactul
criminal
##otie
complete
momentele
79
pete
interioare
coloana
chipul
accentu
india
evrei
cauze
homosexual
maghi
emisiunea
normele
focul
termin
##caruia
crime
sumele
calculator
tariceanu
inregistrarea
universul
rapoarte
accent
stabilita
puri
eleganta
112
##garea
185
nopti
candidati
fondurile
garantie
inund
compara
false
pretin
##ward
toa
maica
administrative
86
##day
##rinde
##ulari
animal
tor
edi
##alie
colabor
vise
tox
secretarul
leaga
valorilor
##stati
diversi
antreprenori
identificat
intinde
redusa
##feric
neut
ree
coli
viza
##ziei
catedrala
reviste
dulci
trandafi
coordon
vicepresedinte
tum
privesc
turneul
dispa
imbunatat
cresterii
artistice
perete
demult
ino
ciudat
clare
procedurii
consac
apucat
##core
stapan
maximum
traditionala
triste
minerale
deseori
vieti
##oanei
memorie
organele
pru
manastirii
procurorul
imparti
giga
colabora
kar
tem
##sani
##ney
iosif
reforma
##inarii
informat
##iev
diferita
sofer
sinod
folosim
##sese
executie
pusca
carp
##urator
rusine
raspunsuri
dusman
zah
joace
gimnazi
traseu
echipele
binele
basarab
##urea
literare
ars
uitati
sudul
amintiri
paroh
actori
##icilor
##unghi
inchide
rusi
slabe
restit
aeriene
educ
practici
dobrogea
clari
contribui
##prim
mexic
anuntul
autoritati
avocat
conceptul
rupe
adult
propun
teri
gazda
##ls
serve
debut
izbuc
credintei
rub
antrenor
electoral
promis
digit
egipt
calatorii
der
##iau
sectiei
machia
actualul
clasice
##bale
manga
##log
constitutionale
##ielilor
doza
intorc
##siti
facilitati
han
provoaca
tineretului
##eamana
vesnic
cartier
ral
artifici
lichid
afisat
mata
incercati
cami
figura
descur
ferestre
pasti
##pr
disponibila
mijloacele
pereche
celebra
##orile
retelele
open
combusti
her
neconstituti
ansamblul
totalitate
sani
intensi
nen
supus
prejudici
nivelului
similar
frunze
ajungand
promi
statut
##lata
femeii
reparti
oua
clinica
adopta
serbia
comertului
strazi
##lut
##ctori
##orata
nebun
perioadei
acid
industriale
muzicale
privati
87
compens
sustinuta
ionescu
caine
dezin
##eni
##lis
puteam
africa
group
declan
faim
dimit
viziunea
pasiunea
scene
amestec
religioasa
inmatricul
insotit
literara
82
ior
verbal
afle
alegeti
musul
invatare
judetele
hen
contempora
##cheta
##otic
vestul
scump
##gariei
interval
##ficarii
revistei
##sirii
salariu
frati
##goni
optiune
examenul
gunoi
angajatilor
terenuri
deco
jurnal
fiecaruia
##zan
semna
##news
masiv
cluje
ucis
reprezentant
urmatorii
sfintilor
producerea
##plica
depres
minutul
titluri
particul
incur
functiile
terasa
comitetului
hy
socot
liceului
asuma
concerte
gard
cronica
sanatoase
octa
puteri
strategie
cunoastere
achizitie
xvi
valentin
documentul
mam
olimpia
judic
##ntiu
##elor
interventii
spitale
##jude
oste
reci
sw
##lator
##ologul
coalit
energetic
usr
sum
##col
seba
ambala
##omi
marelui
inscriere
imobile
muzicii
mara
elaborarea
##vietu
executare
principiile
electronica
canada
iubita
mall
turul
ceapa
droguri
##mante
dinti
operatiuni
executarea
specii
indata
ax
hor
calde
urbani
gandim
conceput
ortodoc
beneficiile
unuia
finalizarea
provocat
##otii
optiunea
duhovnic
normelor
dirij
desavar
monument
interesat
intelegerea
animalele
animate
greutatea
detaliile
##bita
##lelor
firmele
clasica
##range
bazat
obliga
actor
afecta
rugat
vorbind
##riza
deciziile
##retul
organizatorii
prezidentiale
olanda
muntele
situatiile
indelung
imbol
terapeut
oglinda
pensiona
sangele
viii
camin
preocupa
trezi
propuse
cristos
unghi
aparent
iarba
importanti
covas
##ctului
cruci
acei
antonescu
cerna
responsabilitate
cercetatorii
discutiile
##oanelor
insuficie
##mr
##opol
den
maniera
ht
##borat
filmele
substanta
interventia
ciupe
porum
sarbatoarea
frantei
trend
intervenit
definitiva
nete
lingvi
teoria
time
masinii
imparatul
shop
##oxida
92
parta
inceapa
mancat
mobilier
prajit
arestat
legala
roti
farme
##sis
pp
performante
poezia
litri
conditionat
irina
eventuale
bas
suporte
plang
##list
varste
83
corecte
inspirat
disciplina
vota
actiunilor
pensie
fat
##ozi
credinciosi
familiile
extraordinara
cumpere
isla
travers
cort
ignora
furat
deranj
catalog
contributia
abanos
sustinere
convinge
1995
##bilul
bucureste
cinema
bod
##ritatii
univ
bunica
cercetarea
sentimentul
fericirea
##jma
senatului
##olos
legislative
repeta
analize
proasta
complexul
podul
moara
aerului
pornografie
visul
caractere
anoni
prioritate
contribuit
leu
spirituale
dificila
camerele
furnizarea
##iul
lacrimi
prezentata
totalul
formatia
cv
amesteca
vai
cheltuielilor
placi
schimbul
secol
seni
viorel
libra
convoc
perche
imens
marilor
sezonului
obligatorie
recomp
aerona
gav
lugo
ameninta
amintit
ieftin
cadre
criterii
literar
comerciala
compro
ferme
indemn
##ntala
frecvente
exage
##ml
retete
banilor
intocmit
scolile
extern
ucenic
drumului
##xx
jack
##opte
cd
dezvolte
unit
poet
fruntea
isa
subtire
nevoi
horia
claudiu
pula
##fil
granita
preli
span
absenta
expre
##gas
proceduri
##back
documentelor
dispozitiilor
##uf
groza
ieftine
sig
mancarea
##ceste
privirea
fant
redact
sinuci
functiei
evenimentelor
precis
profesionist
basarabia
noilor
incalca
limpe
deli
nave
suro
elvetia
laura
bum
ascunse
instantei
##oad
reusita
creati
spuneti
adresat
ador
nefi
lasam
vanzarea
autent
pozitiva
iron
actului
urat
marturisit
procuror
lipseste
##ienilor
turc
##dej
conturi
diasp
proteine
acoperit
ferma
modului
##fina
cina
politicii
seme
vremii
satele
lansare
fam
salariile
rezultatelor
umf
preajma
##uare
depaseste
##joc
acordului
##eara
existentei
aurel
autentic
jucarii
asteptati
##onari
israe
partidele
spar
amintim
cereri
consumatorilor
sava
ilf
piscina
sant
adam
modelele
##pad
anaf
cut
orasele
vent
printe
ardea
trenul
dorea
advers
transmise
##mne
##atesti
cenz
impul
limite
pierdere
chef
fm
structuri
##itului
lumi
##ies
supravietu
cheama
##mari
belgia
prietenul
inregistrata
##urati
mentioneaza
muc
tesut
parchetul
##oaia
proza
cuiva
gang
invitam
bunul
##hid
book
brea
lov
contracta
adoptarea
##iniu
##oreste
tratat
comitetul
frigi
handica
taiat
##rosi
meteo
ial
coru
retras
carnea
filozof
concret
utilizarii
##alizat
asociat
usoare
##15
provocare
integrat
back
cutie
lideri
##shop
curajul
##geaba
##vala
constitutionala
##18
intregului
despagu
comunitati
##pare
##mantului
plecare
educational
acuza
##veri
pahar
italian
creeze
profunda
rezolvarea
ierarh
degeaba
https
respecte
declaratiile
preca
aplicata
nedrept
94
mg
judiciara
ascul
clipuri
fericiti
preferate
impun
monica
statistica
##oniei
intelectual
veste
##dire
permi
infiintata
anterioara
texte
mirea
##pate
hu
transparenta
##am
##jan
alum
##unit
folosesti
promoveaza
finantat
finl
contactati
regiuni
atacat
articolele
##stante
achizitii
##onalitate
retelei
imprim
construite
##raliz
citeva
aflau
sarcini
clientul
##vaniei
##burg
modernizarea
selecti
chimice
##kov
##minti
viceprim
crucea
vantul
agenda
##vici
principii
primarie
micha
veget
toader
didactic
brazil
dizabilitati
adolescent
constient
##mata
maghiara
ext
cunoasca
extinderea
locuiesc
cumparaturi
formularul
povestile
intuneric
##gurat
localitatile
unitatilor
##iteaza
viorica
starii
led
reduceri
seminte
##ziv
caini
patrimoniului
oportunitati
transporturilor
rupt
##arna
demonstreaza
##hel
bilet
recrut
az
produc
goale
lacul
##rezi
completeaza
indreptat
asociatii
planului
##oliul
oarecum
prilejul
barcel
mora
factura
madrid
jumatatea
1994
##mana
##strii
cuvantului
baietii
telecom
jiu
incercand
nap
unu
ramn
corup
semnata
indeplinirea
contradic
exercita
reint
muzical
##olei
washing
consumului
predic
capatul
ameli
actiunii
producatorii
sistemelor
lucrurilor
##fund
nica
tram
expuse
asociate
infrastructurii
ochilor
artistica
mah
sfera
replica
##lip
dunare
incredibil
alternative
alianta
##ranta
costuri
plange
rasarit
##coana
prag
regulament
##zer
reconstru
disputa
tea
pacientilor
perse
congres
aprecie
##masa
aborda
denu
##17
mostenit
privile
pedagog
foame
viru
consiliu
desemnat
libertatii
raspunda
budape
stirile
arena
trecutul
locuitorilor
impozitul
propuneri
numere
trimit
##19
##bilitatii
nenumarate
presiunea
ciob
##mal
frunte
bauturi
efortul
monta
litere
##rmat
##ick
indemana
targul
sedinte
taina
##mint
volume
##wood
colegiului
capitol
sportului
##stratii
exercitarea
viziune
cucerit
normale
legenda
activeaza
od
candva
##yer
apelor
pant
pregatita
ira
egala
moale
downl
formele
industriei
fali
domina
parintelui
inregistreaza
sarit
interzis
impusc
##latura
may
##rman
##hip
filiala
minuni
investitie
reprezentantilor
utilizata
##es
carb
siria
vechiul
terapie
multip
pin
cuza
initiala
##indeni
fiului
identitatea
aleasa
calat
fetei
decedat
apartamente
##ingul
reta
inmorma
genunchi
fabricat
dragos
olande
turneu
proaspe
culturi
dansul
##garii
investigatii
externa
rural
bazata
regionala
##spru
concrete
pretut
detaliu
manastire
lati
hectare
umplut
elegant
instant
iliescu
agra
##ject
##arelor
concluzie
beton
inceperea
dumnezeul
competitiei
##rmar
directe
willia
reduse
##oman
hepat
sebastian
##zica
sel
povesteste
tipurile
magazinele
suplimentar
sedintei
germane
turismului
emise
serban
tranny
cercetarile
rm
antrenament
park
startul
tramva
93
que
pornind
bulevar
dil
alp
vedeta
##sare
900
iran
qu
covasna
continutului
bd
campioana
porni
##icot
despart
asiatic
cunoastem
pib
##vian
urechi
studiat
igie
suficiente
mega
cupei
suspect
progres
palatului
spuneam
recuperare
periculoase
##tism
##sty
gel
intitulat
normative
oche
temporar
ono
neamului
piesele
sesiune
hidrat
reprezentantul
pilot
legaturi
gandire
locurilor
cast
daun
##orde
##neasca
bloca
necunosc
incapa
statia
castige
##smele
montana
kilograme
bunurile
obe
feluri
biru
perchezit
afectat
scriitori
traducere
sunat
pastrarea
bolii
parchetului
##dale
stagi
obligatiile
vital
trimise
masurilor
##dari
bogate
cumul
cp
dependenta
proteste
inspiratie
##gs
ascen
##80
rezista
onu
vindeca
repa
clo
locatie
autoritate
pretutindeni
enorm
lasi
recomandam
promit
oprea
rate
##ozitatea
ocro
medicilor
moneda
polite
similara
cuptor
echilibru
trez
pofta
##hot
infecti
timpuri
aman
scoata
evolutie
transni
transmit
##uarea
impline
##60
procese
hotarari
toma
sic
eroare
muzeu
intrebarile
puneti
##arati
simul
etichete
##vinov
##metri
biza
imobiliare
fasc
perspective
capata
literaturii
amandoi
hainele
santa
full
bacalaureat
##itter
##zatorul
furnizate
##40
legislativ
incheia
afacerea
##asca
subte
gasite
instalat
sportiva
talent
obsta
dezvaluie
durat
michael
bomb
participantilor
sep
iancu
purtatorul
garda
inclin
imbatra
creamp
some
ilfov
fanii
rastur
clientului
rutiera
distruge
##steste
japoneza
filiale
dovezi
basche
nepre
spalat
turistii
schimbarile
sanitare
if
##sport
consim
##22
atelier
alese
let
gandeste
ustu
intarzie
alfa
##anga
galaxy
desparti
sansele
campanii
laborator
dodon
##mirea
usturoi
oana
icoana
rochie
aparute
martin
##vina
duhovnice
minut
suficienta
iulian
executat
hotararii
curie
##ctorii
avocatul
concurenta
tarilor
daune
corpor
dezamag
##zinte
jose
ranit
platesc
servit
marina
marfa
##hal
bolilor
handicap
liturghie
potentialul
##sol
##pon
##zarilor
emisiunii
simult
##steasca
aflu
gestionarea
cristi
adoptata
conducerii
bucovina
anve
pate
imprejura
diana
marat
depre
sculpt
tratarea
artistul
candidatii
casatorit
##tarile
ierusalim
invatamantului
teleorm
rid
coasta
rese
manifestari
cetatii
proprietarul
130
suedia
##turi
certificat
capti
tratamente
aprobate
simptome
clasele
140
absorb
transferul
inlatura
##mura
adolescenta
cutremur
opus
reactia
inchisa
programelor
epui
##siunilor
artei
##vod
##via
##easa
soma
fundatiei
refer
anat
cca
baiatul
deplina
impuse
aspectele
clinic
##duit
verificarea
##marea
detinut
prezentului
linistea
materialelor
scuze
stro
raionul
controlului
concediu
sanctiuni
bank
potriveste
batrani
imbracat
reglementa
bulevardul
##atar
protejeaza
precip
ceram
termica
infru
stinge
deseurilor
cala
aducem
paza
league
indire
dinainte
reglementare
ritmul
famili
diac
##cole
##ritiei
aroma
##ueaza
suveran
cunostintele
hil
versuri
avantaje
numesc
ko
alarma
tableta
unora
bos
##rila
botez
ochiul
doamnei
felicitari
agenti
autorului
pagu
regatul
##ceau
pachetul
aseara
striga
##ntiei
specializate
opozitie
conduc
relevante
##gie
clip
gorj
nasterii
liti
##ning
minima
plimbare
sorti
alatura
preparate
copie
hiper
realizare
avere
dicti
dimensiune
actorul
accidentul
##menele
ingrijirea
raportului
argumente
congre
brad
grame
achizitionarea
##ician
adi
rad
turistic
poiana
imbolna
##univers
agres
slova
dri
serii
##beta
rich
piarda
insemnat
cereb
semnatura
sentimente
aprobata
pregatesc
hoteluri
hran
miscari
provine
mame
monitorizare
tir
alimentatie
recunosti
manu
adjunct
treime
universitare
train
procurorilor
ortodocsi
##ping
##ders
investitiile
finante
teritoriu
frontiere
jazz
eforturi
hardcore
mamaia
recenta
aceluia
adevarului
##16
##ilia
strategii
energetica
oug
mitropolit
nevinov
expozitii
prestigi
twitter
transilvaniei
cauzele
poetul
bancile
gandesti
vechime
moise
##lurile
asimil
supliment
anuala
vandu
cautam
blocat
pah
evoluat
departamentului
opinie
grupe
germaniei
combina
tig
arde
episcopul
eco
infractiunii
samp
##cy
imigra
160
stadionul
alexandra
cantat
reparatii
judecatoresti
intentioneaza
##unic
protectiei
aditi
##14
fotografiile
##dian
##ous
##gos
vil
colorate
delegat
kove
##sitoare
domiciliul
acelor
laud
##stel
##rtii
lant
pestera
reactii
##ghita
matrimoni
documentar
cladirii
debutul
domnisoara
bataie
##virea
savarsirea
pornstar
urmata
##stari
##ventiei
supune
incalcarea
opere
minime
depunerea
ciprian
arab
budapesta
moduri
normativ
anoti
crima
raniti
fenomenul
inchip
kovesi
scape
ruta
producatorul
distrus
productiei
dimitrie
neobis
tii
inga
actualitate
ivan
##cescu
reorgani
recti
traficului
raspund
medicament
suprem
fiinte
anotimp
lenje
generalul
capete
##onand
##cre
ier
##vul
originale
abate
reabilitare
nepo
##zandu
trist
neco
permita
incercarea
creampie
bautura
operational
##vitatea
rade
zgomot
politicieni
bazele
romanului
ete
situate
consolidarea
japonez
sei
intalnesc
divort
nuante
orga
pussy
luand
dema
slaba
pante
confortabil
opta
sie
##resti
suportul
muzicala
selectati
birouri
war
judecatoria
strica
esentiala
lansata
urmarire
entuziasm
pasari
focsani
republicata
viitorului
define
domnit
responsabili
lasand
lega
alun
patrati
prota
anexe
##sabile
ramase
recomandari
sosit
postare
edil
##oo
bazate
taxele
porta
prun
pensi
personajele
salut
panto
ah
jurnalul
##ings
delta
italiana
casatie
instalarea
vicepresedintele
##cd
sustina
alineatul
discursul
premium
exemplare
erotic
##sula
game
##cic
organizatiile
finale
nevoit
##rete
##mor
mintii
##ziere
coordonat
seamana
plut
mita
ambulanta
##parla
primirea
##sate
barcelona
dezvalui
stam
ccr
digitale
desfasurata
##dus
intamplare
catedra
dovedeste
asian
accesibile
comenzi
regasesc
cior
reciproc
canal
putand
##zita
citesti
metrou
##gala
##unzi
creierul
minunate
clasamentul
##omat
##mba
anuale
grama
dotat
contrar
##chete
pisica
soferi
dinamica
##ston
sportul
revolutie
##13
pierdu
buze
bag
rapide
best
chelt
raportat
110
studiului
##pet
sustinute
##cheaza
pantofi
cuprinsa
1940
proprietari
autobuz
expertiza
revolutia
gravi
bnr
comisi
curse
sufletele
celulele
##varea
facuse
ui
##ntitul
eman
center
clase
apreciaza
asas
minciuna
semnificative
biletele
bugetare
varietate
jun
##venita
miscarii
sanitar
religios
renov
unel
revolutiei
spunand
testament
##ulare
##ingea
portul
usl
veniturilor
ceremon
##ory
demonstra
horo
consideram
motorul
restaurante
zilnica
reprezentata
intoarca
cumparare
renunte
oboseala
reabilitarea
frat
posibilitati
alesi
conferintei
script
ut
imbunatate
iorga
platfor
exploatare
accidente
igor
inaugura
morale
decla
pusti
aug
dezvaluit
pantaloni
integrarea
obligatorii
completat
apartene
oaspetii
promovat
regret
ridicarea
deopotriva
distractie
personajul
urmarea
atle
cardio
pum
##────────────────
marime
download
##stand
##stein
unghe
preia
arie
##stig
restran
##sabil
celebrul
stari
scriitorul
serioase
grafica
orchestra
simtim
frau
dog
##bie
##ilie
procesele
publicarea
pastreze
verificare
designul
##von
specul
inn
porto
finele
manuale
cio
localnic
caracteristicile
colaborarea
sandu
##geni
diamet
##hul
##sing
patrimoniul
comuniste
constitutia
arse
afli
wta
mark
pranz
obiectivelor
contemporana
cavale
bancare
organizatori
confera
pacatele
standardele
autorii
ateliere
categoriile
peni
concertul
porumb
harul
life
cauti
intregime
combustibil
vestea
cunoscuti
fotografia
mir
cori
##bai
##gy
pica
beneficiat
placerea
extinde
cheia
caute
nazi
milo
informatica
lact
acoperis
previzi
oferita
ascultat
zilelor
##cirea
constitutiei
aseza
##uch
preasfi
modalitati
constitutie
scumpe
tune
sunet
supuse
turneului
proaspete
studiilor
cautati
##stiv
info
statiunea
preturilor
intimp
regulat
procedurile
ass
ofertele
##ction
sugereaza
portile
benzina
##aliza
debutat
tratamentului
##fin
senat
condi
1993
cosmetice
consilierii
emisiune
##umele
##riala
##mia
griji
contractelor
originea
povestiri
##sez
##itorului
recensa
inevita
globala
clop
inteligent
##jat
concursuri
deni
washington
salvat
ceata
platite
expresia
ambii
meciurile
functionarii
prognoza
finalizat
sovietica
lotul
alu
gast
actelor
prabu
##venite
sovietice
imperiul
marimea
implinirea
instalatii
##icului
nefiind
boa
distribui
persi
contemporan
comisie
premierului
padurea
capului
rurale
stadiul
caderea
aluminiu
judecator
senzatie
ecranul
universal
##ficile
valeriu
fecioara
sentinta
recunoasterea
digitala
eroilor
incorp
comunismului
reform
##ficii
garanteaza
merce
##zatori
isu
imperiului
grasimi
udmr
##cm
adapost
duhului
impresionat
terenului
documentare
fitness
##dox
destinata
lamaie
biserice
with
obisnuita
podi
plecarea
valabila
pescuit
uriase
castelul
sanii
educationale
limbaj
fascina
aparatului
cotro
ardele
descrierea
consiliere
baschet
scaunul
indragostit
nevoilor
calendarul
confisc
utilizatorul
retragerea
pompierii
creada
luptat
spatiile
virtual
jandarmi
dezbateri
enume
augu
organizatiilor
1944
tehnologiei
raft
simi
caras
##oterapie
douazeci
expresie
jocurilor
largi
subtit
astronom
bleste
operator
profesionali
##25
calificare
trecem
ziare
fugit
clasei
relat
becali
tinute
instruire
intin
opreste
reie
recic
cauciuc
intelegi
organelor
caracteristica
rula
depozitare
##dal
##neala
porc
emotiile
venirea
confortul
incepem
nadej
pariuri
catolica
ziar
incalta
dizol
pasii
porneste
pierderi
controvers
discipline
acredit
##bii
investitiilor
nicole
identificare
lungimea
grau
##cineva
recomandata
carca
##cob
cauzate
cardia
anca
admitere
scru
extreme
legilor
uk
dificile
blaga
predi
suspici
##tati
sece
jura
deteri
defini
pomeni
unire
medicului
slabici
##cla
protejarea
periodic
compozitia
##rmarket
degetul
##diate
piciorul
dezvoltate
coree
etn
pacientul
celorlalte
##zic
contribuabil
drama
desprin
protagoni
urmaresc
altcineva
temperaturi
inaltimea
peretii
locatia
kit
ferti
dragut
cancerului
protejate
calatoria
##manta
propriei
##balul
comercia
depistat
ster
sportivi
bibliotecii
masline
udrea
dobandi
cifre
benzi
valorii
descoperite
expozitiei
bucuram
domeniului
grosi
revel
coreea
necaz
glas
##boli
termenii
teleorman
##hos
##darii
nevoiti
energetice
ly
darul
lucrez
judiciare
handbal
complexa
tama
europarla
maru
originala
workshop
marine
primesti
tulburari
ambasadorul
uiti
infatis
prietenie
##siu
luminii
imagina
apropiate
interpretare
vandute
intemei
eligi
descoperirea
mes
aparitie
##uind
plans
sapun
moldoveni
automobile
norme
mandatul
fructele
ceasul
##cei
jandarme
inteme
emotional
strange
straina
rind
sfar
lingura
diabet
hel
tinea
crestinii
imaginii
resita
utilizatorului
consecinte
acoperire
stram
bumbac
##gin
surprize
canalizare
##arii
etaj
calm
izvor
explicatii
adusa
premiile
##mini
relaxa
daci
rup
mestesu
danie
imprima
prezentam
retrage
inchirie
imparatia
##veanu
designe
cus
printul
echipament
individ
##hiat
forest
mireasa
florile
peter
antioxida
specializat
ucrainei
bolnavi
ferata
turda
##orita
ungariei
ritual
##latina
alimentar
costum
provocari
uriasa
##titud
meniul
extins
vitea
logi
competitii
bale
clipe
ordinului
pregatite
lucram
horoscop
consecintele
dificultati
respectul
accesat
directi
secundare
solutionarea
dand
achizitionat
natiunilor
lucrarii
dej
independente
lectii
mariti
nava
prevenire
autovehicul
##oe
cablu
anumitor
miliard
rani
##lati
toale
lezi
chestiune
judecatorii
chestii
cercetatori
robu
##hon
aleaga
incend
liberi
capacitatii
##reste
350
modernizare
bucurestiului
##tar
##ruta
auton
legitim
intereselor
abilitati
metodele
lucratoare
gras
latura
##ilian
invitatii
semnificativa
grand
ridice
managerul
interpretarea
reparat
creative
razboaie
zodia
imediata
gr
sfatul
lugoj
stanci
abilitatile
ialom
sesiunea
vese
cosmin
ampli
neu
proport
buzunar
laptele
reproduce
agro
power
medite
traditii
rome
propaganda
modelului
descris
fenomene
absolvit
revend
constantinescu
tensiune
fundal
blonda
generatia
pav
invatam
placute
conditie
stanescu
turnul
##ghel
vazand
asistent
incarcare
diaspora
anton
lg
manifestare
spor
buletin
uscate
condamna
scrisoarea
pacea
spont
##uiau
scola
##old
politist
limitat
justitia
prietenilor
inspre
##kel
regizorul
##dentale
administrator
##nac
plateste
relati
goi
bratele
utilizand
realizeze
reput
scal
avionul
videoclip
emp
simboli
plec
##cus
curatenie
fierbinti
refor
insotita
##listi
adecvat
salata
amenajarea
##pii
sergiu
candidatul
locuieste
##vare
preparat
interim
australia
##opi
bijuterii
gb
confu
oltenia
##otica
interesate
##sarea
inot
cinste
frank
automata
meri
tact
##stena
mater
expertii
reflect
noutati
##pea
strategic
##osului
pasageri
bolile
intoarcere
casnic
sefului
verii
mandatului
suspendarea
##reta
punea
anime
asteptare
procede
##andei
piete
istoricul
precipitatii
formate
varst
##itas
cutit
scazuta
turistica
miezul
sarcinii
venetia
##onf
bronz
inscrierea
zicem
insine
nascuti
prabus
dezbaterea
procurori
food
citeasca
hotelului
usi
consilieri
elisa
colegilor
asociere
solutiile
impra
sop
milita
tube
realizarii
universitati
aler
cerintelor
like
termenului
scriitorilor
proiectare
exemplul
ministri
defect
amin
ploi
rezidenti
ere
proportie
##ciune
destinul
fagara
lansa
penis
infractiunilor
vanatoare
salvare
resim
cercetat
industrial
menstru
vinovat
creierului
traiesti
operei
stimuleaza
##puta
incident
liste
eti
##gram
aranj
apasa
mergeti
emotie
##verna
transmiterea
discutia
##arata
suprema
ix
senatorul
cerinte
doctorat
galeria
precizati
##tarilor
##uneste
dasc
elic
##dulescu
cazino
motocicle
limbajul
apuca
dimensiunile
implementare
centura
manifest
fizi
iluminat
exprimare
joci
ciclul
sut
sms
single
iri
ciolos
impartit
fortat
lipsei
##zatii
divina
sentimentele
afectiune
imensa
folosinta
otra
##onara
banat
coinci
urmeze
efectuata
respectat
consimta
sinta
octavian
##ntiile
mantuitorul
furi
strig
intelectuala
sofi
##oveni
orban
##med
##ogan
descarcare
nerab
serioasa
##gel
pacatul
aprovizi
autoht
dolj
paradox
##ux
##zesc
transportului
##way
floarea
juniori
nervos
regiunile
poarte
avansate
raspand
suprafete
acordata
tehnologic
cartofi
##lix
dula
prelucrare
proprietar
utilaje
vizitatori
aga
credinciosii
termice
##rvi
marcel
secretul
urias
religia
centrele
teologie
distrugerea
criteriile
duble
nefa
achizitia
183
proiectat
demo
##stria
periculos
predare
obiectele
sprijina
deplasa
ungheni
##far
comunicarii
simptomele
dispozitivul
denumit
cote
regala
trecand
testat
limitata
##zech
ionel
operatorul
bugetar
biblia
box
onora
dovedi
salvarea
personalizate
rezolutie
comunista
bagat
lau
server
pert
afectata
avertis
vesnica
dispre
fixe
dorin
alimentelor
ambasada
numirea
preluarea
revoc
servi
genereaza
##deni
admira
factorii
oi
beat
impiedic
balti
intample
oral
opinii
volumului
##neg
transformarea
politicienii
directiva
diferitelor
intreprinderi
intamplator
adaugati
1945
james
proporti
structurile
regiunii
obligatii
forti
dinu
##orn
spuma
##atch
adorm
alimentele
invin
ofen
pachete
democratie
vadu
doctorul
##now
cadrelor
santie
tinem
oficialii
contractele
##icultura
interpret
recunoastere
riscuri
saraci
radacina
nins
merc
coborat
luarea
tanase
implementat
nasaud
tovara
veterin
agricol
navig
nele
week
##niei
prealabil
##cher
enescu
intensa
amenzi
lacrim
psal
proprietatile
dens
numite
floare
training
next
germani
diicot
impute
proprietarii
meseria
##inelor
gazelor
word
sustra
neconstitutionalitate
transporta
##ghiu
pasta
admis
display
dara
##alau
muie
##pata
##rov
##ts
sfantu
curge
dificultate
love
vorbea
contemporane
controla
##til
dezastru
brune
farf
this
intrarii
holly
simultan
pietele
##resc
##seu
esec
##70
##onist
##tv
sponsori
##work
inmul
##sete
temperaturile
iuda
percepe
print
viet
calorii
##fit
judeca
urmele
partilor
carbon
ungure
puterile
procurorului
albumul
atingerea
asista
vanda
sage
livrarea
paradi
suspendat
fcsb
tigari
efica
ambit
neferic
castigatoare
semif
presus
wiki
puti
##ode
tava
norocul
incuraja
green
coordonarea
doband
apartenenta
nuanta
lut
tho
gine
maxime
cotroceni
meciului
teritoriala
atributii
intarziere
##sting
durabila
doare
scoase
raspandi
pdf
etichetat
inventat
parlamentar
compromis
##belor
neastept
##job
legen
administratorul
inconstie
##cui
munti
informatiei
ingredientele
incoace
mental
necunoscut
tenul
personalitatea
agresiv
accidentului
##eri
##bby
cadrele
psihiat
primita
marturie
patriarhul
episodul
profilul
##inca
cora
prescri
destinatia
divizia
##stent
ipj
prefa
monitorizarea
catal
profunzi
stocare
##iasi
indivizi
regene
vir
moaste
bisericile
eticheta
vatra
brazilia
gandirea
incheiate
step
imparatului
inlocuirea
consemn
urbana
amenaja
capitali
##inet
dotari
review
oportunitate
lap
##23
pereti
deficie
echilibrul
menite
epar
feed
intretin
##wei
vietile
reca
crei
dracului
##chen
sarbatorilor
filmat
ampl
##cturi
accepte
avram
##000
##uli
incolo
soseaua
pisc
evidenti
ratat
fos
aceluiasi
pacientului
imn
rurala
zambet
mersul
ventil
ima
lingurita
##onarul
coruptiei
moderat
fotbalul
imunitar
alcatuit
roaga
desfasurarii
operatie
marcheaza
matern
##rog
sah
uscata
adunarii
expunerea
accesului
motori
calitatile
portugalia
obligatiilor
greco
habar
alaturat
conectat
sna
faptelor
sustena
autoturisme
vinul
afisa
frigider
afisate
achita
trupele
pozele
braz
iubesti
restaurantul
accesa
apropiata
wo
avantajele
mena
intestin
finantate
liniile
81
obisnuite
raluca
##sabila
aranja
pist
jurnalist
trotu
zu
relie
solicitate
judecatori
recepti
considere
minimum
certificatul
recuperarea
trimita
ramb
cererile
tematica
listele
mijlociu
moare
tineti
mirosul
cuvine
faga
barbu
moc
tim
aparitiei
conducatorul
fante
fidel
responsabila
##zeste
greaca
acorde
170
predom
##teste
atacul
promite
guvernamentale
migra
xviii
125
cornel
tendinte
canalul
##clor
blocuri
statie
##urarea
programat
trium
stimularea
repetate
bbc
vila
frustra
chineza
integrare
anchet
trupei
infect
buche
egalitate
decorati
##ratiilor
mole
bucataria
elaborat
inculpatul
asigurata
metrop
cord
##boreaza
obiceiuri
##chea
inedit
egale
iorda
negri
##beaza
muzic
voievod
cancerul
##ourile
proviz
parohia
suparat
neferi
dragul
tiga
modalitatea
yoga
christ
atacuri
##rioasa
flui
osp
scriptura
medalii
exces
##ctivi
indepartat
cititorii
relatiei
simpozi
coleste
##90
app
ger
facandu
preventiv
gramada
uniri
actionat
ateri
fashi
partii
ini
##orarii
pura
dama
plimba
jurnalisti
vap
specialistilor
##diile
secretari
limpede
##starii
apocali
inconjurator
pompieri
##reaca
inving
##oade
dezavanta
look
altern
lectie
hotare
harti
trip
##fele
propor
vase
acoperite
##ntara
absoluta
beneficie
##irii
ramnicu
primarii
obtinuta
creier
critici
aude
permanente
tranzacti
preferata
cazurilor
discutam
fixa
ye
nerambur
setul
urmariti
volan
##hnica
bucuri
antibi
paduri
batrane
matur
abordarea
chiria
soca
simbolul
deseuri
dunarea
treci
imbracaminte
##ctoare
timb
##dentele
artista
revina
vremurile
masturbare
decol
##uu
probele
inscrise
tentativa
asigurati
intretinerea
adevaratul
semnate
instin
mecanism
fib
independentei
##niuc
incerci
emisiuni
augustin
asemanator
intreve
pros
audienta
gimnaziala
##sezi
##heaza
emotionala
jertfa
imbina
justifica
##arch
fia
daniela
reading
##ding
##wi
aplicabile
##dez
pne
colin
incarca
judecatorul
recurs
##ming
piper
##vitate
street
cardul
recompen
preotii
egipte
cantece
atla
cy
rasc
conduca
schema
metaboli
acade
determinata
vulcan
geanta
orna
deschid
##ovo
los
colectare
curios
regale
inze
guvernament
scenariu
##marca
##alta
adecvate
demarat
slobo
salariilor
inveti
venitul
sectiune
copilariei
##orescu
pacient
trateaza
reclam
conventi
riscurile
##ratul
bie
##universitar
inspira
aq
neuro
duci
tudorel
profesorilor
##riori
##dim
inchiderea
##nel
##sind
lady
sinteza
folclor
optima
teorie
salariale
formule
miza
incadreaza
soferii
partidelor
maca
albastra
garde
soldat
cil
barba
pretului
durerile
deschida
profesoara
ilegale
mesajele
statii
propunem
pricepe
gy
curatare
politistilor
biciclete
##olf
insisi
oscar
pesti
pelic
vizual
magic
insolventa
rutina
modificata
linistita
##bama
colum
inginer
inserati
sn
afacerile
##gele
interpretat
procedurilor
corneliu
##parea
ocazii
avantajul
drape
poker
##out
surprinde
coere
etajul
nul
invitatia
scrisori
rig
incluzand
##fei
vinuri
furnizori
ote
ios
apropiati
culmea
integrate
scar
dosarele
stransa
centenarului
mijloacelor
##umi
interdic
##birea
campionilor
califor
partenerilor
munteanu
zilnice
ct
suspendare
psihologie
variaza
1948
renaste
segmentul
depunere
doina
credeam
protop
implicare
barca
primim
curente
gatit
trebuiau
locatii
recre
afp
##ziva
##ac
pasc
usb
##ilat
surprinzator
danemarca
inteligente
psiholog
primelor
doc
cluburi
intelepciune
asumat
existau
timisore
evanghelia
##fal
sediu
gog
ute
lipsita
panza
parcului
##funda
arc
confidentialitate
cursului
recur
alocat
controale
teritorial
universala
##ichi
##prind
strazii
inferioara
indrag
pocai
carierei
intitulata
autos
decizi
day
nicaieri
mentionata
depusa
times
influenteaza
construiasca
spalare
##ges
##itand
grafic
recomandate
laurentiu
colecta
iordache
cinematograf
angela
testul
considerabil
incetat
vechea
slabit
termic
stins
rochii
cree
smurd
marfuri
intins
incercari
mitropolitul
ciuperci
##uck
raspunsurile
datorii
sursele
mars
gluma
##rind
##ratorii
constructiilor
umor
titul
##jo
sefii
##onditi
consultati
avioane
diferente
zdro
olimpice
muschi
cereale
vred
uimitoare
##nelor
urmarirea
intalnim
universitate
esu
vedete
intil
indeplineasca
bucurestiul
spiritului
francisc
minori
maramure
crizei
castigator
golf
atingere
teritoriului
varstei
consilierul
eter
##merit
vizibile
pornire
scazute
trupului
manance
computer
nik
fig
familiilor
##vu
doctrina
adapta
phili
functioneze
igiena
rosia
incompati
rude
vama
nova
administrativa
##nce
muntilor
tricol
albu
cumperi
orange
diabe
societatile
raspunderea
candidatilor
##uratoare
semnarea
inimile
abstra
artistii
pomen
ofiter
zam
pole
sky
extrema
##roza
incepi
atenta
##menteze
patrulea
##lion
franceze
atraga
sigure
subliniaza
intrebati
niveluri
1980
##xul
depart
protestata
berbe
##ureaza
ocupe
indreapta
cadea
simboluri
insarcinata
##kom
impozitului
impoza
conducea
sesizat
##oth
fibre
##sius
##olii
arist
victorii
sebes
ford
trepte
cauzei
##ziunea
popula
operatii
contraventi
talentul
amplasat
##rance
compozitie
respinsa
cartilor
sumei
avort
urss
colective
etica
jig
exterioare
jurispru
presupun
intersectia
spart
inovatoare
cari
salonul
urbane
aure
##lete
impodo
textele
mangalia
certificate
##mena
impozite
##bang
spaniola
nev
cafeaua
vazuta
actorii
hagi
faceam
105
integrala
##ofii
sepa
vizitatorii
amprenta
atributiile
deve
imbrati
petrol
asigurarilor
democratiei
tribunalului
dateaza
vindecare
satisface
croatia
icon
regla
babes
analizat
revenirea
##ctiune
tutun
supran
feb
indeplineste
patul
orar
dorita
noteaza
dobanda
adoptate
alimentara
suplimentara
folcl
domnia
frumosi
reaminti
vra
radulescu
povestesc
bud
barla
anx
##ctivitate
linga
batranul
operatorii
coltul
amar
puncta
share
balan
eru
zboruri
majorarea
##roni
apartamentul
furnizor
stresul
ingu
produca
internetul
rezolvat
academic
judecatorilor
##hedi
##hu
##tesc
ascut
##replica
posibilitate
violente
axa
geni
ceo
cec
fierbe
##fra
petit
expedit
umani
organul
plecati
semnele
rusesti
totale
lent
corespunde
canale
gigi
costurilor
simteam
gazduit
solo
anularea
repetat
catolici
musa
multumita
nori
tacere
operatiunile
verita
##oram
trimestru
fune
contului
hollywood
##unei
ips
tg
nostal
figuri
rezistent
vic
abe
stirea
land
iord
umbre
basarabiei
furtuna
inlocui
primire
##lita
transportat
fani
copac
music
istan
individuala
zisa
raut
ferovi
norvegia
obstacole
exterioara
sondaj
particular
nt
##ku
umid
incetarea
imm
jurnalistii
ordinii
exploatarea
indeplinit
paturi
iern
eng
contributie
goala
panica
sotiei
inst
colegiu
suprap
pira
posesia
exercit
temporara
egoi
beau
chema
coordonator
##mus
depaseasca
##utive
alocate
refe
##aret
prevederi
niciunul
mariana
precizie
briga
intampina
bunicii
camasa
mercedes
##gureaza
corina
##wn
universului
##liere
numeroa
denumita
regal
inco
formular
cc
credinciosilor
istanbul
carag
##omir
marit
particule
baile
sefa
##kh
stanca
comunitatile
##diei
detinute
litu
inra
beneficiari
consumatorii
directii
pand
prezidenti
ingeri
harghita
programare
recunoscuta
return
zicea
identificate
omenirii
plahot
munci
farmacie
liberali
putinta
ken
rezerve
##dil
conturile
prostit
sesiuni
prede
descopere
conge
dobroge
predomina
muntenia
##ceut
dintai
perchezitii
comertul
gind
leje
##ford
copaci
##onei
evitarea
##zive
kiev
lore
ramai
asfal
moldoven
ardei
socio
randurile
firmelor
cerului
##þi
stiintei
avansat
mehedi
zici
cititori
radacin
sle
vizate
nelini
momentan
has
##ient
##ст
avizul
nerespect
ghidul
dermat
palma
brata
##hin
consumat
interzisa
iacob
recunoscute
benefice
receptie
perfecte
##umati
##los
1968
gospod
salu
demisi
specializata
high
tabla
adancime
fmi
tech
caragiale
blocului
siteuri
scandalul
strec
puf
sort
delicate
promoti
critice
varza
padurilor
##oriul
corespondenta
temele
rigi
tratate
deces
umil
elita
publicatii
##ee
##alele
riscului
pamante
corporala
terminarea
autorizat
margine
sucul
##ierele
capabili
faltice
tuburi
fiert
indeamna
##term
apasati
##vaz
##rial
directive
experientele
peisajul
celulelor
##pite
barie
urmati
cunoasterii
pmp
daruit
programata
functiune
leon
sof
von
ialomita
extraordinare
futut
voci
1970
inghit
##chim
explicatie
opreasca
investitia
tha
flash
identitatii
reusind
##rcul
niman
##odor
inchiriere
evolua
pensiunea
revolta
##hat
frunzele
aux
caile
##ray
dana
##meste
##onice
mucenic
your
loi
parlamentari
##reau
iveala
##cteze
dealul
tribuna
nimanui
##areste
instagram
compusa
marci
interbe
##oroci
bapti
lipsesc
emotiona
shi
preuniversitar
##lier
hipe
##useni
uneia
marcata
aplicatiile
repet
coaja
catastro
ambiti
lansate
neputi
ocazi
##functi
abdo
##fone
fiintei
##inari
salon
venind
balcan
plantelor
capitalul
produsa
bare
victimele
viteze
asfalt
amend
##ken
valabile
determinarea
obama
taxei
centi
bomba
posturile
coz
preluate
calciu
mantuitorului
mia
deodata
interimar
cladirile
fondator
rebe
introduse
stramos
dintii
ganditi
omen
usile
radical
barbatilor
falsi
plangere
zvon
reiese
1950
propriilor
bilate
intram
nemi
divertis
##iculescu
mananci
armonie
generate
automati
estetica
comod
irak
charles
spectaculos
congresul
acelei
##pes
neregul
inscrisi
variate
acne
eliberare
criticat
##stil
clasament
##deti
##alizate
##usului
cateodata
squi
comunitatilor
ceramica
plahotniuc
haina
camb
directorului
##ritati
caseta
metalice
diferentele
##anie
citata
formatiei
aplicarii
maie
proceselor
lunile
occidentale
simion
##scular
pericolul
imaginatia
configur
fashion
mure
lupu
##leze
##guverna
constituirea
cadav
##omite
intoarcerea
absolventi
##ntine
##minare
pata
imprejuri
browser
ating
##smelor
##sex
asteptarile
basarabe
##osebi
##rme
##cuno
consumatori
##ienta
curati
machiaj
eur
arest
targului
postura
costume
operatorului
memora
dormi
##ricos
##uters
primara
##stesti
platiti
##dierea
proto
globale
##zeasca
petrecute
gasita
mergea
conflictul
particula
##gian
spectatori
traditiile
conving
deciziilor
ghita
zambetul
##27
copt
continuam
concurentei
fratilor
inclusa
gangbang
intocm
elementelor
indeosebi
stabilesc
accentul
##oreze
obisnuiti
comedie
human
win
vizitati
stomat
porunca
duhovniceasca
victimelor
ty
prele
serialul
##urare
dov
neuit
anc
frie
##beste
fiii
proprietatii
sufleteasca
realitatii
##diere
traducerea
##orter
minus
impresionanta
vizat
gestul
orientare
bang
creatia
solare
disparitia
protocol
derulat
premiului
estimeaza
dezamagi
mingea
vantului
zadar
spectaculoase
calculatoare
tast
voluntar
fabrici
descura
grupurile
momentului
relevanta
resort
subordinea
geomet
indelungata
##ty
tensiunea
##menii
curc
178
aple
##pale
##fida
boe
opresc
marcate
dialogul
misiuni
irlanda
selectia
##iner
textului
devi
ambal
predisp
oficiul
cris
numelui
izolat
intelepciunea
91
comma
atelierul
sfint
functionat
jan
prefectul
doro
cehia
cuprind
##rote
##99
##anari
tiche
reuters
martor
mister
muce
puternici
profunde
sarbatorile
solar
cardiova
##grad
functiilor
##kin
##larii
ciudate
poetului
stiind
nasul
destinatii
metaf
recunostinta
transforme
umili
convor
fragment
prec
painea
mentina
alegem
zise
abru
##ses
##ctu
lacului
difera
mincin
matura
debuta
rezolve
disconf
superb
chri
bir
##versarii
hotarire
numerele
##45
somnul
##cula
baby
##iciu
creanga
adresata
erori
esa
pusi
tradus
precedenta
mics
vorbesti
cercul
stire
##ico
interfata
robo
extras
##kia
dezech
costi
ipoteza
petrescu
lav
##oma
scrii
dc
##ones
pediat
angajeaza
supusa
plasat
barbatului
##nisa
##alist
dispun
##lalt
numiti
microbu
stiau
binecuvantarea
britanii
mint
auri
sofia
macro
salbatic
monitorului
dezechili
plaf
cenzura
consistenta
datorie
sotii
stabilitate
virus
datorate
grab
wirele
concomite
fisier
gin
atesta
penin
caracterizeaza
mantuirea
conducator
pelerina
califica
nit
masinilor
##velor
recept
colectate
privim
##itorii
numerosi
agentul
executarii
##cepti
dotate
necesitate
eliminat
volei
indifere
##stem
##lla
115
patrimoniu
protejata
petreceri
baze
tudose
aplice
pompe
invent
televiziunea
opune
ciuc
##33
examenului
##stente
##iam
ramburs
strigat
##°c
gad
celula
cercetarilor
dint
nerespectarea
wireless
monstru
serveste
membra
##gului
urgente
fli
italiei
societatilor
printesa
furnizorii
scolari
stric
amploare
##stite
hea
chitara
apelul
smul
scla
entitati
voua
aferent
coloni
extrate
insotite
##gula
##ist
alerta
motoare
conjun
##zite
sfintele
salvati
monumente
capc
##oto
##ierile
dispare
achizitionate
agat
apreciate
fundamental
cabinet
xv
ocean
hon
##sional
disciplin
strave
verificati
taxelor
oportunitatea
soldati
arbore
competentelor
numa
circuitul
feti
groapa
pian
portofoliul
unani
constitui
intalnirii
presedintia
ploua
filosofie
fosti
instrumentele
comandat
deceniu
##ary
##olele
west
dosarului
unesco
squirt
plantele
inje
alapt
sotului
grec
convingerea
veac
noci
fabul
##box
file
##28
rusii
osta
ieft
dezbat
numarat
inconjurat
falsa
maced
saint
intel
scan
terte
caie
oxigen
celuilalt
casatoria
regizor
room
democratia
prabusit
shopping
dista
parlamentara
##room
orientul
calificarea
ranite
sofistic
strategiei
dome
##besti
problemei
furniza
expus
economii
icoane
acceptarea
##dos
chimica
structurii
asteptari
ceremonia
democratice
vs
##64
etaje
arca
friday
mecanismul
##tan
singurele
##vant
paragra
licitatii
pasionat
paramet
macin
obiceiurile
estima
trimiterea
strop
iubim
##urele
respingerea
inainta
intelectuale
##structura
controleaza
index
constructiei
dorintele
impeca
crin
cuvintelor
tratatul
mehedinti
declansat
timo
terenurilor
favorabil
gruparea
strategice
abdomen
supravegherea
analizeaza
furnizeaza
stere
livra
batalia
primare
ureche
nevasta
##over
##andra
compil
##hool
dragostei
vanzarile
trimisa
aria
considerati
depuna
intervine
nicide
formal
excursie
exil
glasul
lenjerie
neput
franc
producatorilor
drepte
##zy
##fara
preventiva
##75
nicidecum
iste
ham
incerce
agentie
roata
##dec
amenajat
zaharul
maghiar
tira
luare
invierea
california
adn
##board
indirect
##cce
iubitorii
perioadele
suru
separate
limbile
inginerie
richard
inferior
deoparte
evoluti
william
patronul
tranzactii
armate
audi
telefonului
satelit
decisiv
prelungit
artistilor
emble
apropo
refuzul
evolutiei
##burile
brandul
febra
aceleiasi
cantec
cuge
trimisi
exploata
sacrifici
fisa
curatarea
planetei
##ueze
interc
caran
mouse
runda
aptitud
deplasat
muncitori
mandrie
antich
##deau
discret
infectii
##ors
omenesti
scolara
materialului
lunare
expan
delim
terapia
sovietic
bui
diferitele
invitatie
beneficiarii
degetele
astepti
predat
burta
##ocii
internationali
tati
oaspeti
bucovinei
##ves
comunicate
generali
comunicatii
consecutiv
lamuri
romanca
izbucnit
cabinetul
manole
##65
afiseaza
intentie
insista
permise
trista
blaj
tulb
##vand
demnitate
##ill
incurajeaza
##dd
jucatorul
evreii
stoica
impactului
stradu
sony
adecvata
impresionant
aripi
indrepta
ascunsa
farmaceut
voiculescu
coboara
spectacolului
invali
administreaza
##esti
detinuti
ak
prepara
##mel
##lah
fondat
nefericire
insela
purtator
platii
serial
promul
tinerete
oz
concepte
##vite
supermarket
gandeam
asculte
actioneze
premiilor
proaspata
achizitiona
elisabeta
senin
imbunatateste
miron
drumurilor
circulatiei
elia
propunerile
portughe
prinda
sindro
cladirilor
##ен
summit
programa
conservarea
ulu
##nanta
inghetata
stabileasca
reporta
paraseasca
fusesera
##rich
acoperita
angajare
optiunile
constienta
tax
apela
mov
pred
randa
decret
fragmente
stamp
colectarea
inmatriculare
chemati
deto
##ventiile
make
convinga
pretioase
##jare
celebru
fide
sty
ingrozit
ole
trop
amara
blocul
eron
orient
detect
gradului
domniei
colon
##ep
sej
calau
dumitrescu
mecanica
opereaza
rose
##wel
elibereaza
siguri
conventia
elementul
well
lumini
sangelui
##oriilor
porunci
acuma
##mintele
rox
banc
casino
intelept
adaptat
condamnati
activat
vino
baterie
celsius
salveze
eroi
batrana
miscarile
rugaciunile
hramul
studente
manifestat
complicat
diferiti
cloc
concentrat
retragere
profesorului
deplasarea
ebon
americanii
performantele
##hita
cainii
jurisprudenta
pisici
calendar
conducatorii
1941
extens
alcoolice
arheologice
exercitiul
depun
neuitat
atinga
falticeni
polua
##ics
adulte
politicile
rang
##ordanta
propusa
pasionati
##dau
iep
balta
cimitirul
mijlocii
introducere
iubiti
##mintea
depasesc
sumelor
pofida
negativa
britanica
coper
dramatic
estimata
rara
inaugurat
asp
neintele
industriala
dormitor
kat
afili
##vert
umbla
##ов
stalin
reprodu
tei
gold
comunitar
##teb
ici
musculare
magistraturii
##itatie
casual
##oasele
##inului
incepuse
locuintei
procente
cincea
segment
decretul
treapta
abro
dres
telefonic
ruc
maghiari
oficiali
##ditate
merkel
##besc
ciu
sunetul
##oua
ferdin
materiala
vars
adaugata
enter
autoarea
ofiteri
atatia
pacii
pronuntat
comenzii
##here
##dean
perpe
mergand
##giana
branco
caldu
cilind
##giei
##nitatii
inedite
singurat
opozitia
anghel
##bs
##iem
referendumul
atom
raporta
ferdinand
reprezentative
biroc
mancar
intensitate
prisma
marte
ciber
implicata
bogati
gasirea
pronuntata
dela
buzele
crucii
extinsa
exacta
controlat
proiecta
amor
construire
interpreta
cople
optim
patrunde
fetelor
conserva
transmita
colorat
##ec
pulbe
concreti
testare
##opul
veneau
##mici
meserie
votare
##mand
ochelari
amenajate
termo
formulata
superba
##uty
milano
candidatura
indepartarea
##alitatii
ebony
autorizate
afectati
cristea
incaltaminte
suspenda
aprobare
omo
##gniti
transfera
scolilor
regaseste
daruri
comisii
minor
iubitul
dumbra
tirg
diacon
hei
sprijinit
hitler
regenera
prizon
rugaciuni
botezat
forumul
tenului
evreilor
situatiilor
nebunie
incru
arestare
##seaza
##peste
bucu
nascuta
rav
contributii
firul
##ridge
##gro
arhan
##inioara
craciunului
excelente
rechi
salveaza
##ander
misto
metru
propul
450
elastic
revenind
sexului
exclusivitate
fila
band
intruni
##arescu
fantana
##35
spatiilor
vecinii
virgil
dispozitii
echipaj
amplu
project
garantat
punand
greselile
##low
convena
calenda
ctit
ezit
tura
negocieri
adeveri
declaratiei
interveni
violent
prut
nesi
##press
balanta
pensiilor
infapt
dotarea
intrebam
##tire
apr
investitori
restricti
contactul
##mber
gimnastica
construieste
portocali
mormantul
autobuze
portalul
confirmarea
odinioara
profesie
##ntand
##nicul
cooperarea
campulung
slabi
gresita
amintirea
scute
exclus
class
executate
extindere
finisa
rudele
virtuala
##zzle
sfirs
fundamentala
cantareata
asigurarii
##rologie
##grama
cresteri
maia
meniu
pareri
trimiteti
subiectele
##ging
intervina
house
indeplinesc
podea
##rumuse
marie
voluntariat
university
concluziile
petrecerea
tragedie
infricos
that
participant
vindecarea
crescuta
##tirea
baba
neamul
tabere
periculoasa
##ater
astepte
##deri
evite
inger
tablou
paci
avertizeaza
timpurile
conexiune
curenta
uleiuri
semnificatia
amenintare
colectiva
carbo
vazute
sefi
voiam
hrani
abun
turistilor
impuscat
##ctrica
hem
pasaport
oferindu
tarani
omorat
hentai
chestiuni
ceasuri
antica
progresul
##sata
instala
##citatea
combatere
##jar
##opolit
dezbra
##lusi
moldovenesc
defen
legislatie
plini
monumentul
##pedia
##judic
tehnologice
silviu
cumparati
terenurile
ib
sosirea
ceaiul
eficienti
fast
vouc
estimat
conflicte
carbura
vasilescu
cutia
dezvoltata
team
apus
grila
nobel
poseda
logo
trad
sarbatorit
depresie
garantii
aeriana
textura
zia
##omon
altadata
ciclu
##orice
miracul
obraz
smere
carita
aprins
impar
contacta
transferat
artificiala
contractuale
hua
apere
cuantum
reconstit
loui
##orite
votului
efectelor
abandonat
tabloul
creatiei
flacara
109
asociata
ecologice
##rius
autoturismul
360
responsabile
inchidere
solidaritate
infinit
exceptionale
balcon
amintirile
sprijinirea
pasare
platformei
masive
superfici
faliment
award
dal
vro
sexdate
groaza
strabat
dumnezeiasca
organizati
##utori
petreaca
asociatie
variata
montat
anvelope
mancam
asamb
titlului
comisarul
living
inar
stralucitoare
paginii
contradict
finlanda
stadion
stomac
##sivi
##pit
telespect
recrutare
britanice
orez
liderului
apostoli
eventualele
intuit
indul
calendarist
promp
stratul
transpi
##see
deputati
plagi
aceiasi
soa
multimea
sanatosi
##mburg
iposta
cani
gandeasca
judec
##tian
obiceiul
picaturi
trimitere
solicitare
dintotdeauna
long
abtine
majoritatii
maestrul
achitat
telekom
metodologice
oraselor
obtinerii
precadere
afgani
licitatia
intreprinderilor
##secunde
trimestrul
vernisa
imbunatatire
improvi
complexului
participarii
prenu
108
peisaj
##sd
campia
postal
##26
veterina
lana
creator
##mbe
dramat
marcu
##armon
folosul
patruns
reprezentare
infrumuse
sole
chirurgie
functionari
hub
101
##alizata
panouri
brancu
rubrica
capitanul
scule
comprim
razbo
cititor
telefoanele
anex
aerian
##versale
##atati
jucatorilor
##reanu
encic
orb
compact
cainele
cou
pretentii
desfasoare
feminina
profitul
semnale
##iele
secuiesc
inevitabil
statutului
venite
medicamentele
bisericesti
tec
sarac
pizza
evaluarii
iertare
135
auxili
comise
##tle
absolventii
parasi
mis
marunt
transformare
previ
lon
dubi
dile
recipro
valoroase
gestionare
posibilitatile
##niceanu
actualizare
antoni
fabricarea
sif
##gheaza
##pile
clasat
multumiti
urbanism
plastice
cheile
reamintim
catolice
##rios
##onica
##reen
##hy
cumparate
arhitect
intelegeti
mazare
ecologica
polic
explice
romanian
selectate
inlat
##xit
dispuse
badea
succesului
1977
destule
programate
cotidianul
logic
##ctorului
##iez
diesel
dormit
pipe
inviat
medias
portii
formulate
impla
coruptia
calculatorul
prelungirea
conduse
dragomir
##stesc
citind
cupluri
qua
disponibilitatea
simpl
##ror
##miei
calcat
milisecunde
seche
nucleare
##lez
bure
recomandarile
dinaintea
simtiti
cardi
cailor
randu
cinstit
##ois
solid
chestie
mandru
disputat
cauzata
##rindu
##fan
praz
##44
personalitatii
teologic
inconjoara
urina
ambasador
licee
pretu
colecti
promoveze
incantat
thomas
nepa
saptamanal
puzzle
copilaria
depozite
multinati
maestru
interviuri
##alizeaza
exprimate
##77
##guta
fondatorul
trezeste
memori
obosit
asistat
##matiei
sectiuni
manuscri
##uiesti
##dl
##jeste
insuficienta
trecutului
preferintele
antrop
nobil
usd
cimp
mentionam
agricola
ajutati
participante
run
primej
diete
acoperirea
fabricate
concepute
constiintei
cia
platforme
savarsit
laser
renault
nemai
atena
greva
proportii
aviz
editiei
instructiuni
transmisa
prelimina
neimp
provenite
martori
##yi
adresate
legaturile
imbogat
afe
##fro
isc
coregra
verificat
ajutam
salariati
175
##sitor
##gate
##lite
georgescu
inel
salariului
amenajare
cultiva
xiii
autenti
bunicul
versa
flora
ludov
##stile
melodii
erou
jucam
sigurantei
etern
cunostea
artistului
catolic
conspi
filarmon
climat
biletul
plecam
optime
intrati
petros
fasole
ecate
sinaia
pris
pronunta
hab
florian
iernii
nokia
initiale
privilegi
amplasate
cezar
tag
comunitare
patrat
echivalentul
atot
atacurile
emisa
diavolul
legumele
ziarului
##uer
lt
culpa
hotnews
categoric
slatina
casat
politehnica
##usor
##ovan
aparuta
politician
angajator
##all
neince
interzise
coroana
jurnalistul
##serv
agrement
maghiare
##geste
alcatuita
orizont
tristete
kos
garanta
portoc
pavili
documentului
copi
hote
caranse
caps
operatiunea
maior
ingerii
ziarist
white
##zesti
controlata
vizitei
unanim
automobil
##urne
divertisment
matrimoniala
##olis
instantelor
parlamentarii
##oge
moi
king
cica
erotice
intarirea
##strezi
lene
axe
##mann
recunoastem
##mond
pocainta
inutil
capabila
##casul
opiniile
##gam
municipiu
##29
inno
venim
feedback
toaleta
##ziunii
amenintat
atasa
##peni
tricou
dup
html
manastiri
cool
stang
comem
amintire
##lizare
zborul
##strate
145
fotbalist
specie
atentiei
sighi
memo
intentionat
cloud
##ily
exceptional
##nam
retail
##strata
lasate
influentat
##gau
concluzii
fireste
##ratoare
retelelor
muncesc
propova
##fir
nenoroc
puscarie
moldovenesti
instantane
prez
defineste
prefer
robie
poses
ramanand
atractie
##uce
viteazul
pietoni
concentreaza
##das
fore
ingrijiri
##oris
nutrie
brancusi
mormant
inhi
seriei
functionale
autentica
diplomatice
kim
school
##banda
latime
orgasm
##chii
chan
cifrele
scuti
tic
marturii
vegetale
##vision
asociatiilor
contabilitate
talie
amat
razbun
provocate
interviul
curti
prezint
antice
descoperire
browse
zar
decursul
##gand
##stiei
prejudic
nuci
aloca
proiectarea
slovacia
alimentatia
salbatice
ludovic
climatice
uv
relief
##metra
parcurge
biblie
izvorul
foaie
concomitent
colle
prapa
##och
pog
cock
pneum
comm
##sturi
intarzi
carcasa
prinsi
farmec
onc
concluzi
##rick
bras
reprezinte
220
fluxul
ceruri
incore
intelesul
seturi
structurilor
creativitatea
exige
visele
179
carbune
cript
radacini
studiaza
flirt
emotionale
radauti
##vard
preparare
mioveni
internat
lipi
fotbalului
publicitatii
titular
invizi
reactiile
intense
casatoriei
preluata
portocaliu
sosea
united
versurile
toleranta
perseve
vopsea
spove
intermedi
crestinilor
genetic
##zitate
descoperiti
fantastic
intrebi
rinic
domni
bisericilor
antibiotice
travel
democratic
versiuni
redactor
##zen
repert
saracie
biologice
distributia
tarif
sensibila
refugiati
caii
laterale
xiv
##lac
vitala
defav
sedu
munchen
calca
ideale
subtiri
nesti
garantia
afacerii
centrali
caselor
molecul
indeplinite
comentat
reglementarea
postale
generos
terti
lovituri
##juns
mandri
roy
##atici
##vet
##gurilor
expunere
cuminte
indicele
cadrului
educative
alert
pedepsei
litoral
##ctivitatea
avansata
oricar
previous
adunare
girl
lucrezi
secundar
pierzi
foi
concer
##hiei
ambasadei
patria
adora
ciberne
implice
incapat
bunului
dezle
sensibile
operatiunilor
multumire
sperma
rascu
impartasesc
refacerea
camara
##tatea
civica
manifestarile
cuprinsul
mura
valuri
silic
reusite
traga
aliantei
reglementari
aratam
pastrate
sectie
##sian
repriza
definitie
solicitari
pricep
amestecul
vizualizari
procentul
rugati
asiguram
riscurilor
1920
francezi
episoade
dante
sperie
acuzatii
##alism
bolse
adan
cernauti
muschii
oficiu
limitate
contrast
scenariul
referendumului
anuntata
consti
##inian
1987
familiari
tablete
tibe
parola
albert
autospe
implementarii
duhovnicesti
protesta
holo
senator
dusa
adaptate
##dentelor
melodie
trecuti
ouale
latin
deputatii
##my
minoritatilor
psihice
neplacute
citim
calculat
seman
dispozitivele
secolele
lemnului
serg
sectoare
unelte
##utea
triunghi
##candu
##scope
urin
1960
japoneze
speriat
##olia
incalzirea
cautand
parcuri
102
##lism
incasa
perechi
carton
formulat
amuzant
##boy
politicilor
##orari
##gua
instra
oricaror
insuti
inchina
ry
cinstea
necunoscute
codruta
memoriei
##gorit
118
cercetator
invierii
104
incidenta
informarea
rigu
luxe
amandoua
descrise
cazului
infu
aiud
invatati
nesim
bancilor
auda
busui
altitudine
notele
vasta
coman
vizibila
jucarie
vinului
provincia
lire
consultant
rezistente
visa
zme
populari
fostei
petrosani
golul
beti
##nc
nepotri
filat
renume
saraca
##sule
plant
salaj
break
a1
##shi
naturi
gusta
filma
##ene
network
solului
gratar
regulilor
lunca
gazdui
##steni
azil
##arest
gastronom
nuc
primari
cronice
##diene
beneficiul
consimtamantul
averea
fostii
orala
devo
cogniti
second
superi
neconditi
aportul
premiere
impresie
lemne
principe
farul
concordanta
##dimen
recunoasca
reunit
sperante
ghini
##gurile
low
semnificatie
instructiunile
naz
psihologica
imbratis
##desti
insote
##scuta
cititorilor
##cao
umed
##gile
graba
##omie
gaura
light
nenoroci
107
slobozia
ginec
coca
xn
##vana
monede
cust
dispusi
cauzat
miting
solara
##unerea
sighe
##dt
stilului
lisa
ecumen
##dm
examene
csu
imobiliara
acuzatiile
ulterioara
prelucrarii
povara
cererilor
noutate
inregistrari
mixt
##oaica
indru
maro
declarata
publicatia
organizarii
##nari
experimente
deficit
comenzile
adaugi
sters
##artate
stapanul
dulciuri
kan
filtre
##rla
adaptare
albi
colectii
ucide
grasim
luptei
integritate
urmatoarelor
##nirii
rafina
cabana
##itie
statiune
celebre
decorative
aiurea
psihologic
terorist
etapele
dating
##ience
inauntru
128
opiniei
onoarea
tatua
pudra
demersurile
recomandarea
##onilor
gazduieste
aplicatiei
zd
nude
enzi
locom
##opar
branduri
decesul
enciclope
solide
##nton
acordare
ramanem
brun
mami
burse
stranse
disney
remi
bad
demite
vizuale
##cuz
separati
magazinului
reclame
treimi
restrictii
cutii
curg
##ppe
103
comiterea
frage
adriana
solutionare
asemeni
echipat
verteb
echilibrat
diri
gon
pesca
dvd
tabelul
hg
secreta
diplome
invinge
vedeam
adverse
##onaj
simtea
acceptate
##licat
lia
ucisi
detoxi
estetic
transporturi
plenul
cisti
gd
##neau
concentrare
gloria
prezentari
descoperita
##nuit
digi24
legend
##66
mamele
anna
olimpiada
turci
magistratii
rov
impuna
chit
tarifele
buton
##sso
rastig
rute
pierdute
rule
realizari
scept
echipamentelor
shake
greci
magica
##nota
constitutional
felix
analog
deduce
denumire
recital
procesor
violentei
papusa
valut
##prea
sarut
cofe
despagubiri
mantuirii
gazeta
chestia
##tom
contabil
redeschi
fagaras
purtand
indeparta
evidente
proaste
murda
decebal
165
interzicerea
revar
zicand
aparatura
inval
comunisti
##cord
adver
podium
propozit
tarie
spiri
##ilate
modificate
etapei
minti
##ilica
##lizarea
ciz
schimbarii
anuntate
mostenire
zonelor
medalia
##croni
prosti
tical
intalnite
acelora
palat
acopere
xxi
moldov
respira
clat
misiunii
instii
incidentul
broa
inedita
circumscri
evolueaza
terminal
good
pig
regreta
tramvai
existent
buch
partidei
contestat
##mire
glume
producerii
##uth
ocupate
tastatura
gravit
monte
civilizatie
ieftina
gasca
coaf
titan
sufla
huawei
domin
##atri
esal
operatiune
##dati
##otene
plumb
##rierea
exprime
ultim
cedat
pau
pompa
urmau
scrierile
cunostintelor
zin
rugby
parter
invecin
arii
rasi
deruleaza
degete
sporturilor
observam
spaniol
uefa
straturi
deranjeaza
coperta
caramida
##cj
aducand
leziuni
acoperisul
##orva
inspirata
influente
botan
veteran
presiuni
starnit
krem
##ational
teribil
lungu
inceteaza
administrate
see
ungureanu
abonament
trofeul
italiene
orhei
nicu
imaginatie
masoara
cititorul
purtate
##xeli
exemplar
pene
##schimb
##uinta
##lot
olig
##incios
privirile
papusi
ciobanu
##bb
##niti
jucatoare
diagnosticul
bucurati
descen
scopurile
##icianul
amintiti
micile
trupelor
contactat
ramaneti
cream
##cc
tind
inamic
##areasca
1947
excel
1986
arome
voteze
sticle
##pal
tigan
1930
tipic
lunara
##ianta
saco
toarna
155
##aza
promot
festivaluri
urmaririi
lentile
explicit
experientei
scrutin
mecanic
batjoc
chinez
avra
explor
portal
viziteaza
intamplari
aratand
orelor
panora
##semn
minister
apreciere
maim
centraliz
nutritie
favorabile
preme
smant
dou
tensi
##dios
filialei
melodia
rasu
sila
vatic
hop
grinde
eforturilor
provi
sculptura
##lop
trezesc
umanitatii
busuioc
bianca
documentatia
insel
reuneste
divine
atasat
hidrata
elicopte
risi
clinice
##ska
mind
toni
muntelui
imper
neobisnu
militarii
opozitiei
dotare
devii
bin
incert
mosco
grupurilor
blande
componentele
cearta
regizat
ramasa
scoaterea
trasee
##tiei
editorial
georgia
statistici
intocmirea
avertizare
echilibrata
avertizat
incu
ipoc
vinovati
bros
regasi
dise
casuta
functionarilor
sere
transa
##icat
##ntry
psihic
excesiva
neob
raportare
fanto
supravietuire
1988
indelun
manifestarea
internetului
prejude
clor
fondata
trasat
##spen
prooroc
##preasfi
parcarea
##sal
valuta
volks
b1
provocarile
oh
demonstreze
distruse
spaniei
testele
conceputa
geno
ajutoare
zborurile
##atoarea
scadea
lasata
demersul
obiectelor
umplu
jurnalistilor
incalcat
sporita
inundatii
arhiepiscopul
sedere
mom
predea
##gerilor
virusul
sfaturile
sensibili
sati
situeaza
amenintari
##gb
suv
obtineti
imprumuturi
fireasca
atributiilor
substit
nivelurile
apreciata
177
lemnul
saturat
harry
roxana
rezolutia
indeparteaza
olimpic
standardelor
mirare
rusu
bebelusul
marturiseste
retrogra
##ronica
interce
dobrogei
1985
praga
##urului
##lowe
adaugand
finantarii
##mist
recure
##gata
sectii
mt
caruci
flore
wikipedia
tr
pornesc
semintele
odihn
##veniti
cuantumul
medgi
parada
derularea
what
disput
autostrazi
masc
originar
protejat
piesei
amorti
luminos
furnizorul
statui
##aresc
fraza
viceprimarul
galerii
traduceri
constran
rachete
epocii
vile
elibera
minore
dobandit
satisfactie
stream
dera
conver
sindicatelor
unchi
roluri
reporter
gandirii
editor
beneficieze
echipamentul
colegul
inaltpreasfi
umar
johan
sunete
privitoare
dacian
putinele
efective
civic
comercializarea
rostit
emag
adaugam
confirmare
rezervare
##garie
bunic
intocmai
replici
logod
pulm
just
tehnico
jen
trons
desenate
##rini
spuneau
##pondere
hotari
templul
frontierei
ploaia
regatului
grindeanu
gestiune
junior
florea
##cente
punere
castigatorul
sugestii
saluta
radacinile
##ovic
primave
difuzat
##uate
detaliate
imputernic
fugi
asezate
153
valorificarea
119
touch
incepere
pierduta
tragedia
##ury
stili
##68
despartit
incarce
convinsa
delegatia
indice
donatii
carduri
inchisoarea
kog
acs
analizate
fisierul
omor
##cial
ms
chimie
terra
abordat
combinatia
anulat
perceptia
profunzime
##soare
robot
izba
jandarmii
botezul
excursii
mentinut
irit
##mian
medicamentelor
##lurilor
universale
1984
incit
padurile
##voda
curatat
must
arsenie
creme
extract
intrebui
negocierile
doream
omega
reluat
ingrasa
instalare
##arhia
dedu
device
pensionari
salariatilor
schimbi
durerii
formarii
holocau
efectuarii
simon
virtuti
gps
eduard
obligata
comunice
ena
elegante
poeziei
kremlin
cinsti
omenirea
grafice
aa
selectat
respiratorii
donat
coduri
deterior
alternativ
imbunatatit
reporte
destept
sarea
iude
vechile
dual
absolvent
mananc
producatorului
jung
rochia
imobilului
calculeaza
asteptarea
nevoita
actualizarea
##descu
adese
ciudata
xe
3000
ilegala
##ben
##tila
principiilor
facilita
agentiile
implineste
##point
vamal
tendintele
##oape
##strilor
natiuni
indispen
bali
##liste
ferate
cretu
clujului
surprinzatoare
sosele
integrata
##sibila
asigurate
cumpararea
combinatii
##chester
supusi
fetite
tenta
studia
vult
motoarele
sedintele
fasci
alfabe
schimbam
emiterea
notiunea
tol
preconi
insulele
cosul
venus
brati
verticala
organizeze
chirurgicala
parteneriatul
##cker
ramura
colaborat
##farul
lichide
adolescente
descoperim
mla
smantana
reprezentate
franco
infractiune
savarsirii
apelat
liberalii
praful
liturg
sinoni
perimet
natal
altuia
respectate
pacatului
atribuire
feminine
inregistrati
jer
1500
party
sinteti
discutiilor
postarea
natiunii
rafa
agentilor
eni
platita
apropia
manevra
structurale
nemultumiti
diminuarea
contraval
scriitorului
zugra
##ра
bugetara
parchet
islam
##jesc
pretinde
aparenta
abdom
stricte
convert
remediu
confere
spita
folosire
virtutea
vazuse
chia
impotri
tinutul
adeseori
informe
titlurile
integritatea
bicic
pay
neputinta
##gne
melea
acuta
intareste
from
amate
side
livrate
apeleaza
sclav
tigara
sangu
##gurii
aseaza
pedeps
slot
negoci
tus
delicat
barbie
dintilor
230
convinsi
durabile
haideti
champi
configura
predica
lucea
##tite
unicul
sova
musulman
mandate
ecaterina
lipsite
motorului
islamic
mute
proiectate
litru
contina
discre
remus
imobilul
castel
reper
siret
chal
ecologic
miercurea
racord
oprire
##roba
expirat
chinei
spectaculoasa
ingerul
telecomunic
ideilor
dezamagit
paran
turismul
incom
autorizatie
obraznic
bebelusului
irita
albine
##tte
feza
incendiul
uimitor
123
eme
asistentei
iuliu
fuck
diviz
##ctic
alexandria
montarea
##grame
formatie
strategica
sult
autonomie
##iler
##qu
flagra
localnici
tomis
sincera
##daj
popovici
armele
ordinara
reactionat
indicii
conduita
aval
argumentele
montane
ku
strab
directiile
mania
##inesti
uniforma
perna
detasa
doze
intarit
##ciale
informatice
beneficiar
sime
oma
definite
manipulare
1969
castigatorii
reglementeaza
prietene
eficientei
civilizatiei
leo
asce
avocati
angeles
##gai
fruct
efectiva
##zis
java
numeroasele
certitudine
inman
provenienta
##ureze
intalnirile
##irile
##andri
##bas
montate
##sten
demol
refuz
abilitatea
restabili
tonul
miss
bratianu
baietel
diversitatea
##nik
somaj
deste
subtitrat
##hoo
aroga
margare
litora
margini
alteori
barlad
##ntarilor
1919
delibe
institute
birui
explicatia
pregatim
dinamic
datoriile
sintagma
disconfort
treizeci
formatii
conflictului
introdusa
struguri
severe
examina
chinuit
implinesc
mori
reforme
pensiile
mobilitate
cunoasteti
impinge
evoc
instantele
incalcare
principalii
retraga
asezata
haz
##cis
##ctorilor
boxe
castra
platesti
##dina
##otro
bordul
unghii
virgin
reusim
rodica
maturitate
creativitate
106
exercitiile
invatarea
sesizarea
ocupare
prealabila
orgie
stabila
curentul
templu
fortata
ego
aurul
criminali
trun
silvic
taberei
controlate
prelucrate
costin
african
gui
numea
accesarea
colega
primind
##pteze
##ochi
dansa
englez
rotunda
tac
oricui
slav
##id
abilitate
curva
jef
stefanescu
colone
localnicii
selecta
aducerea
prind
aferenta
##iteze
neglije
pv
pali
decurs
1974
concentre
banatului
aneste
frf
##hl
investitorii
amplasa
corul
kogal
iso
afirmatii
afganistan
ghic
moza
conecta
##ealth
textile
aqua
notificare
peretele
215
ascund
gruparii
zaha
ocupata
lantul
webcam
natiune
##giile
prefectului
distribuit
jal
setarile
poduri
scap
ardeal
blan
abundenta
atractive
body
incapere
rotile
remune
vizitatorilor
particulare
liderilor
creditelor
aflandu
profesiei
platile
raspandit
transnistre
plia
cub
catorva
hardware
copy
inspectorii
incidente
gesturi
clima
umiditate
seo
vamale
1949
preasfintitul
majoritar
exceptii
nivele
obligatie
comandantul
eliade
deschisi
##ceri
1917
batai
criminalitatii
a3
cantemir
intima
##ield
sibiului
vicle
inferioare
disparea
reun
##41
greciei
seism
kogalniceanu
singe
noct
dureros
reia
##anel
picioarelor
gluc
punga
prepondere
incredibila
stapanire
##fest
protestul
escala
oro
##jeni
sloven
acorduri
gigant
craciunul
scuza
constand
urgent
cumpana
1939
prover
fericite
frauda
##rant
sincroni
pregateasca
guvernarea
oase
esca
mandra
imposibila
##pn
adanca
##win
incompete
pista
##48
solomon
moarta
aport
transparent
recenzie
pensia
alocarea
##bank
##arus
dadu
aprecierea
traditiei
aventuri
operatori
sindromul
##rome
colestero
circumsta
dandu
umeri
suplimente
##ulesti
echipamentele
vostri
scapi
nesp
deport
bill
frunza
##centa
intrand
dorite
##kes
muresan
imaginat
##side
##но
240
1975
alung
senatul
sursei
elaborate
plasate
dic
consume
scrierea
feroviar
criminale
wall
psihica
reduca
faze
##dala
priori
pov
cuprinzand
arhanghe
observatii
formatul
atractiv
pece
prejudiciu
dif
animatie
##yl
arestati
ispa
romaneste
pizda
scriere
esecul
somnului
ox
favorit
luminoase
juriul
accesibila
atribuit
destra
analit
dispara
story
stup
bazei
lie
algorit
##sv
turb
bart
rival
interm
conexe
##km
creatorul
turnu
sighisoara
coach
fenomenului
htc
glice
globali
statistic
arabe
fres
1978
##eare
##udia
semnaturi
##nitud
explozie
contabile
cosmar
chirurgicale
##gov
ocna
culinare
echipelor
stir
##pan
nutritive
daunatoare
iad
inimi
defavori
amuzante
nuca
teoretice
conchi
popoare
visat
fratelui
necore
statistice
fermierii
menaje
##arba
necur
indicator
apostolul
rabdarea
alergat
romantic
##justi
tanarului
ruleaza
moto
testarea
christian
tabel
veci
congresului
lacrimile
angajatorul
##utei
valabilitate
viseaza
god
##deasca
saptea
informatic
subtil
contesta
ramine
conservare
inchiriat
observator
proe
ingrop
muse
sacra
##nar
##lama
patrunje
restructura
tinde
decorat
sile
##ology
reaminte
colora
thail
medgidia
completare
anuleaza
aplau
vizuala
complicata
florilor
varsov
vorbele
materna
noroi
deranja
168
pleci
eret
comunism
unitar
pastile
costat
razele
anver
stabilitatea
ocol
conventiei
beta
wifi
secretele
comoara
indepartate
inspirate
interesului
porumbe
instalate
brexit
sporturi
##cli
provocarea
patrioti
excesiv
sarace
hidra
scumpa
speri
atitudini
montaj
poalele
ultimelor
petrom
primaverii
necu
dorinte
gospodarii
road
propriului
scari
portofoliu
##carii
afirmatia
##vali
##usit
ecrane
examinare
confortabila
hiv
##hoi
##ctica
optional
calatoriei
1938
talentati
ipad
arteriala
asociatiile
capod
##ografii
salii
soros
artificial
muzee
##zant
3g
vesel
tour
evaziune
carbohid
acceptata
angajamentul
##bona
partiala
recuperat
yahoo
sarat
utilizeze
descurca
preotului
nejusti
termene
austrie
verifice
arhitecti
##rgi
soia
accesati
inregistrarii
surori
socoteala
1981
1972
##ineaza
multifuncti
sari
scorpi
amplasata
voteaza
focului
##anis
audioviz
moldoveneasca
perform
bica
motivat
138
autentice
cita
intoarcem
stelei
imaginilor
galate
evreu
inutile
vioara
motivatia
arg
rostul
ajunsi
##ppy
marirea
tratati
rasturnat
orientarea
bucharest
##ments
statist
stocate
fermieri
tehnicile
racire
##nare
manchester
executia
partenere
senzati
filosofia
capodope
pozitiile
##strez
##bc
numerar
deficitul
filtru
##sson
initierea
1979
dezinte
bland
inculpatului
aleea
atragerea
##ciul
nisa
cabina
sarma
santier
protestele
instante
academice
117
henri
neasteptate
##inf
suede
parerile
dictionar
simtul
rali
amazon
operatorilor
##pc
continui
schimbarilor
substantele
##oului
spul
soti
marfurilor
oferirea
deskt
tratata
##ulte
stanciu
##yn
tulp
xnxx
fumat
pertur
pastram
##ocrat
elefa
amanunt
rares
lag
##vis
mutarea
separata
##kan
check
porci
bazinul
crimeea
imbracati
anvergura
acva
##oniste
autonome
qui
aeroportului
mantuire
specificul
intind
sanul
adevarati
fotografi
##69
moscovei
cursurilor
efectueze
picat
concentra
cernavoda
##ntrul
captura
imbunatatiri
cupru
confruntat
colturile
silue
iute
petrolul
coalitia
speta
alergare
meditatie
urechile
##pol
unda
telefonie
trasaturi
federal
bif
infectie
tubul
potrivesc
eventuala
uniune
dornici
miri
aderarea
nicula
lins
atribuirea
urmarind
sferturi
inacce
5000
avertisment
spitalele
altar
carpat
elector
impartasi
doru
gospodarie
pierdem
marturisesc
incheierii
hiperten
magistratilor
incarcate
respectarii
relata
##ismul
extratere
1973
erd
viitoarea
nicoleta
##direa
focus
sodiu
asteptate
##pers
priza
teorii
lipsi
impresionante
siteul
vanzarilor
balc
admirat
terapeutice
marmura
##pai
1982
semneaza
sprijine
##but
##inoase
##ateau
licenti
curiozitate
editori
toxice
ficat
exceptionala
mentionez
furnizat
husa
dreptatea
etnic
tuse
iarta
##iliu
relua
statiile
disperare
capitalului
absur
##gesti
##stern
difuz
beauty
protejeze
factorilor
distincte
delicata
demnitatea
intensitatea
otom
grigorie
distrug
salt
recupera
murdare
inovare
acomp
costel
sportivii
supravietuit
exclude
sert
aplicati
centimetri
##ock
gazd
simplul
##wagen
adunate
##clu
judecati
nerabdare
dezi
navo
intampinat
stupi
pome
managementului
peninsula
menit
admiterea
samanta
tore
amanat
##rot
press
cojoc
trecea
retinute
risip
amateur
zbura
##ricii
dulap
stralucire
furie
nadejde
cafenea
contacte
completata
##onect
edilul
mb
genetica
monarh
curiozitatea
obtii
adultii
lote
precizand
realizam
drive
neobisnuit
##rage
polonez
prioritatile
capra
nelim
naval
reglementarile
scrisul
salile
detentie
respiratia
erg
citirea
profesionalism
inexi
baterii
onest
iaurt
monumentelor
gravida
acizi
existand
presta
sarcinile
verb
locuintele
lovi
##anelor
compen
male
benefica
tori
##brid
vodafone
defecti
procesare
epist
ducem
1964
trandafiri
devenim
decon
iesim
derulate
apartinut
uta
##anesc
lift
apetit
triumf
##tez
reginei
eroii
dedica
indrumarea
accidentat
##onatii
jiului
interactive
declarate
##anare
asigurand
mans
municipale
alar
rosc
facilitatile
dovedesc
promovarii
font
tranzitie
##neb
potabila
academica
coordonare
listei
antrenamente
figureaza
omenesc
##aresti
semestru
schen
infiintare
1916
compune
focuri
tacerea
cheltuit
distante
##ceala
lili
creativa
binecuvantare
uimit
reglementarilor
750
##hai
iubitor
personalizat
fibra
garnit
pastor
leasing
acuzati
consumatorului
apocalipsa
##well
spea
neguverna
##tam
##mbru
fusta
dominat
imobiliar
pareau
pastele
cuptorul
talpa
negust
dotata
1848
etnice
seminar
verificari
sarbatoreste
ray
launt
##arcati
champions
impresii
araba
poloniei
##cha
corpuri
pacatos
139
148
ceresc
##49
neavand
neregula
enerv
binefa
stiintele
prepararea
seminarul
preocupat
ric
transnistria
##nov
spray
strang
adaptarea
dispusa
eleva
stadiu
posturilor
granitele
maraton
intreprinderile
favorizeaza
farmecul
vegetatie
impartite
inovatie
arunce
recomandare
##gna
corporale
actualizat
##vora
grabit
pho
asocierea
copia
restaurare
combinat
turciei
ocupati
experimentat
pierderile
##nifica
repere
1983
sustinand
modalitatile
placul
sucur
navodari
adj
hotararile
suceve
grecesti
geopolit
chita
utilitati
visc
trunchi
##32
aparatele
editurii
seniori
celul
science
sire
hat
psihologice
##anilor
animat
imprime
retroce
inselat
austro
rating
desktop
organice
instituirea
intampinarea
severa
mesei
intari
andra
nuclear
##39
divizi
subventii
parteneriate
respectivul
pelicula
talha
bacterii
micuta
candida
invitata
##67
obiectivului
vehiculelor
##uiri
incurajat
aluat
supara
158
varstele
osc
judecatoreasca
locuia
dramaturg
etnica
ghimp
cristal
complicate
nunti
acumulate
##life
##lle
reface
repetit
bloguri
zica
asteptata
pensionare
vesnice
desemnarea
grupele
dease
calculul
inaintat
catedralei
eliberate
cancel
incepeti
##omuni
isl
nevaz
functionala
democratii
nerambursabile
149
datorat
necorespun
##cke
##orei
amanunte
convocat
liniei
powe
##olie
considerand
revelion
bati
artelor
tablouri
frecve
timisoarei
rezidu
romi
panta
crestinismul
alge
##catori
mostenirea
parfumul
sapa
apla
soro
spulbe
finalizate
diale
rusesc
bebelusi
maco
videoclipul
urmate
gradinite
1971
multimedia
prietenia
planifica
pensiuni
indrazne
decoratiuni
entitate
bih
hara
autism
dosarelor
arati
sensibilitate
derby
investiti
niciuna
reprezentanta
rolurile
brasove
conducatori
stras
soldatii
concepe
voron
module
##formi
mamica
chestiunea
investigare
inventa
lactate
planificare
1956
organic
imbogati
129
constientizare
stalp
revendica
rezolvare
dorul
rezumat
vasele
greutati
petra
senzori
adopte
genero
vizavi
taiere
bateria
folosirii
159
virsta
setari
relatat
imprasti
##est
veterinara
##opa
insulei
crista
fotografiat
##frontal
vecini
personajelor
vip
1976
##oras
armat
actionarilor
realitati
groase
##ntage
juriului
rotun
ny
circumstante
buzunare
raionului
pregatirii
zalau
indicata
stinga
##ville
nistru
gmail
toxic
##varsit
piv
auzim
infractiunea
over
##ille
lib
stiluri
neinte
crize
intermedia
cicat
analizei
incadrarea
##stive
banate
##rad
gazdele
bazin
##ritii
varsovia
prefi
depind
farmaci
silvia
raze
redescope
protocolul
arestarea
operele
concurenti
portarul
aprox
##ilt
neintre
ajunse
##ritul
simbolic
niculescu
principiului
aniversare
romanie
occidentala
examinarea
##dici
cardiovasculare
observatie
mentala
##directi
##nteni
mierea
renuntarea
##odul
volkswagen
certificare
jurnalism
iro
taierea
sprance
texa
savarsite
##smus
365
binecuno
argentina
gatul
musculara
prostie
##tita
diverselor
phot
techn
mortal
clocot
emigra
productii
afirmatiile
compartimentul
rin
temn
navale
astern
certificatului
vechii
##pun
##uresti
combinate
##steptat
capatat
111
intreprindere
metalica
valul
angliei
pazit
ov
##pert
screen
##stiri
piani
remarcabile
anvelo
##oianu
##osu
planificarea
diametrul
amestecat
uniti
descoperiri
ultimului
intreprinderii
gheorghiu
democrati
##osie
williams
remor
spunandu
fericirii
medievala
conne
##lova
intunericul
continuand
tragic
definita
actualmente
arbitraj
anticipate
indicate
grosime
##rins
invol
mirela
ramuri
scrieti
unita
pasarile
stabilirii
eroul
##ath
desfiintarea
dy
##zeala
linkuri
responsabilitati
depasirea
promisiunea
alimentarea
##mont
eurovision
delegatie
1946
vind
greg
asezare
##ball
lateral
tits
condamnare
competentele
constanteni
infractional
teodorovici
lucrati
colind
limitarea
cooperati
reactioneaza
erdogan
armen
acumulat
angajament
##orth
ample
centenar
gauri
lapus
cerebral
##arei
asume
stomacul
trate
asiatica
anasta
desta
culcare
inaugurarea
rasf
alocuri
convenit
didactica
humanitas
1900
numim
1965
automate
incasat
nicusor
discou
abuziv
provincie
selfie
moldovan
##oce
politistul
##rui
intrist
anre
bariera
capabile
sefia
castrave
verbale
poluare
citite
detaliat
converti
sibe
meni
atacantul
caza
silueta
##cite
preco
judecatoriei
impuls
mw
loti
hoc
imense
ponderea
previne
gatului
constantinopol
romantica
impins
imposibilitatea
desavarsit
##rieni
raional
ducea
beij
actualizate
##bot
detinuta
##yai
##itel
zidurile
gadget
##chan
faptei
partenerului
mariei
ilumin
descarcati
ascultam
cofina
use
##sla
lectia
ecranului
bogatia
vrednic
##piter
indiferenta
adultilor
arsen
parata
situa
geneva
##pla
consultare
pastrati
infante
articolelor
trandafir
ilustrat
chimi
locotene
diversitate
forestier
##itz
geografie
cire
postate
rugaciunii
discriminare
imparte
ring
dialogului
asumate
masti
protestat
gole
scoasa
promisi
inscrierile
ordonat
ofic
lituania
datei
intelectuali
##reg
busty
fanilor
optimizarea
cultul
##pu
simfon
surselor
cincizeci
clasamentului
autorizatiei
neasteptat
ascultati
credinte
pahare
directori
incheiere
intero
creatii
hora
virtuale
asteptau
potrivi
mali
pepe
##fii
under
bilantul
taiate
tirasp
lucratori
newslet
declansarea
mediat
folosindu
cenu
##serie
scada
demi
bruneta
amana
loveste
ezita
vera
fale
##odat
achitarea
marga
comportamentului
##mala
autop
pestele
ministrii
oprim
plecand
fisierele
defecte
stravechi
ay
##vion
rezervat
##pm
registrului
designer
optat
registru
evitat
daily
promisiuni
inlaturarea
investigatie
kw
batali
mafi
discuri
sfintul
introduceti
revenim
##inalul
##mania
zeama
evitati
fabricatie
rezistat
intrerupt
locuintelor
cobori
invest
aluatul
sanitara
##ер
##jarea
mixte
jandarmeriei
paleta
distruga
majorat
fetis
##gem
confuzie
limiteaza
integrarii
cookies
stipul
imbatranire
decent
saruta
regasit
dentare
alearga
infar
pozitiei
absurd
menita
statuia
paki
dadeau
vintage
bunastarea
neautori
solicitati
axi
sarbatorii
##zante
claudia
apol
expirarea
hcl
creditele
etnie
zgarie
valoros
inghiti
zen
bute
apeluri
##63
magie
evidentiat
prob
alecs
scoti
brandului
##ferei
distribuite
dureroase
nepri
interbelica
veterinar
saracia
moldovean
munceasca
cantari
digestiv
reflex
##time
favorabila
cash
cenac
definitive
stimula
bc
blocarea
intrebe
buletinul
individul
premiat
traverseaza
echivalent
polivale
ard
procedat
castigarea
##olalta
##ronic
capcana
bunavoi
beneficiarilor
anonim
panou
ierarhi
peters
blana
experimenta
anunte
hobby
confirmata
##atil
joseph
##openi
##uitor
cenusa
motorina
##43
veghe
penitenciarul
luptele
organizatorul
privesti
rolului
cipru
accesoriu
guvernele
bilant
semneze
1967
priviti
binecuvantat
retinuti
fetish
morcov
ingeni
misterul
specializarea
aura
alexe
psihotera
comunicari
preocupare
micii
cross
metropolit
contributiile
##odia
urce
about
folie
interactiunea
louis
ciclului
except
adaugate
##dana
rasari
faciliteaza
materii
electricitate
impozitele
mach
irlande
aprofund
mesele
mintile
ping
adusi
identice
precedente
cr
transfrontal
##zel
texas
parteneriatului
arbori
comunitara
vechiului
treburile
crestinismului
avind
voca
pensiune
resursa
desci
watch
viceprem
calatoriile
negociere
rareori
temporare
artrita
leaders
botezatorul
specializare
vitezei
reincar
localitatilor
intinse
posibilul
bratul
##ree
##onista
##magaz
flota
shakesp
glorie
minciuni
inflo
modificarilor
consolidare
motocicleta
creaza
devast
tinte
otoman
##ndul
##bea
rinichi
serghei
ofertei
rasplat
indeplinire
tirgu
organizatorilor
respiratie
##vesti
tipar
duse
beach
mentiunea
##stelor
aduci
##andeste
sima
contur
expul
##note
selectione
ungar
##ars
camelia
voronin
##bola
sax
anexei
vecina
canalele
##cerna
venita
acidul
m2
vasul
remarcabil
rapoartele
afirmatie
sasea
##ferica
boabe
##ghea
otet
omagiu
coma
padurii
recipie
teroriste
vinerea
expoziti
exacte
oportunitatile
curioasa
adune
bcr
evangheliei
amster
169
sporit
preventive
##47
##ituri
gut
frontul
asezarea
celebritate
pup
bt
paradis
margareta
ordonante
nefavora
pesta
evanghelie
ascultare
induce
##rans
##oaci
##onet
constatate
schengen
##vor
baneasa
cedo
favorita
atlantic
poeti
rum
consumate
asus
insum
challen
##em
cantecul
inscripti
call
incanta
##ografiei
kara
moastele
tiberiu
bez
invoca
masterat
urmasii
sera
sema
pesc
##otel
angajatori
madalina
castigi
prestigiu
vestit
ein
tematice
instalatiilor
prefectura
gripa
will
promovate
adversar
lampa
alini
ciora
andrea
mergeam
##fla
notiuni
sucevei
intalneasca
vitale
verse
comisiile
condamnarea
inad
mente
aniversarea
reduc
gradini
furnizare
##atiale
aburi
necunoscuta
funci
britanici
##55
independenti
magneziu
coalitiei
educativ
colaboreaza
vaii
intentii
menirea
zidul
ski
bolyai
##atiune
cacao
ambi
masur
capitole
locomoti
poeme
bucurii
##icole
vecine
imbar
distrugere
nemultumit
abordeaza
necre
laolalta
vointei
domnilor
depunerii
readuce
pariu
cainilor
##deste
organizator
medicali
disponibili
biscu
##key
laudat
croa
blocheaza
sesizare
iugos
diametru
armelor
cautari
matrimonial
problematica
wordpress
debuteaza
asteptand
adia
##tip
beneficiarul
expresii
pulbere
ierta
identifice
hallowe
##media
intoar
##zape
##ficator
147
pore
css
ideii
hipo
macovei
plura
##inice
relevant
marc
bunici
ecle
seriozitate
ky
sini
platon
reprezentativa
munteneg
##fiere
practicile
epidem
distribuie
hp
omv
verificate
intensiva
deser
nedu
peru
made
muti
detri
stramt
oala
pietrele
consilierilor
doamnelor
homosexuali
neur
impusa
sterg
jon
presupus
127
##tail
gaming
initiata
predarea
##chet
macron
cumplit
integranta
deriva
slabiciune
valutar
lesbiana
kon
volanul
epo
##inflam
apreciez
teni
coco
psoria
declaratiilor
prajituri
galei
##ilare
fatada
stejar
luceafarul
achite
intuiti
batalie
magia
ucraineana
##uos
##mt
abordate
suprafetele
hate
lingvistice
imperiu
mecanisme
filmelor
repara
pretios
abra
antreprenor
associ
cautate
nedeterm
complicatii
pomenit
sado
legende
impozitelor
##uata
publicatie
vernisajul
tace
inspectia
prajitura
necesitatile
dansuri
ofertelor
##ente
esanti
parohiei
masturbeaza
finlande
coordonate
remarcabila
arsuri
##osit
rio
scorti
acred
omeneasca
sci
##plus
accesoriile
luxemburg
##ни
generatiile
acceptam
##hton
seraf
formelor
realizarile
contraventionale
##cht
ua
avuse
adaugarea
seriale
precizari
publicarii
bilaterale
eric
infer
intalnita
##fp
113
evidentiaza
evul
institut
neagu
conde
increderii
repararea
guvernarii
##scris
slujit
first
revizuire
due
viziteze
ir
decida
vici
turca
sirop
adjude
pictor
perpetu
##pesc
reprezentarea
reusesti
evla
##coin
cenus
edifici
paradoxal
performantei
gresite
devenise
determinate
##lamat
chemarea
rana
fax
capitan
municipalitatea
martorii
plaseaza
lucratorii
scriitorii
discute
felii
dubai
##sburg
##minat
##ografe
feri
bruta
jena
termine
statisticile
onesti
obtinem
##hidrat
##cium
comunicatiilor
terestre
intreprinderea
depozitarea
spanz
hidraul
fluvi
bugetele
camioane
##vila
finalizata
poruncit
ileana
dascal
puterilor
atestare
##citate
locuitor
darurile
subiectului
acro
ingrijor
mediile
fictiune
##sky
egalitatea
insistat
have
coloane
contributiilor
panoul
dentara
ziduri
analy
autorilor
vindecat
brigada
uciderea
telecomunicatii
albastre
infrangere
##oritoare
memorand
traia
slabire
promotii
delicioase
pacific
sensuri
solicitarii
moldovenii
##gente
gunoaie
london
rezuma
interesata
oaspetilor
derulare
ilic
##velop
remedii
debloc
flacari
metabol
vesela
##marin
nistor
musca
operatia
geografica
cadere
neschimb
ingrijit
remo
inflori
##cil
masiva
demersuri
banesti
colaborari
complexitatea
consacrat
autobuzul
forumului
echita
istorici
##rente
##rurile
dramatica
mamici
caminul
sept
probelor
ghimb
diviziei
conservator
curricul
##bite
andr
macedonia
factorul
iubeasca
povestirea
imprejurari
vorbeam
plastica
investeasca
astrolog
transplant
ajutorului
consultarea
practicat
apia
incercarile
intensificari
hoti
decern
democratica
petrolului
kaza
caransebes
elevul
##gio
jet
sugerat
ingropat
romei
constatare
nemurit
##bt
dulceata
bern
teof
descrisa
performant
instantaneu
indemnat
scufund
medievale
canapea
vertical
distrusa
juris
egida
muncitorii
politicienilor
activelor
##roton
voicu
jupiter
absolvire
crem
carre
latine
includerea
serb
gdpr
autonoma
mediterane
religiei
spontan
strazilor
cooperarii
punctului
lipit
atractii
autorizati
amanuntul
tas
##pore
menta
magistra
intervin
repros
motivarea
pieselor
necesarul
##dimensi
impiedicat
stateau
##nim
avute
investitiei
hin
untul
nedi
descarcari
gusturile
ambarcati
camerelor
##alty
blonde
supreme
pedepseste
absolve
navigare
rational
datorata
prejudiciul
preferinta
comandant
consolidat
militarilor
##onisti
paralele
antiinflam
comunistii
conversatie
##ansa
mainilor
sura
entuziasmul
##heze
stagiu
persecut
##sci
nichita
##ged
tiparit
senzor
joasa
uniform
137
exercitarii
referindu
unghiile
manusi
culorilor
##ffe
manichi
deficiente
impartasit
ocazional
scortisoara
##ntra
lumanari
finalizare
legitime
consecutive
haos
popoarele
incarcatura
monah
masurare
geografice
calma
solicitata
interra
how
pos
ronal
##roprie
##jate
##constie
sosi
exprimata
rectificarea
semnalul
voturile
ocrotit
biblioteci
pure
angajatorii
##sman
profesia
olguta
flexibil
detrimentul
##sug
mercur
##oste
1958
sound
gestiona
uzina
ultimei
deasemenea
multora
conceptia
galbena
incepatori
camion
dividen
tainele
##oreni
enumerate
chic
alesii
iertarea
constituite
austriac
iluminare
tubercul
notat
datoriilor
reciproca
##rd
stresului
aminoaci
down
ramasi
iccj
antonio
bunatatea
telecomanda
##zire
hotii
autorizatia
accepti
rca
continent
bolsev
semnala
smeche
colturi
definitia
ceh
paravion
singuratate
adina
nicol
lingvistica
haluc
minge
cuplul
vecinatatea
platoul
batranii
supravietui
ignorat
##zlo
autohtone
steagul
oprirea
inceputurile
##rent
permisa
canon
reglementate
manualul
anumiti
temperaturii
hidratare
tariful
invocat
tap
hun
suspens
marcii
carpati
luminoasa
subsol
caruta
livrat
##ratele
presedintiei
##gerul
##leara
locata
masurii
cascada
##sori
sarpe
reclamantul
##oian
jurisdic
resi
114
cotidian
coro
creatoare
happy
imigranti
pantofii
alecsandri
sq
vietu
poc
facultati
arbitru
express
inro
publicitare
degene
consumator
dobanzii
imine
##sau
investitorilor
lab
dex
player
halloween
voluntarii
scui
obste
alexander
vulnerabile
muzicieni
##itia
anxietate
got
zaharia
impro
chisinaului
##script
conectare
diferenti
chirie
paralela
amsterdam
maroc
compartiment
milosti
lovita
hera
italieni
sufletesti
personajului
izolate
contribuind
autorizarea
rava
descriu
manageri
breve
steri
hibri
deform
vlaicu
imprumutat
construiesc
scenarii
dublat
fain
sauna
##ineze
##fc
rosca
mancaruri
kle
pieton
procura
contrabanda
dictatura
apuseni
creta
cis
lasandu
ucrainean
cimitir
health
##ро
plasament
pieptul
gavri
ciorba
peisaje
buj
praznic
ingri
metodologia
socialist
##hur
deranjat
castiguri
grop
platilor
lipsiti
obligate
angajata
plaje
dezb
biz
incepea
planga
punctat
esuat
role
finaliza
cantacuz
nominalizat
bulgari
stergerea
prostii
distribuirea
panda
externi
civilizatia
royal
misi
asalt
coordonatorul
meritul
monop
simptom
felicit
tora
idol
constituita
gau
corespund
ocupatie
ingadu
biletelor
##urge
infiintate
savu
sever
matase
intole
zboara
incantati
##oire
frantu
spectatorii
anchetatorii
stradui
agen
bravo
periodice
enache
acurate
carna
protopopi
ucenicii
##ilei
pldm
cetatenie
pretenti
cerute
uzura
capela
provenind
achizitiile
electrocas
reclamanta
laboratorul
priveasca
destine
ingredient
intocmite
inlocuita
incredibile
ofiterii
##sas
stricat
glori
medicinale
slovenia
blat
##otat
retaile
sapat
1952
conceptului
milfs
culturile
conventie
beijing
ever
nept
excesul
code
##unele
comisiilor
rase
descomp
substantial
1966
stima
cona
##derul
metalic
neplacut
brutal
farfurie
profitat
proprietatilor
fertil
raspandirea
decup
competent
##proape
producere
calendarului
##cica
echipate
longe
lipseasca
armonia
exotice
calatoresc
##dela
permisiunea
neaga
bric
psiho
isaia
asculti
promotie
##gir
ecologi
gherla
tratatului
sediului
##inger
antioxidanti
colorata
iurie
grant
transmitere
bauturilor
neli
tremura
##right
grupari
solicite
spatiala
scenele
conectati
subconstie
##icol
inlocuite
atp
distinctie
palmare
comunismul
criteriu
##ficatie
ridicare
imbracata
##ctiunea
telefonice
exagerat
curiosi
exteriorul
fixat
mizerie
creand
##vante
curea
##ntitului
renta
##scrie
corid
rezervari
##randa
stateam
eliberata
##less
store
sfintelor
magnitud
filmare
intoxic
taia
servesc
sageata
inex
stralucirea
##ots
termenele
jaf
intinsa
indelungat
extinse
shakespeare
definirea
ceasca
indiana
criticii
tehnologiile
artificiale
timpurie
promovata
116
mentiona
ode
##denii
anticomuni
tribunal
spectacolele
buce
recenzii
raportate
supranum
vizionati
tehnologiilor
preotilor
hul
##zatiile
informationale
##otehn
actionar
medioc
gan
afisarea
tecu
privita
variantele
balet
arhitectul
rezistentei
substantelor
dance
turnee
sete
sistematic
cheltuiala
sectoarele
pedepse
prestate
intrece
pretex
revolutionar
##osta
insoti
marunte
cetateanul
scante
по
discutate
semifinale
neincre
eforie
inflatiei
lex
nucleara
proclam
##sala
singa
maritime
##furt
expertilor
nominala
deterge
fezabilitate
##anas
multinationale
excitat
capacitatile
grozav
containe
magice
incarcata
condusi
informativ
reuniunea
manuala
ascunda
##piei
##þa
fiicei
1914
transformata
mecanice
patriarhiei
suprafetei
arhiere
subteran
##tist
##ev
1953
autorizata
erasmus
aruncati
instalatie
126
individului
##larie
instalatiile
##alizarii
numitul
ziari
chei
dispute
limbajului
grind
aprinse
defe
rezer
reluarea
hrist
evacuare
dobandite
postala
deut
semen
australian
creditului
##38
multumiri
aliat
zei
atacata
implementate
reprezentativ
abuzuri
##deu
acordarii
pamint
vint
diaconu
##our
construim
prevedea
paros
interventiei
sobor
ajunul
##chip
precise
silicon
##nind
inghes
##ogene
separa
roade
pustie
##field
invech
2021
exten
logistica
##unescu
pm
biblic
oceanul
eh
indatori
persista
musai
##sey
audiat
maz
unanimitate
blogului
pvc
nod
ebra
palm
ardere
piers
aripa
pagube
brancoveanu
slujbe
penalty
space
taram
fructi
##iceanu
baraj
subterane
rache
exceptiei
vocal
##ет
taine
lear
dureroasa
gif
napole
producatoare
potasiu
content
imbunatateasca
##itudini
chimic
piloti
##dict
##sar
romeo
pep
lee
arabia
incadra
gardul
dezbaterile
armonios
poca
satan
arcul
publi
sze
invataturile
inceta
trucuri
##ordi
viziona
geniu
izolare
strainilor
centra
canic
asociati
decid
1937
satisfactia
##ian
facturi
pacatelor
##nescu
aruncate
sosire
administrata
contestatii
paie
motivatie
buchet
urmareasca
hans
analizele
traversa
favorite
stralucitor
formularului
conventionale
creditul
cultivarea
pam
mediere
precisa
tiroi
ture
##ск
dezvaluiri
bili
purtam
vid
##oasei
insom
1962
duel
iacov
planete
muncitor
##dr
##farsit
polie
angajarea
##zatiilor
erai
##ations
stelian
medalie
formulare
1961
accentuat
intemeiat
ultimilor
intimpla
pse
##olar
##gesc
cir
extrase
obsc
pix
instrumentul
garzii
caracterizat
chio
viitoarele
biblice
superbe
abunde
episcopiei
incredintat
mentenanta
incalzit
atene
specificatiile
popoarelor
prietenos
##zitatea
iubite
metan
##ink
laboratoare
slog
jr
aplicatiilor
acnee
preponderent
##gent
functionar
atu
suportat
metabolismul
dauna
multitudine
ratiunea
scenei
rezidential
adeverinta
1936
turnat
santaj
##garilor
imprumuta
cocktail
ortodoxiei
indicatori
uber
formeze
minunea
izbit
timid
bagaje
folositoare
formei
##jit
chere
revizuirea
doreau
contributiei
indicatii
##menti
necesari
adormit
##ziera
pont
patima
avocatii
notorie
bosnia
scm
gasea
capric
autonomia
cane
simbolurile
petroliere
planurilor
diag
tentative
albume
adrese
porumbei
promotionale
discur
rosi
##steam
mesajului
tragere
cerinta
loto
##37
distractiv
inguste
prezidential
rezident
gazele
teoretica
smo
comport
ionita
meteorologice
1200
00replica
tronul
contenci
departare
inchid
maghia
##cos
dorohoi
groasa
aduceti
bratara
pasagerii
burghe
competitiile
carnii
conducta
vizualizare
musulmani
citire
trecuse
interpretari
singapore
marinescu
plasarea
##niri
##giul
eliminate
view
bucuros
soroca
inna
chipurile
startup
rezonabil
awards
boca
calugari
jar
patriei
psihologia
roland
bluza
umilinta
garderoba
xvide
esp
zeu
bunavointa
imprimare
varsat
karl
teritoriile
bdsm
negocierilor
ingrijorare
televizorul
veronica
organisme
porcina
conectarea
formatiuni
caricat
extremi
blocate
amplasarea
lipo
michel
babil
otopeni
vizata
obtinand
iubitori
podoa
imaginati
roboti
acvat
now
##ulet
granitelor
##made
antal
atelierele
concura
nocive
veterinare
lect
carosabil
medico
##enix
ronaldo
comit
spaima
cuceri
##mila
alerge
labiri
##42
stiati
tarom
mecanismele
##mismul
ofensiva
fest
##ntator
socote
rezum
constatarea
##inoasa
sting
strecoara
implinirii
publicatiei
frontala
grasimea
operationale
bunatate
##ques
know
##hea
lanturi
##mble
aproapele
panc
calare
inviere
capacitati
vizibilitate
salariatii
##ritatile
esenti
belarus
strainii
coerenta
dega
##arb
mentale
gramatica
pang
vopsit
subsi
gil
imprevizi
##ek
##sz
smith
studioul
tulburare
oda
zor
balcescu
publicare
poem
optica
hraneste
##stiile
ospital
limit
##lile
scaunele
##ingi
lacuri
##mete
##ctivitatii
inceputa
nordica
exactitate
perseverenta
main
adunari
##ел
evaluat
droj
##sse
invinsa
drume
smerenie
##leac
moz
hero
talente
povestii
##the
develop
descarcarea
capetele
bolnava
filant
sama
indeaproape
##seau
utilitate
suporterii
aloe
puteai
liberale
zgomotul
melanc
crescute
diminua
stranga
neptun
##limon
gemeni
fure
cobor
inchinare
uran
vanilie
determine
uneste
intervale
medali
probei
flan
portret
redactia
olten
desavarsire
consemnat
chica
##pool
senzatii
diavolului
##riate
raceala
tratamentele
natalia
650
diminetii
avraam
campaniile
subs
reinte
procuratura
executi
proprietarului
##teni
tractiune
dobre
##tooth
praho
arderea
##gurata
ratei
documentatiei
impartita
##uindu
cetatenia
aparitii
incap
foaia
##minarea
admin
infrangerea
revit
manifeste
micutul
marginile
##ferice
solutiilor
calific
antreprenoriat
gule
sintem
castigate
##dera
compatibil
umerii
phoenix
sectiile
capitale
colaboratori
rasplata
##ctar
cazuti
##anale
tehnologica
inneb
actualizata
terminalul
recursul
conectate
umeda
muscul
avang
excluderea
purtati
##opti
inlocuieste
preocupari
ecosi
budi
contravaloarea
1957
misterios
dramatice
doarme
universitatile
retinere
lisabona
autoi
meserii
##jna
fifa
##style
galbene
abordari
roage
executivului
bant
masurarea
directivei
cannes
delicioasa
gt
pel
vocabul
solicitantului
marturia
pseu
sili
##lizat
report
##inos
mold
permisul
stabilire
pretind
conexiuni
athos
libraria
educationala
taranului
##omia
petersburg
bluetooth
indeplinirii
mosche
vedetele
patruzeci
tigaie
procesarea
furia
coloanei
frana
echipajul
infrunta
patrunjel
terminale
1933
nesfarsit
observati
anm
crezand
##ogen
deprinde
##ны
duhovnicesc
##tima
administratorii
traumati
calul
surprinsa
flaca
depozitele
amf
portiune
evaluari
sr
regulate
marxi
metafi
salarizare
turma
introduca
ameliorarea
guvernatorul
pensionarii
pseudo
laszlo
vizand
guar
desemnata
oficiului
210
fumatul
cerand
teritorii
pantelimon
550
spatiale
opris
borc
und
substanti
computerul
castelului
contemporani
laude
solicitarile
pictat
dornei
spalarea
indeman
comuniune
traita
doliu
nime
luminile
rechizit
rotund
frumusetii
fotbalisti
dezechilib
spot
demna
lucrand
eliminata
ice
##jez
religii
fantastica
idi
vaga
oasele
sanctiunile
costisitoare
incun
includa
nisi
flagrant
trecerii
zeul
##siei
##osa
schimburi
sacru
##urnal
sza
disi
night
estetice
abilitatilor
bik
tand
cuprinda
televiziunii
perfectionare
bolnavii
bucate
ostil
asezati
incurajarea
ranita
penet
omni
beneficiu
antichitate
redirecti
africana
scripturi
implementa
petrecuta
modest
animalul
banuit
320
intreprinse
lud
crestinism
autorizare
taiati
potentiale
samuel
cazarea
##vati
##magne
varstnice
neme
izvoare
cantacuzino
criteriilor
##vela
167
cauzeaza
dest
157
##ziale
user
inaltei
insecte
situl
##sati
1925
jucate
expusa
judecatii
alice
urasc
delicios
actionari
intrunit
confruntarea
dispozitivelor
indemnizatia
restituirea
mario
caracterizata
##rioase
incita
vacant
snow
polul
incadrat
adancul
ceha
luminita
platim
sustinem
rud
##vitati
actualului
deplaseaza
rauri
geoana
campului
modelelor
caietul
##gina
punctelor
tricoul
magazinelor
##uela
transportate
cua
proprietarilor
legati
floresti
denumite
tiraspol
tragerea
upgra
chemare
solul
cumparator
proxim
rosti
hc
tensiunii
mary
purtata
ceresti
wow
##greze
acumula
folk
studierea
interpreteaza
doamnele
aprinde
recolta
demisionat
meritat
snap
zape
sanctionat
comi
trenuri
bombard
aprovizionare
redi
##ries
##ometru
recensamantul
amical
nationalei
dezactiv
nedeterminata
ruda
tradare
unpr
certa
revocarea
regenerabile
comportamente
##liana
intunecat
apostolilor
simpati
amenajata
tce
personalizata
dezbaterii
mareste
caracterului
##ritish
arhivele
traditiilor
diaconescu
aruncata
premerg
mentiune
##urna
cerset
reintoarce
diare
maje
televi
mihut
faima
bitcoin
infati
suspecti
sarbatorita
minoritati
emig
ts
1942
brazilian
dumnezeului
furtun
##uk
ss
##ciplin
##ktor
exprimarea
trasaturile
##bului
sufrage
chineze
wat
selectarea
pondere
##omul
calcule
insule
anchete
distinge
intunecata
wild
meteorologie
dezna
altui
conducatorilor
recal
incadrare
retinerea
nuntii
amu
inscriu
definesc
nan
##ople
saraciei
stapanirea
mr
1963
instrumentelor
blocata
coordoneaza
mediati
php
coeficie
juvent
israelie
curier
british
complicitate
proportional
##ent
lucia
autocar
zaharat
calinescu
ceremonie
cardiace
generoasa
ingineri
absorbtie
victimei
maneca
tranzactionare
vizitarea
slef
remis
catastrofa
valentina
ansamblului
##neanu
daruieste
mihaile
##bro
##46
pseud
umbrela
infectioase
aducea
israelului
##dane
etal
animala
bn
campina
rezidentiale
vestimentare
renumit
venise
##ntesta
##jen
pasapoarte
semnifica
descopar
##rtie
portofel
##ativul
##deanu
licitatiei
lejer
autovehiculelor
ione
prinsa
eseu
clopot
evreiesti
geo
colectiile
asistenti
accentuata
utop
cahul
##bacte
energy
##rio
standardi
neintreru
afirmand
biologic
guvernamentala
incetul
mares
ambalaj
##dius
lectiile
binecuvanta
restante
incendiului
rezervate
tacut
1955
##bian
starile
grigorescu
jim
calculatorului
picatura
inteleasa
arheologie
dusmani
continental
gelo
nebuna
colonelul
familiale
subli
protector
intunecate
autostrazii
litoralul
dorel
studieze
emotia
doctori
intarziat
ineficie
statiunii
paula
colinde
cumparam
muntenegru
deget
##anina
niculae
sabia
pelerinaj
tay
##wan
opteaza
banal
tehnicianul
concreta
jackson
ranile
inaltat
precizarea
adevaruri
protocoale
penitenciar
saudita
directorii
##vy
atenu
cama
mandria
kol
csa
angre
##atarul
pasiv
ascultarea
sferturile
##utor
irespon
##ditatii
luminat
aripile
anticipat
interloc
generatiei
stabiliti
curba
reconfi
detaliata
##util
indemnul
organica
146
##alismul
iustin
revig
picturi
delegatiei
proiectii
naiba
energi
podului
##ит
oferiti
postari
criteriul
flutur
denti
expone
fundatie
ciment
reeval
titulari
africane
##sin
stalpi
condiment
incontesta
accesand
autohton
roch
permitand
rasfat
incotro
universitara
powered
reducerii
1959
aspru
reparatie
##mintul
tranzactie
ergonom
standardul
apreciati
dispret
rasfo
reprezentati
codreanu
##testi
claselor
furnizorilor
henry
stelele
forestiere
elimine
##lux
raporteaza
ducand
nutrienti
##hub
umarul
biologie
conforme
proiectata
conditionata
bibliei
laba
practicarea
gov
zambete
ajuti
consens
turzii
florale
gaina
theodor
burt
##lish
omolog
generalului
johnson
audieri
hotaraste
scad
blond
manie
claritate
##rama
potentialului
filozofie
folcloric
##tim
##moder
credeau
tolera
secretariatul
nepotul
banuiesc
##inand
calatorit
##hol
trem
chinezi
regasim
pierderii
comandate
binevo
portie
satana
compozitor
toy
asteptarilor
depozitul
ghet
1943
imperati
cetateanului
comentariul
continuata
instruirea
##meu
modificarii
studenta
lucratorilor
perceput
echipaje
carbohidrati
specificat
juventus
inchida
ferestrele
neta
evolutii
nego
style
coreean
atip
gica
ajungeti
##uianu
normalitate
##leasca
reglarea
bastina
masculina
sinceritate
bulgar
research
ruleta
##comun
creatiile
pulveri
zidit
cerneala
accidentelor
cear
boob
mid
##inism
filantrop
relaxat
gurii
durabil
piciorului
industrii
butoane
conducatorului
obose
bem
raporturile
patit
##rer
comercializare
planu
referinte
chicago
singurii
crescand
orizontala
trezore
eliza
portului
neurolog
manipularea
activarea
##pace
##ulei
electrocasnice
cotidiene
adren
plaman
drepti
##xpo
##ficand
oprita
hibrid
provocata
fructelor
catalogul
##fta
ficatului
tesatura
incheiata
malta
dick
incruci
judecatorului
cojocaru
respectam
chib
prabusirea
plangeri
reuniune
elaboreaza
sutie
finanta
acom
inspectie
avandu
lom
pust
##ourilor
racor
##lizate
maniu
crud
system
uzate
sobol
centenarul
cran
busteni
access
##lizata
derula
trasa
elvet
purtarea
bizantin
impecabil
neper
imbunatatita
metale
rulare
cubi
retineti
variabile
incaperi
shan
##wski
geamuri
ispra
gimnaziale
semnalat
parametrii
angajeze
cantitatile
fascinanta
alature
lacas
echilibrului
restaurarea
mortilor
intervie
microbi
insotiti
revenire
provizoriu
##ntatoare
navigatie
oficialul
strabate
presedintii
steve
consultat
motto
performantelor
javascript
asort
colonel
migranti
##dot
crearii
##remia
pornstars
vizualiza
prezum
young
topi
anchetei
matusa
bogatie
tinerei
dobandirea
sejur
paraf
racit
vehe
popularitate
auxiliar
imnul
rami
facturile
##uve
pregatitoare
##olan
suita
modifice
livreaza
generata
constientizarea
arhiepiscopiei
orientat
##onarului
prinse
dezord
ignoranta
alcatuiesc
##itam
brd
anxiet
indruma
nesigura
predeces
sfintenie
##itura
informeze
izvoarele
mase
campionatele
##opat
pachetele
1954
varsa
viziuni
trio
deseurile
nico
soferului
columbia
pia
unguri
ingust
toamnei
infanterie
bloggeri
vizitate
meridi
##mescu
##ow
colaborarii
inglo
furtul
miroase
premat
##listul
flutura
adversarii
runde
inchisi
egalitatii
tricouri
catalina
imparate
ajunsese
diversele
scoatem
##31
##lescu
cariere
inchinat
executivul
contribuabilii
rotunde
artificii
frunta
zaca
abuzul
minora
270
vids
gestioneaza
grin
aveai
frigul
regie
linistiti
crestem
calitativ
nelu
draguta
##ieta
staff
insufle
decorul
neconte
pion
pastrand
burs
deschiderii
cincilea
noutatile
presiunii
zborului
garson
respingere
privea
achizitiilor
decenta
gazon
blogger
domnii
microf
services
bikini
##luta
ladyboy
##ciala
##scanu
sentintei
trolei
gavriil
bucatele
##gor
lobby
##uman
cosuri
kal
aeronave
probabilitatea
centrelor
gati
auro
monitor
ficatul
limf
imbolnavi
adunati
blocurile
mitropoliei
treceti
murdar
clipul
##tion
printului
estonia
get
necazuri
auriu
barna
primordi
sparge
cosma
avantajoase
insarcinate
savarsita
graj
comunistilor
prese
cititorului
banatul
##bourg
finantari
depresia
vitaminele
dacilor
transilvane
ghive
guvernamental
discount
fabricii
urmei
atribuite
##hd
conju
key
confunda
antrenori
birourile
##bn
condamnata
amintite
majori
organizam
##undat
interracial
amni
##oid
viceprimar
ornament
parazit
damian
agit
incol
terorism
##pel
avocatului
cambridge
sli
pregatea
260
##icea
serafim
modulul
insti
cluburile
troleibu
old
concurentii
incendiilor
##hard
instituit
framanta
transmisie
wolf
mp3
traiau
saturn
phil
stingerea
ajunsa
generatoare
inru
##gena
monetar
recompensa
prezentati
company
vaci
fair
ochiului
matemat
sulf
afro
##uitorul
preocupati
chris
tarifelor
moderata
vladimi
fresh
poluarea
scriitoare
vecinatate
atotpute
monetara
farmaceutice
emit
patimi
compres
completeze
traduse
reite
expira
dumnezeiesti
alf
palt
manichiura
280
harului
femini
fuzi
enerva
patriarhia
intretinut
lansarii
specialitatea
evacuarea
spiritualitate
napoleon
artiz
complementare
comunele
anticip
##urosi
sclip
paraseste
inaltarea
pregatirile
poetic
scufunda
eliminati
sanctiunea
migdale
kha
valurile
vanzatorul
masac
alcoolul
gandindu
angajatorului
blind
usturoiul
incalcari
interpretate
iulius
consacrate
creezi
lepa
portocale
stampila
nadejdea
##nova
republican
head
asaza
##ptic
respectand
coalitie
elu
argent
concursurile
participati
ez
exf
conventii
purit
imbogatit
autospeciale
orchestre
oprescu
scrieri
dispozitivului
zf
intentiile
perimetrul
somajului
invart
desemna
bulgariei
nebunia
relaxe
dilema
spana
confede
anom
anuntati
##kyo
url
decurg
atacului
incurcat
hui
libertatilor
botosane
adio
intii
lumineaza
tert
cadastru
argumentul
belsug
##strie
greutatii
exercitiului
schimbati
poetica
papi
papei
##mane
belgrad
suporteri
lcd
carta
conducte
sma
interpretata
friend
kate
rezolvata
tuns
##atale
varfuri
trairi
amenajari
sterse
miel
infilt
adormi
defavorizate
hus
search
fard
eliminare
conceptie
alcoolului
intreruperea
villa
prioritati
absolventilor
newsletter
intrebarii
plimbari
mamali
vorbiti
educarea
departament
cunoscutul
percep
specializati
comercializate
rezonanta
offline
temelie
##sad
constructiile
apartamentele
bay
balcani
comenteaza
marturisi
ciocan
extinda
emanuel
dreptunghi
loz
datoriei
disciplinare
##pg
##grada
alexandrescu
##ritei
motocic
reinn
centralizat
124
kids
##olitic
prindere
eja
pericole
##four
after
descent
interventiile
sosete
urmarite
oile
##zirea
##ciunea
progrese
miche
semana
frontal
pastrare
lamurit
nam
evoca
на
garii
bunei
poruncile
##voc
socialiste
proiectie
modei
ruseasca
nimerit
reorganizarea
impozabile
dezvoltam
lagare
cupe
intrerupere
seriosi
camine
continand
penali
rationa
##nicie
berea
transferuri
rt
psihiatrie
sustras
interactiune
inspectorul
inscrisa
bolnavilor
1923
1929
coreeana
denis
daram
amenintarea
latimea
medieval
##unere
atribuie
wood
distractia
romantice
leadership
sacrificiu
absoar
conflictele
##ofm
candidatului
selecteaza
##rion
promisiunile
polivalenta
cartofii
familial
corinteni
discerna
intalnesti
botanica
presedinta
aeronava
aniver
cerebrale
csi
israelul
cva
deshidrat
consistent
dansului
magn
ziarele
image
tutuianu
taranii
citita
adormirea
traind
silita
##lendi
teoriei
aditional
semifinala
cozona
distinctia
curatenia
stem
stator
fereste
institutionali
declararea
##arhi
registre
sirul
coordonata
incub
neincetat
partiale
confruntare
arheologic
inconstient
festivitatea
baruri
romanti
inchiria
valoroasa
titu
divul
cruzi
mijlocasul
bisericeasca
stricta
acumularea
semestrul
leul
profile
multumi
##oritate
rasul
exers
artile
tranzactiile
afecte
materiei
lacat
preocuparea
vinurile
descif
arbu
referim
dona
cartiere
restrans
justin
ruj
targuri
vanzator
pomenirea
alerga
constip
asez
page
corn
distor
croaziera
contractant
##pra
palme
##alista
tramb
acceptare
ghimpu
incuvii
masei
darui
ursul
##rism
contestata
sanctionarea
prelungita
berbec
prevenirii
expertul
##tismul
temeinic
suportate
inadmi
plangerea
compilatie
teodorescu
1921
##desc
##то
perechea
senior
vasc
paras
imprejurimile
turcii
institutional
demiterea
marche
sesiunii
europarlament
bis
costache
##onim
144
comisar
posted
sucuri
atacurilor
vreunui
bv
exempli
preciza
bret
##hide
buletine
136
portretul
caracteristice
1935
editare
manda
boboc
##fort
odihneasca
considerente
iris
invatator
greata
227
indign
convenabil
infirm
121
obligativ
urechea
dica
nest
toro
pagub
semifina
tirziu
##orf
genti
##ates
edward
vrajitoare
##xis
antrenat
inconjurata
tiran
suscepti
masuratori
avocatura
completate
crap
condimente
scen
civice
1928
iesiti
sezut
transcen
altei
##lov
##ptiile
domneasca
minoritate
absorbtia
demoni
concord
fs
unilate
handjob
asistam
monden
pasaj
farmacii
ambelor
itine
intarzieri
precoce
poloneza
estic
taiet
mist
autoturismului
conexiunea
reconstructie
prenumele
explora
##inel
intimi
timotei
caiet
hur
##88
tarna
audiovizual
dinte
inspiratia
catifel
##risor
##sorul
desavarsita
intocmi
sonora
necred
splendi
prezidentiala
build
eligibile
##disciplin
bulgare
kauf
flexibilitate
saptamina
acuzata
medicamentului
recensamantului
##bl
pesedi
identic
eficace
pastori
##liza
ola
intelegerii
uce
##ntez
##hial
cabinetului
reorganizare
ortodoxia
concediere
##urope
ironic
jac
##metru
##ofite
formularea
comut
antura
meteorologii
standul
crisan
vrajit
##ican
punte
inselaciune
nedorite
ili
nervi
hormoni
ntre
vaselor
banche
carami
ltd
vadim
citeaza
ioni
vremurilor
sporirea
simturile
1924
dusi
##rnici
sindicali
##odie
##ventei
asezari
structurat
infant
vorbire
inlocuire
plug
perife
##ugh
teologice
amic
isj
renunti
way
blanda
paraschi
balne
133
lotului
point
completati
insuficient
##ziilor
opriti
imparatiei
intime
ingen
##stadt
recidi
sloganul
gabi
##scenta
platou
##aniei
antisem
mcv
consiliile
glez
televiziuni
randuiala
confectionat
clasificate
minunile
impartaseasca
silu
sensibilitatea
circumstantele
tokyo
cartura
dare
blugi
colaborator
despagubi
##gilor
vulc
grecii
rezolvate
neasteptata
traum
##row
roger
sfecla
receptia
##bin
echivalenta
geneza
a2
poteca
endoc
sarbu
sustinea
confectionate
tecuci
imbat
mentalitatea
grupare
agi
misiona
binelui
decre
modesta
°c
vagoane
pandurii
regat
constituire
teologia
conforma
##lend
##umelor
ochelarii
##mentarilor
creare
gavril
supun
opel
injunghi
dlui
dacii
neac
enorma
stimulare
resping
nereguli
##giilor
multumeste
nasca
sesizata
schimbata
vanatori
##ked
competitiv
eye
deschideti
soiuri
enorme
negocia
seceta
guta
##icult
##raft
mada
numire
##unesc
##memb
voit
##catorul
clujul
lanseze
cantam
indeajuns
tism
apasat
confirmate
roua
##inici
atrasi
ambie
compasiune
diabetul
ilustreaza
stramosii
calificata
omoara
diplomatic
indisp
zeilor
acumulare
bosch
actualei
nesfar
pensiei
hala
exclusiva
devota
##rau
sesiza
donatie
##olare
docto
testate
##olitica
cantona
134
acceptati
intrevedere
tigani
contraind
irevoca
frankfurt
calugar
vesnicie
gastro
preocuparile
orale
judeteni
repartizarea
readu
recupereze
sfintit
sufe
daruire
moraru
##rinei
linux
##bina
fantoma
maramuresului
euf
##pesti
plai
##tics
terorismului
fagadui
zeel
spiritele
hort
tav
##stinale
maga
ghica
##econom
elibereze
salubri
pastorul
##electrica
saci
usii
1934
demonstratie
ajusta
trezesti
respectati
terapeutic
ite
##uzi
##gica
inscrieri
mike
puru
filoso
sfirsitul
##lora
##manuel
capacul
repete
pompierilor
cercuri
atragatoare
ruinele
bunicuta
lucrate
sindrom
declanseaza
desprins
salonului
facilitarea
tavan
rigoare
uitandu
cetati
inchirierea
##ches
valorifica
surprinsi
##tiu
narci
veritabil
baca
cumparatorul
biletului
privatizare
nuantele
rastignit
marsul
afectiunile
dorind
luptam
ecumeni
publicitatea
##mark
infarct
castigul
mergeau
igno
recit
gandurilor
meno
anulare
##menit
aventurile
vehiculului
##ditatea
castigatori
criticul
##zind
bage
reformei
##zea
stramo
jucariile
##rald
marginali
nel
violet
musch
##otei
liliana
inregistrarile
beneficiarului
##dri
autoutil
acute
omoare
concediul
preferinte
cioban
luptator
traseele
inceperii
contrare
durate
corporate
asumarea
tiparita
descarcat
racheta
ferment
##ationale
batranete
atestat
clarifica
##as
caravana
despartirea
abundente
buru
monahi
prelungire
bataia
infectiilor
umede
ierarhia
dui
pcrm
convingere
suferintele
stiai
##harma
acati
genului
contradictie
ruptura
##rise
microbuz
##oche
cerurilor
cantand
altarul
volumele
lecturi
##anez
detina
naviga
recordul
monde
afisata
linkul
law
speciile
rs
sparta
bibe
academy
fiintele
dealuri
caracteristic
declansa
genericul
energii
sag
cadastra
incantata
montan
vehiculele
mihala
pom
insemnate
celebrului
tortura
constantinop
aliatii
concertele
renunt
machiajul
ziceam
protocolului
genetice
informative
castigam
trofeu
istorii
habit
danut
preparatele
podg
##dator
incheiet
pierre
##inciosi
insemne
geografic
adaptata
egiptului
optimist
##wal
particulari
##ptarii
taiata
transmi
grai
succesive
curga
incalzeste
savura
tratare
1951
devenita
incarcarea
hre
##aliste
bucurosi
##oiul
sondaje
##sale
validarea
##preze
aluneca
masterc
motiunea
recompens
pistol
dp
arthur
liceal
ierusalimului
superc
comision
marita
regiunilor
secretarului
bisericesc
demonstratii
mansa
amestecati
progresi
##ocul
rambur
mancati
radicala
faimoasa
albania
golurile
revocare
miracol
imagi
textelor
tempera
punandu
urmatori
corespondent
1922
forbes
analizam
inculpat
regizorului
aglomerat
facuti
sfatuit
coliziune
##ozei
atractiva
aradului
122
##sens
ratac
prioritare
ambalaje
aurelian
carc
indicatorilor
interfe
funciara
nefum
convine
fixare
plimbat
indrazneala
simpatic
dragan
cereti
##urca
fructul
denumiri
realist
adolescentii
necta
miez
aderare
timpuriu
uterin
joe
rapita
procedu
initiate
nistrului
hong
##rante
literele
bloom
perspectivele
conecteaza
##ograph
fraudul
strin
##inment
dotarile
dinamice
puiu
naturali
mitul
simbolica
jong
sufletelor
sarbatorim
misterioasa
dispretu
estica
silvice
surorile
inlocuiasca
vrajmas
denota
##nteza
pnd
pachetului
mixta
reportaj
interactiv
ardealului
##niului
portre
laterala
coloc
spri
neguvernamentale
coaching
mapn
difuza
##nicia
succese
lenin
manifestarilor
dumne
plen
partenera
implineasca
rezervele
prezentarii
dioni
mugur
laptelui
cultelor
132
usura
reputatia
prig
stiintelor
imobilelor
unchiul
voiau
nema
eseuri
multipla
dizolva
campuri
##campi
garantate
frageda
agentiilor
##rghi
institutionale
kra
kom
spusele
atentat
generic
acceseaza
portiuni
cabluri
anta
vel
tapet
primea
##mad
imprejurimi
##atare
acer
orf
minerala
sezoane
dovle
insoteste
tabu
adversa
suspiciuni
degust
covor
concesi
prezentand
anorm
corpurile
pustiu
specificatii
fragil
delia
taximet
intocmeste
origini
hist
extrage
##cop
aflue
pintea
hidrogen
muschilor
gent
bazandu
gravide
ns
sd
sinele
simet
adapteze
gaga
pilotul
parfumuri
cereasca
maiorescu
informational
comori
ioa
hemora
episco
hall
multiplic
principali
obiectului
discursului
instaleaza
330
trenurile
razbunare
sustinatorii
charlie
##iu
lansari
teodora
rezultand
conflictelor
uitate
yu
designeri
##onarilor
patrunda
expo
##inson
philips
pururea
bov
##ex
hartii
imagineaza
palarie
usuca
incins
socant
completari
vizualizarea
##jezi
##на
dealurile
143
incomplete
cardului
curcube
ucrainene
inject
insumi
instalatia
campie
tensiuni
mitingul
integreaza
emotionant
##nara
raspunderii
obraj
singuratatea
montre
grei
contractante
allah
noptile
ratele
plastici
##hil
copacii
##ovski
scriam
##rona
trebuiesc
compuse
comoda
chiri
socat
firele
sustinatori
##teaza
controleze
##fini
oleg
semenii
fiindu
humorului
evaluate
explorare
incasari
a4
cugir
##listii
resusc
metodelor
cafenele
difuzata
imprie
smile
traseului
impartirea
infiintarii
flaman
sui
managerii
tute
lingurite
##tezi
fraze
detinea
paian
suedez
dero
salbatica
dga
comprom
##ctiuni
cadoul
elite
##61
strategiile
sindicatului
eterna
studentesti
bamb
dorintei
masturbarea
oaie
actorilor
otelul
surprinse
1912
##off
mld
orbit
puii
trezeasca
scheme
rezidenta
##arfe
prefata
sorina
sincere
inoxida
basm
##ish
dambov
ramen
cinematografica
anula
abat
cuvintul
elvetian
phone
rafturi
##nz
contabila
declare
adrenalina
darius
terase
diagonala
energiile
obiectiva
insele
##svsa
asemana
consumatorul
epide
tcedil
omagi
subordonate
##biti
scriem
buzunarele
neate
enoria
confirme
dusmanii
negat
pdm
repertoriul
utilizam
##seta
tragi
buzaului
suferinte
protestatarii
sociologie
cauzelor
imprejur
indreptam
sed
pictorul
insulina
televiziunile
sterline
schimbate
clinton
corona
majorare
clujeni
subofite
initiativei
retetele
plasata
goga
alunga
##olm
urmarim
consolida
sida
scurge
exploatarii
traite
radiof
turist
ramona
##tube
tururi
impozitare
inmormantat
bucatar
contraventii
##andesc
kazah
sz
vegetal
incrim
putna
parasche
vaduva
ejacul
martiri
aprecieri
##ciile
mainii
vira
1927
montare
elaborare
intermediar
saget
dezastre
##uiam
faradele
demnit
abateri
kel
casuala
indone
4k
##cast
brute
bee
sist
coincidenta
evolutiile
etno
herman
race
##icesti
verificarilor
raspandite
menopa
##ologilor
teava
was
kur
obraznice
bust
sinodul
##gheta
##lava
tactica
competitive
antivi
arhiepiscopia
pamantesti
blen
##beth
zinc
infiinteaza
intorci
sampon
sanda
spalatorie
miile
iov
##nteasca
decese
1800
coanda
##jloc
tineretii
##hete
imig
soferilor
##fiant
secui
specia
emerge
norii
##gic
impresioneaza
iubitoare
inova
viktor
sanctioneaza
vizionare
##ctil
norocos
afecteze
necorespunzatoare
depistarea
agentului
stereoti
inversa
pasarilor
executata
paragraf
mistre
##sionala
borcea
reglementata
colesterol
fundasul
glande
##anate
luptatori
sadoveanu
aeri
invecinate
##aliile
curajos
##covi
pisicile
nelimitat
urata
##ofa
accente
nesanat
francezii
emotiilor
##ventie
firii
uneal
propunerii
traducator
corupti
roadele
strecur
cuplurile
propice
remedierea
seminarii
medicamentul
mustra
##opla
rezervarea
deputatului
hartia
pirami
leoni
##cioasa
usca
buzunarul
1931
acordurile
viitorii
palp
gli
isarescu
surprindere
hotararilor
organului
zmeura
bonusuri
unealta
imprimanta
realizezi
indeparte
##85
pentic
israelian
glucoza
neins
satelor
sufere
deszape
durerilor
confidentialitatea
iesind
ponti
liver
arhimand
cry
investeste
priviri
cutremure
ploile
sacul
superstit
piti
presedinti
austriei
pixeli
pasajul
inculpati
crat
##ureanu
inscrisuri
merite
metafora
aniversarii
debitorului
pretins
culorii
dependent
tiparite
umplutura
transferate
##riac
enterta
turbo
sexe
principalelor
antise
derivate
##ctarii
canalului
##dicale
strangere
livada
sudica
coroane
##lines
combat
dumitra
reinno
##light
secventa
horea
225
ratiune
journal
liturghii
vanduta
co2
autorizatii
agresiva
specialistul
tranzactiilor
kaufland
costumul
maximi
sindicat
eve
indemna
cronic
claude
##harist
ecumenic
ging
##cean
jurnalista
subliniind
cercetatorilor
dormitoare
##mu
opa
apuse
destui
satel
veselie
lesne
armament
confiscate
obstacol
rodul
prezerv
1932
grindina
compusi
product
prevad
brasovului
parametri
4000
stralucit
##strau
suprafetelor
adela
upgrade
staretul
campurile
insemnand
urc
bacteriile
stockh
sarcinilor
##dacin
##opter
multicultura
guverne
tasta
lector
##alizeze
cuplului
continuitate
ker
inaccepta
##gru
bah
strad
schitul
asemanarea
##genul
ingusta
organismele
boris
specificate
vocile
##sil
##cio
grasimilor
incepute
isis
salarizarii
fantastice
dezmemb
abonamente
neconditionat
disperata
echipamentului
kong
olga
distins
our
priceput
holul
codurile
retorica
wei
preliminare
revan
concedie
cules
##baga
##insi
aprobarii
tesla
zburat
##heim
nativ
opusa
convorbiri
sarata
concesiune
schele
dinoza
venez
basc
stadionului
ridurile
cantarea
imita
##bic
educa
consultari
##roomla
ramenroomla
nemil
compre
frumosul
milit
fascinant
##bari
premiate
inox
zvonuri
iluzia
carrefour
fifor
imperfecti
reclamant
pastrata
lubri
marja
demonst
stick
brown
nevinovat
neinde
realitatile
bancara
doctorii
uluitoare
1910
##gers
mobilierul
inmormantare
impiedice
construirii
casnicie
emisiilor
colecteaza
##ziene
telefonica
creantelor
tronsonul
confortabile
pomi
tineretea
calendaristice
##ол
pietelor
infractiunile
grosimea
adventi
comemor
sediile
rambursare
formand
bucuriei
sarbatoresc
stocarea
indepartata
##lipi
expun
auzind
profesionistii
subur
destinului
##oide
prudenta
suceveni
creditare
beneficiind
ds
views
nal
nodul
originara
imaginam
people
natiunea
separarea
ratificarea
barack
suprare
populi
##kas
##ners
dezide
cehos
xvideos
##niz
parascheva
rufe
metodologiei
burdu
transparente
tesutul
loredana
documentara
capacitatilor
uciga
bateriile
paun
urate
pasaje
zbu
economico
imparati
country
vanzarii
deteriorarea
culturilor
munt
garaj
vicecampi
pardos
ministrilor
inelul
sevil
ipocri
││
neat
taramul
zeita
scopului
abonati
volvo
sigla
intemeiata
variabila
development
gsp
numeros
relativa
inregistreze
block
calificari
rafinat
admiratie
##nata
vascular
horror
reintegra
cehoslova
gratii
zoom
##hr
comercializeaza
lupa
incetini
comisa
angajate
afisare
##nad
##ration
cobora
secundara
balsam
cioran
invred
##lesti
consumi
disciplinara
##ograma
college
tags
nemar
##eale
##usele
dominanta
proemine
##ando
incepind
vladimirescu
examenele
nefond
cardiac
actorului
participand
tape
contestatiilor
streaming
porcine
designului
##kar
##culescu
##nicii
minunati
##zatorului
inspai
##berry
dacice
marire
131
##rex
reintre
##tera
curierat
inexplica
laturi
ingerilor
##62
dedes
ardelean
motociclete
euharist
nick
gimnaziu
##ptice
solidaritatea
navei
sefilor
imediate
instalata
##pf
fazele
recalcul
##dand
##steze
alegerii
institutionala
faimos
tatiana
vrajma
thailanda
avoca
##risa
episcopia
peria
atace
devenea
nae
##mintelor
razv
sustinerii
epic
1926
functionalitatea
simbolizeaza
sesizari
prestatia
batea
autode
rutieri
vatican
pretextul
pais
editat
compatibile
serverul
vegas
exta
inele
adancimea
initiere
dantela
lenta
agitatie
reprezentantului
vinovata
ingenun
dedesub
desprinde
meleaguri
##tindu
kosovo
##uge
##shore
salutat
obligativitatea
aseze
abuzurile
bona
intrari
siha
parcari
indemnizatie
incorporat
misiunile
protestatari
##inis
studi
rezultata
brusca
retrag
desenele
sovietici
##lana
raportarea
agata
furate
##etul
cronici
secvente
bateriei
amanarea
rascump
multele
axat
monitorizeaza
manea
licente
premisa
consiliilor
metroul
nora
iubiri
simptomelor
paharul
dezavantaj
urinare
grupei
particulara
cartona
absolute
##oon
fortare
1907
mostenitor
elenei
inaltpreasfintitul
##rp
antrenata
zgu
traiti
calom
serialului
injura
orientate
##iteat
capsule
consemneaza
repri
letonia
##oida
utilitatea
statiei
domestice
##seca
##hani
trilog
totalitatea
gur
##dru
##zzi
lichidul
biruinta
##ceput
##itudinii
emiterii
prioritara
east
##metre
cursele
goana
##bos
##onezii
gul
integrale
mentinere
justific
intensifica
##bach
142
salariat
tromb
intersectie
redactie
renumita
contencios
reva
eliberarii
atar
simplitatea
componentelor
traversat
challenge
arhitecturii
cuviosul
comenzilor
dreptatii
furnizarii
franz
transformate
celebritati
prioritatea
contrac
curentului
introduc
tehnicii
joase
broke
wel
consulting
##leta
croi
furnizorului
eronate
albastri
refugiu
memorandum
telegra
investitor
maestrului
aplauze
capre
prestari
##watch
orasel
fostilor
urmarita
stockholm
castigata
integritatii
yky
contrafa
ingrijorat
distractive
bucurestean
strasbourg
##diana
anne
amendat
mihutoiu
geamul
editiile
##sindu
fascinat
procentuale
##ат
izolarea
##categ
reproducere
##stop
##zanta
mong
demararea
thril
gustoase
datand
peretilor
destepti
scala
mingi
scurs
bast
doarma
##unoaste
constantei
curriculum
consultativ
pertine
boy
3gp
carpatilor
##aneste
ciop
##galiei
azer
aplaud
retina
cercului
preluare
electromagne
##ovei
lidl
contrazice
cizme
inles
profilului
dirijor
concentratie
digestive
onori
rector
vechimea
constatam
potabile
paznic
munceste
vedeau
sankt
dumbrava
demonstrati
messi
##lenta
golden
sv
titularul
diferentia
comic
fermierilor
##cap
cucerirea
difuzate
distinct
acordam
eliberati
ont
admisa
cartof
susan
avocado
dominata
mozaic
fractura
hipno
tramvaie
afectiunilor
europarlamentarul
masajul
senatori
##tes
neglijenta
mileniul
contractanta
zol
rotatie
prescriptie
##100
chiril
neplacuta
vb
pasagerilor
profesionalismul
##oirea
splend
cantecele
coboare
mituri
dovezile
placinta
colesterolului
inoxidabil
bombarda
##maria
informam
formala
##hz
lucrului
explozia
topit
infatiseaza
auste
islanda
realizati
fried
preaferic
dificultatile
arunci
casatoriti
madu
invataturi
sonore
amfiteat
chirila
temnita
sexdates
respectivele
semifinalele
channel
corel
intravil
calculate
titlurilor
incendii
emmanuel
reclamantului
pornim
xia
nicic
gropi
rotaru
atana
indicatiile
francisco
polirom
inghitit
spin
iesea
dezbaterilor
babe
apelati
trotuar
pedepsit
twe
255
analizeze
dezlant
localizat
escorta
lavanda
filarmonica
consumata
responsabilitatile
pictate
magnet
chinezesc
bijuterie
holi
sabie
##ridon
respirator
sindicatul
infrumusetare
romanele
schita
foloseau
south
dumnezeiesc
folosea
portbaga
varfurile
intimitate
bucovine
fotbalistul
incetare
161
orientata
psihologul
romilor
maneci
drapelul
politico
grabi
antonie
##rey
oferea
identificata
raspandita
##band
baciu
dobanzi
adoptarii
sclavi
interi
juriu
vr
##devar
predominant
occidental
wit
##ganul
##ogram
marasesti
baietelul
puiul
shar
ecli
##usuri
vestica
foamea
poluarii
cinea
radar
sacrificii
implinire
oaselor
avionului
izvora
##tarie
asimilate
##au
controverse
implant
contractual
coeziune
eficacitatea
cuvint
ocuparii
achizitioneze
surprinda
ascensiunea
declarati
notificari
elementare
biologica
tupe
bulevard
proteina
pricin
adeziv
covorul
desfiintat
gherg
##ciov
ametit
resturi
depistate
solicitarilor
##mera
libertati
clujean
prietenului
cheltui
ceremonii
prestarea
garantare
##hana
africii
considerabila
vulnerabil
cotidiana
telescop
mizera
rampa
tesutului
nervoase
1913
autobi
inovator
weekendul
irani
operate
fred
##gus
exercitat
indoieli
bari
identificati
impache
exterm
ilustra
iertat
rame
pasarea
ghimbir
olteniei
##atoarelor
monot
attila
agresive
tigare
reducerile
cumparata
vicar
densitate
jones
scrisorile
irig
calator
elevului
cuget
feat
plaza
acompani
torino
lucrau
coafura
##bec
scandina
vestimentar
iluzie
ajutand
protestelor
bici
b2
carl
disparitie
##camp
vesele
lacrima
qual
nascatoare
atletism
sfatului
precizam
emana
drea
hiroton
inaugurata
scolarizare
analfa
fixeaza
notifica
aliati
##curile
maratonul
subdi
exca
explicatiile
aaa
monumentului
influentata
actionarii
ispita
marmatiei
consultatii
rationala
romance
zimb
atarna
blocurilor
castigurile
creasta
dezbatut
emisii
fiction
lilia
stagiul
sperand
hype
necul
petreci
jandarmeria
##menul
ghinion
rupa
accelerat
##ptata
diagnosticat
##roizi
haidu
chelsea
unitara
portel
germanii
stol
neglijat
retrospe
directoarea
revistele
perceptie
alo
incasate
olteanu
periodica
sloturi
infas
pastrezi
stein
culese
cuminti
declin
contestatia
avizului
leonar
aderenta
interog
grase
##uitoare
justificata
someri
intrerupta
prutului
##roll
apoge
maluri
technology
##ced
impunerea
naturiste
mineral
vreunul
indreptate
##ruit
liniilor
zom
gradinii
sosul
calculata
desemnati
carn
aspectului
ursu
dureze
armonioasa
ambianta
evreiasca
jignit
##lag
parlamentarilor
biscuiti
chiriac
reintal
contribuabililor
arbitrul
originalul
infiinta
zamfir
##ranul
mocanu
salarizarea
odo
##uss
vizitata
optimism
refacut
##peli
pescuitul
child
##ssan
categoriei
nomen
aseamana
hacke
detasat
expozitional
verdeata
ambul
corectitudinea
##zici
serile
respondenti
citeam
prune
recurge
safe
dictionarul
plafonul
predicti
##hnea
ridicati
ucenici
pardoseala
rotunj
compartimentului
mez
##iezi
surv
ortope
cultivat
zdrobit
##ias
importantei
cumplita
gusturi
bagaj
pronuntate
bombe
substrat
derularii
liverpool
logistic
##meze
icr
ambalajul
##vez
europarlamentare
##catie
sectiunii
##vea
##jata
ierte
realizez
##house
veacuri
genuri
progresiv
metamor
salate
muncitorilor
duo
limbilor
concentreze
stresa
taur
escro
liberalilor
##ufle
tristetea
##difu
##aliei
internelor
intriga
buf
avocatilor
cistigat
inteligenti
respectata
ede
tesuturilor
oxford
##ntiar
rica
##nts
presupunem
infectia
indicatorii
regleaza
romexpo
umorul
stephen
intrebarilor
georgiana
poeta
cee
teo
porsche
##dence
inclusive
voturilor
margin
rupte
concluzionat
determinare
basti
mizeria
napoli
mapa
onorat
cunoscu
ciclism
pomenire
stagn
spaga
1600
##rofe
fulgi
atlant
aspira
##ssa
interpe
bradul
mansarda
##bla
gestionat
pcr
trupurile
locotenent
##led
tiriac
mesia
municipala
umezeala
##orian
imput
visam
convocarea
reclamatii
sib
reciclare
rds
had
provoace
contat
lichidarea
statiuni
stana
avant
olandez
neveste
manastirile
fundalul
##dad
contradictorii
doisprezece
indicatoarele
lungmetra
inghetat
bauturile
supt
chirt
traiul
comercianti
specialitati
scotia
urez
flam
##34
relaxati
achitate
aminteasca
salas
incurajare
magistrati
castigand
name
fixarea
drobeta
cadourile
spionaj
purtare
nemultumirea
zambeste
stema
expansiune
pedagogic
pumn
combinata
covoare
municipalitatii
nectarie
oftal
mecanismului
procedeu
inspirati
grasa
renumite
##uiat
orizontul
furnizeze
##36
coste
premiati
porneasca
sofisticate
##matul
##pub
acoperiti
prietenoasa
arit
##95
consola
adreseze
casuale
bond
raspundem
ferit
dezinform
gresesc
numeasca
francois
iugoslav
tiff
vaccina
simtita
muzeal
cercetati
aplicabila
einstein
##rix
vorbeau
episcopului
antia
bert
videos
castigatoarea
ajungea
elo
uns
transformari
vehiculul
globul
arteriale
skoda
calificati
pesi
trasatura
pastrez
calcar
consistente
randament
dani
##cup
urcam
##protv
creng
democratilor
admisi
domnitorului
depasind
imprejurarile
epuizat
iranul
filarmonicii
pupa
##cp
inventar
cantitatii
planificate
renovare
ik
##cor
ecrani
muzeelor
##discipl
##tiale
invitate
vibra
temelia
nespe
concentrata
facu
transpla
prenume
penta
dovedeasca
bunat
blocati
obligatiei
spiridon
##rson
ceruta
walter
alma
suflare
suciu
aflarea
##oscop
laca
practicate
jila
rast
##oliului
##ghie
articulatiilor
promisiune
stirileprotv
domnitorul
water
fbi
aplici
pungi
apreciem
elveti
sabl
plesu
##vius
decizional
aptitudini
principele
##merce
mihalache
maya
soiul
##ка
culte
naut
##oneta
ratacit
proiectia
##gane
disk
ghioz
refugiatilor
fuge
patriarhului
analizand
##────────────────────────────────
predau
aglomerate
##rmea
chiajna
generoase
lichidare
economist
puz
istvan
cnas
concertului
##kg
edge
infern
diamant
suspendata
seminarului
montreal
##tex
deschizi
diabetului
genoci
sunetului
mutu
bulgara
##ularii
sperantei
##rodu
notari
franciza
##veaza
bow
hectar
topic
agresat
hasdeu
simpozionul
intelegeri
blues
gf
indure
juncker
opun
legitima
nespus
adje
##shot
execute
atotputernic
noe
patrie
antreneaza
sanctiunilor
cantitativ
multumeasca
prostia
oly
apeleze
sprijinului
senzual
indrumare
sufoc
##oterapia
eri
profila
inutila
strabatut
teatrala
cumparatori
##omo
##ghezi
hranesc
##lute
dumnealui
intunericului
##pati
civilizat
autobuzele
nemijloc
condens
calam
exporturile
elicopter
bp
trecatoare
subtile
decala
universitatilor
asociaza
creion
constructorul
experimentati
offshore
carm
radiodifu
vigile
atei
doroba
cortul
discul
palpa
pasionatii
supranatura
holocaustului
cultului
##lezi
intelese
##dist
punctaj
gelu
nd
plictisit
invocate
depline
polonezi
ocole
emisiile
tonuri
oni
bivol
anuntului
##cee
cuba
natala
permisului
pascani
intareasca
meciurilor
penitenciare
stor
regiei
notificarea
1859
152
purtau
fideli
penul
guverneaza
sperantele
nucleul
amendamente
temut
coo
recreere
perie
refacere
gem
vestiment
cutare
admise
spam
reputatie
crez
atinse
supere
gaudea
##borand
bagajele
##cela
patura
sistematica
zamfi
haret
ibi
pipa
profite
marturisirea
ruje
##mesc
exemplele
bursei
logan
spectrul
rectorul
extragerea
maner
fetitei
bach
aba
genele
leonardo
orientale
santierul
proceda
fero
303
jucatoarea
incurajeze
campioni
opuse
adverti
ingrijorati
semnalate
grati
exer
pozitionarea
japoniei
tineau
compun
banica
##oru
lew
##lock
diasporei
spo
##zio
motiveaza
indrepte
perla
conviet
##pilor
asiatici
fenomenele
sintetic
budd
preliminara
##200
versiunile
invitatul
monedei
reunite
##hes
rume
##zatorii
ucraineni
pruncul
##mez
mentionand
racoritoare
crisana
combata
security
bagajul
prejudicii
pestii
chak
cotei
mostre
wizz
chrome
sluji
spontane
##mintit
gravitatea
205
vederi
biling
141
rusilor
dream
distinctii
vast
teoriile
concentrarea
##oizi
last
mafia
##ciului
ecosiste
zeii
manualele
##fet
originile
odihnit
ispit
inflamatia
pumnul
prevedere
traiect
asistentilor
prestigioase
pluton
timpurii
##itilor
contureaza
##andru
lichida
panorama
list
suspendate
oglinzi
route
administrarii
sfirsit
sportivilor
juramantul
sindicale
dovleac
##pos
iluzii
communic
gaudeamus
gazdelor
restaurantului
telina
intrun
procedeaza
##bela
patrick
riduri
##io
optimizare
conjunctura
unghiul
disperat
imunitatea
chile
##uru
biodi
ascutit
intestinale
fluxului
ll
darea
##anic
actualitatea
exclusive
versatil
capodopera
sirian
##mintului
rangul
photos
liberala
paunescu
districtul
lune
descarce
aroganta
araf
##px
seva
treptele
anulate
planificat
redistri
administratorului
desparte
directoare
##ated
brio
captus
bucegi
borcan
##inom
alegand
him
magnetic
azot
seaca
piramida
leonard
##vist
citez
ninsoare
cercei
localizare
neutru
rasnov
migratiei
indragostiti
profesionista
indraznit
adapteaza
##narii
marimi
certe
inventie
##ocar
nationalitate
aparatelor
alegatori
##anarea
lipici
portrete
tranzactia
explorarea
nemuri
##ody
inchipui
hepatita
custo
##utilor
##vier
interpreti
personaliza
transferului
imprejm
infla
##liera
contestatie
isaac
##oae
voluntara
sunetele
comunelor
##cted
duratei
usilor
board
zeelanda
moli
conducand
##rof
dain
invatarii
retice
cunoscand
executive
scott
avusese
rahat
epurare
stur
primirii
segmente
colos
functionalitate
disputate
##orum
##otele
mik
chirtoaca
primariile
geamurile
##look
banala
##spot
strapun
umanitare
mobilitatea
##kara
compromisuri
##vic
neconventi
##zona
virginia
##oney
minuti
##ulus
##leanu
nero
clauza
prosperitate
alexa
vocale
arafat
trairile
semnificatii
terapii
irever
joburi
interdictia
memorabile
pensula
patriot
pescar
marco
minimi
terape
shemales
colaboratorii
taria
testelor
##semnific
nedume
intelepti
textil
profesii
ofiterul
performance
scaunului
dioxi
squirting
##datori
pilonul
prompt
covarsit
indreptata
transportata
morminte
desemneaza
adresele
corporation
mixe
reumat
cosmic
amanata
natiunile
masurat
##matici
evz
croit
termenilor
nicolaescu
arda
expusi
fiice
crestea
ambitios
studentesc
tradusa
suveni
scarile
chilia
decurge
festiva
##magazin
editarea
207
emisiunile
fantezie
judece
deschidem
##minteri
amplifica
degu
certat
nefumatori
eut
postarile
discriminarii
##pentru
alimenteaza
hidroelectrica
fumul
pani
abur
motivata
alergii
##datoare
paguba
ovidius
cancela
lecturii
aviatie
refugiat
basarabeni
statiunile
contradictoriu
valiza
invatatorul
iuliana
prein
mamaliga
facial
stocul
garantata
nervii
scoateti
##orteze
asternut
batuta
caldurii
spitalelor
##vir
provinciei
estimate
neobisnuite
summ
comment
majest
provocatoare
ticalos
850
observate
ingreun
prod
indicatorul
petrecem
evalueaza
serge
rostog
jane
discursuri
sutele
privitor
plagiat
provenit
lego
demne
atmosferica
asasinat
garnitura
sfere
milan
desenul
morcovi
horati
mentalitate
coace
largul
adaos
antreprenorii
mintit
populatii
calcula
narat
radioa
imbunatatirii
branze
premergatoare
lord
oil
talentat
selectare
##viinta
tony
cognitive
##inda
programarea
rebeli
preacur
##heimer
demara
cultivate
intimitatea
incapacitatea
gandita
heli
turnuri
lupul
##kers
inteligentei
##vania
istoricii
glum
umbrele
cucereasca
pha
##ии
##ctat
vacare
matematic
substantiale
chiloti
toyota
paji
hosp
exercite
deran
sexi
parasesc
spiru
cnair
marunti
holding
cruda
tabl
pasiuni
tentat
danu
##eac
incepu
inventii
##chin
nerambursabila
impletit
sighetu
revendic
timbru
##feta
simonei
impermea
tabela
presedintie
reducand
elaborata
scriind
spalati
confruntam
fauna
interfere
##deam
socotit
vechilor
validare
allview
dead
cristale
sued
##vezi
carolina
subventi
rosiile
mentionati
florida
blow
pierdeti
pes
##fl
acreditat
##osfera
impost
marinei
iubea
ambitia
carma
##kins
generator
decolte
ear
trecat
observi
distreaza
delegatii
##rong
mitropolia
grijile
grecesc
conserve
stancu
mihnea
##ulele
rasarite
deserv
occidentul
##odora
trafica
portocala
civilizatii
venitului
titus
fundatii
mosul
oceanului
##war
afori
maternitate
##hna
observatiile
inovatii
inspaimant
##itte
vieru
pozitionat
doctorului
nobili
importul
dansii
juan
micilor
adversari
multitudinea
fortific
cozi
rux
antrenamentul
sinucis
incurajati
pestici
sob
emilian
ezitati
rebre
##yd
nesemnific
aeroporturi
inovative
tehnician
tipi
coj
vacantele
girat
grasimile
iun
continuitatea
consumati
costine
potentiali
filologie
supuna
miscarilor
rebel
nereus
andronescu
alocati
destabili
cires
##otra
spectatorilor
##iliere
arsenal
avizat
scurtmetra
bunicilor
pretentiile
lucrator
jiha
atletic
instructor
rusinea
alcoole
succesiune
principesa
provocarilor
ovul
##onistii
vaccinare
fb
dumnezeule
eviti
dezastrul
adevaratele
cutitul
ninsori
adiacente
prinderea
procesate
promovam
cinematografiei
reamintesc
tuni
entertainment
garros
poeziile
##pera
nelam
frisca
incip
ocoli
inaltul
inh
contabili
pretext
regionali
##uleni
assi
satmare
subsemn
cutite
wimble
gustoasa
learning
ses
suedeza
vart
putinii
realizand
consumam
radicale
certificarea
revolutionare
tragem
capsuni
iepura
misionar
poemul
erorile
economisi
comitet
imaginatiei
gunoiul
apelului
miine
contraindic
curve
nominal
muntean
conservatoare
inginerul
rindul
reclamat
inconstienta
gno
lantului
inegal
aditionale
subdivizi
localizarea
economiile
orienta
introducerii
busines
reformele
coar
acreditare
##iac
fois
caracal
responsabilitatii
nebuni
coap
##denie
suprain
bijuteriile
apetitul
cautarile
portiunea
skin
skype
zgar
groaznic
infectiile
terapeutica
christos
restranse
wine
stirilor
tulburarile
hidrateaza
continute
creativitatii
uleiului
gua
bucurandu
controversate
deteriorat
nobila
incercau
adversarul
portar
##urch
circule
cumparaturile
fox
locuiau
##strial
##jesti
aranjat
iara
galile
corporati
palace
generatiilor
convingeri
engleze
dezamagire
obtinere
mozart
dark
##manul
ascundeti
proveniti
verdic
apostolii
culcat
cosbuc
vatamare
aniversar
##rne
imaginez
##unul
inflatia
##gui
saltele
incord
baroc
postmoder
neobisnuita
##test
despartire
fenomenelor
epistola
ratb
autovehiculului
christop
promotia
evreiesc
##ded
productivitatea
restaurantele
208
stramb
infractori
felicitat
cex
inzestrat
4g
sasi
sesizati
returul
senzational
complica
aratau
televizoare
##wich
emblema
copyright
defun
rezist
templului
suferintei
plamani
saselea
noica
degradare
relaxarea
lidia
indelet
raja
bega
imputernici
timi
agresiune
obisnui
neof
autoare
raporturilor
aruncam
entitatile
timpurilor
roca
rezervatia
156
motiva
intampl
celebri
aceast
microscop
salariatului
renasterea
fume
pastelui
##usurile
vamp
preferati
stalini
swi
tunel
imbatran
##enta
mediterana
argila
negoita
little
##utu
ordon
suediei
caritate
pascal
metabolice
##kon
##atlon
vreunei
medicinei
nita
oe
cutremurul
serena
fiilor
adept
pantalonii
buri
sfintirea
rene
termop
greutatile
mesajelor
cnn
priveliste
diplomat
mexican
hepatice
duri
aragaz
supranumit
jucati
rectificare
dn1
vize
family
gestioneze
engine
suspendarii
oltului
filozofia
##hod
rise
##unta
stone
impaduri
invidiat
penisului
abtin
necont
##olarii
solicitantul
socialista
analytics
paraul
statuie
obositi
domnie
uscare
vintila
audiovizualului
wc
manolescu
##hop
conluc
casatorita
prelimin
ingrozitor
##rag
profesionistilor
desertul
echipata
sanctu
unghiilor
implicarii
frontului
virusului
pregatesti
voluntarilor
##þii
clasificare
cavaler
comedia
arama
lina
nordic
ramanea
prostata
ramasese
banul
setea
constel
gresie
phe
divortul
raurile
enel
criticile
diacrit
article
miscat
inocenta
latino
prizonieri
vicepremierul
dima
##struct
constau
inchirieri
prelucra
nemtii
sno
monetare
##getu
wimbledon
cosmetica
ceaiuri
migratia
tichete
altminteri
##rative
protejati
iona
tinutele
gluten
reactiona
pelerin
luase
psihoterapie
vecinul
##oalele
propuna
scedil
vazandu
self
dividende
rezervor
articulare
##uneau
pavilionul
##uoasa
cher
literal
alimentat
lipeala
variat
dispers
servere
regenerarea
profitului
arunc
incurajam
pigment
traire
##rmo
catar
preventie
porturi
ted
revelatie
raiul
spectru
bike
inaintata
turcesti
absolvirea
decesului
pantof
fate
##го
zori
who
##pozit
##xie
nadaj
frigori
##mund
##celul
cotele
tool
##stiinta
##ntindu
##doc
confisca
gimnazial
masculine
patimile
prosop
salubrizare
##osan
lipeli
##forta
arade
untold
ntr
pue
ciub
kilogram
laptopul
##ficatoare
regizori
iq
magdale
jucand
controversat
deutsche
bolo
ordinele
patimilor
estival
muscat
nefericit
vietnam
restabilirea
hotarirea
hete
##micii
##bure
permiteti
arhitectural
##leroza
guardian
trimiti
concurent
dirigi
nefavorabile
feli
regulamentar
dispece
distribuitor
##jeaza
felurile
gandea
inadec
ministere
embri
##nting
formatiunii
sceptici
py
tradat
grupate
##nate
rach
summitul
platformele
leac
disfun
calculele
numitele
gandite
malurile
reflectie
telefoanelor
incorect
transe
jumate
rezulte
microfon
ecou
danseaza
ebraica
ipostaze
espre
inchisorii
bucuresteni
creaturi
nemaipo
bunastare
intamplarea
fulge
transfu
organizatorice
veacului
analistii
farca
barajul
##ziana
pascu
invatatoare
adolescentilor
salvate
tuc
transportati
semaf
lumanare
obisnuiesc
figurat
varstnici
lata
chiuve
##psi
##fy
petele
sentimentelor
vizitele
cresti
cartierele
invidie
indisponi
sustinator
rebreanu
##oglo
selectionerul
initiativele
incursiune
berg
gres
avioanele
estimarile
multifunctional
ingadui
antim
nex
memorii
monitoriza
pronuntarea
neglija
invatamint
uleiurile
predeal
pane
pardo
numero
micutii
238
intervalului
americanilor
fluctu
obosita
confiscat
cirese
canepa
##vide
slujbele
citiva
oligarh
colectiei
interactiva
dobanzile
pedo
right
sfatuiesc
##mandu
pornografice
semnalele
suspectat
incompetenta
lamb
##uto
ceramice
habsburg
viscol
aminoacizi
##garul
armi
extrava
invinga
progresului
muresului
##zed
ridurilor
florenta
azerbai
##play
vez
##rista
gestiunea
##him
emilia
sublinia
##aneze
stearga
tocat
strangerea
compli
judecatoresc
electoratul
slujirea
tinctura
circuite
urbanistic
##alismului
auziti
clasici
neamurile
arbitra
pretioasa
##laj
sugera
conchis
polari
derapa
economis
bush
unicat
portelan
oul
ose
incest
##ristii
##venie
consorti
duceti
democrata
fermoar
activele
##zisti
cuprinzatoare
miraculos
trairea
1877
aeronaut
##gr
##imare
scrisului
bomboane
oftalm
clasificarea
rafturile
anastasia
##haga
##mitata
scalp
superficial
casatoreasca
##onatilor
ingrijorarea
ruperea
elicopterul
slim
here
accesate
albumului
casc
##dero
plantat
licentei
veacul
##onism
principatelor
siberia
##untru
misa
mak
gagau
botezului
prejudecati
spele
dinafara
palmares
predate
dragii
horoscopul
alesilor
##pot
memorial
##ал
aviatiei
inhibit
flue
##chiu
gref
matca
furnizati
##hs
inscrierii
track
cursei
continente
rasti
macarie
bolog
ceah
ppe
lamp
cununa
cancelarul
aha
karate
parinteasca
loturi
afin
camuf
deprin
outlook
nice
loveasca
spovedan
invarte
respinse
canadian
imperial
hormonale
prefecturii
boi
paginilor
eloc
modeste
inspectiei
north
antrenamentele
primarilor
anuntam
provocand
neobserv
activati
add
legendele
efectuati
discutiei
geto
documentat
zambind
comisari
distractii
felie
solutiei
opoza
analist
philip
candu
mahala
clocotita
cotidianului
certificatelor
cusut
fotoliu
documentarul
vroiam
##pete
iesiri
silit
drumetii
tumult
judetelor
enig
##ronie
##guay
trateze
ciuma
hotarata
controversata
720
lampi
pauze
xl
##ationala
amane
culmina
intelepciunii
virtute
contribuabili
vitalie
arhive
paradigma
microunde
separare
fati
teolog
mitra
invatatori
urne
urmaresti
##giene
rever
ragaz
femele
obstru
aviv
alpha
izolata
propagandi
camil
seb
##scute
auditi
nige
firesti
telespectatori
##rig
##mens
dominic
tanti
extensie
acreditate
semine
morar
304
rapit
homeop
inaintarea
asigurandu
pustii
fantasy
inflorit
intruchi
2500
chinuie
proroc
mentiuni
implementeaza
##hale
adaposteste
echitabil
##fierea
avantajos
perle
gradinile
numeroasa
visez
##dating
tomi
auzul
calatoreasca
imbunatatesc
afectiunea
tulburarea
gafa
justificate
##etei
stela
constructiv
slavi
conot
##poziti
cantaret
fidelitate
inceteze
polita
iubitorilor
vizionarea
straniu
nin
arenda
retinuta
sufleteste
armenia
definitii
poliester
impunere
##iman
victori
golful
alimentatiei
flexibile
convingerile
vizionat
spaniole
corectarea
perceputa
competitional
##fte
trade
iadul
biblica
rezonabila
##steanu
evlavie
colege
level
comunale
garniz
egu
esei
nb
nemo
decorate
tripla
##ingo
revarsa
cuib
rautate
inmanat
bub
initia
caritabil
antibacte
deplasari
profitand
lgbt
##gli
##iii
placile
suprim
dragon
validat
recipient
incurca
aron
crimele
radiatii
treceau
tarm
transpune
islami
navala
##jr
percepute
rezultatului
scorpion
wie
ironie
baietilor
alcal
artele
exportul
rupta
manifestarii
rucsa
incadrate
nisp
fabricata
ridicol
fondatori
davis
generozitate
nisipul
##ovia
redactiei
ilan
razbuna
##mpet
reexa
dracula
deont
diminuat
cautarii
morf
atingeti
epoci
naibii
matematice
mogos
##diaza
speciilor
fericitul
fee
urmam
boeing
businessmagazin
investigat
turului
vazusem
154
bolta
particularitatile
mirat
151
analizata
temerile
familiala
ovaz
bunatati
horatiu
pharma
bariere
explodat
mobiliare
csat
api
dragh
ocupatia
##ghan
precizeze
cristiano
arhangheli
baiatului
sufragerie
ungue
editoriale
vos
##dney
achizitiei
cardiaca
alz
##arbonat
wur
acri
##pari
genial
##tici
gloa
ortodoxie
any
faimosul
brigazii
observatorul
titei
gazul
hotelier
interlocut
prev
megapi
absoarbe
lavin
pomul
numeric
dansat
##rmi
deveniti
distrat
zel
virusi
coldea
##bur
plasati
hill
##sesi
franare
gospodariile
neex
ascutite
margele
filtrul
pediatrie
banne
blocare
confesional
somes
nascu
posibilitatilor
##det
excesive
autovehiculele
abi
tipului
##jamin
hotelurile
tart
valcov
ciuperca
##nko
implicatii
palestin
haw
construct
ritualul
##ри
amuzanta
intreprins
amenintarile
intimata
[...]
