[PAD]
[UNK]
[CLS]
[SEP]
[MASK]
!
"
#
$
%
&
'
(
)
*
+
,
-
.
/
0
1
2
3
4
5
6
7
8
9
:
;
<
=
>
?
@
[
\
]
^
_
`
a
b
c
d
e
f
g
h
i
j
k
l
m
n
o
p
q
r
s
t
u
v
w
x
y
z
{
|
}
~
¡
£
¥
§
¨
ª
«
¬
®
¯
°
±
²
³
´
µ
¶
·
¹
º
»
¼
½
¾
¿
×
ß
æ
ð
÷
ø
þ
đ
ħ
ı
ĳ
ł
ŋ
œ
ƶ
ǝ
ɐ
ɑ
ɒ
ɔ
ɕ
ə
ɚ
ɛ
ɜ
ɟ
ɡ
ɢ
ɣ
ɤ
ɨ
ɪ
ɫ
ɬ
ɮ
ɲ
ɴ
ɹ
ɽ
ɾ
ʀ
ʁ
ʂ
ʃ
ʈ
ʊ
ʋ
ʌ
ʐ
ʑ
ʒ
ʔ
ʦ
ʧ
ʰ
ʲ
ʷ
ʺ
ʻ
ʼ
ʾ
ʿ
ˆ
ˈ
ˌ
ː
ˑ
˘
˚
˝
ˮ
΄
α
β
γ
δ
ε
ζ
η
θ
ι
κ
λ
μ
ν
ξ
ο
π
ρ
ς
σ
τ
υ
φ
χ
ψ
ω
ϐ
ϛ
ϰ
а
б
в
г
д
е
ж
з
и
к
л
м
н
о
п
р
с
т
у
ф
х
ц
ч
ш
щ
ъ
ы
ь
э
ю
я
ђ
є
і
ј
љ
ћ
ѣ
ґ
ғ
ү
ҷ
ҹ
ә
ө
ա
դ
ե
թ
ի
լ
կ
հ
ղ
մ
յ
ն
ո
ռ
ս
վ
տ
ր
ց
ւ
ք
־
א
ב
ג
ד
ה
ו
ז
ח
ט
י
ך
כ
ל
ם
מ
ן
נ
ס
ע
ף
פ
ץ
צ
ק
ר
ש
ת
װ
ױ
׳
״
ء
ا
ب
ة
ت
ث
ج
ح
خ
د
ذ
ر
ز
س
ش
ص
ض
ط
ظ
ع
غ
ـ
ف
ق
ك
ل
م
ن
ه
و
ى
ي
٪
٭
چ
ک
گ
ۈ
ی
ܐ
ܒ
ܘ
ܝ
ܢ
ܦ
ܪ
ः
औ
क
ग
ज
ड
ण
त
द
ध
न
प
ब
म
य
र
ल
व
श
ष
स
ह
ा
ि
ी
ो
ং
আ
ক
গ
জ
ট
ত
দ
ন
ব
য
র
ল
শ
া
ে
ગ
ત
ર
ા
க
ங
ச
ட
த
ன
ப
ம
ய
ர
ல
வ
ா
ி
ு
ூ
ை
న
మ
ు
ಕ
ಟ
ರ
ು
ೂ
ก
ข
ค
ง
ฎ
ฐ
ด
ท
น
บ
พ
ภ
ม
ย
ร
ล
ว
ษ
ส
ห
อ
ะ
า
เ
ไ
་
ག
བ
འ
ལ
ა
ბ
დ
ე
ვ
ზ
თ
ი
კ
ლ
მ
ნ
ო
პ
რ
ს
ტ
უ
ფ
ქ
ღ
შ
ც
ძ
ჭ
ხ
ჯ
ᄀ
ᄂ
ᄃ
ᄅ
ᄆ
ᄇ
ᄉ
ᄋ
ᄌ
ᄎ
ᄐ
ᄑ
ᄒ
ᅡ
ᅢ
ᅥ
ᅧ
ᅩ
ᅮ
ᅵ
ᆨ
ᆫ
ᆯ
ᆷ
ᆼ
ሕ
ም
ዋ
ង
ᠡ
ᠣ
ᠯ
ᵻ
᾽
‐
‑
–
—
―
‖
‘
’
‚
‛
“
”
„
†
‡
•
…
‰
′
″
‹
›
‿
⁄
⁰
€
℃
ℓ
№
™
ℨ
⅓
⅔
←
↑
→
↓
↔
∅
∈
∑
−
√
∞
∧
∨
∩
∫
≈
≡
≤
≥
⊕
■
□
▪
►
◄
○
●
◦
☉
♠
♦
⚥
⟨
⟩
ⰰ
ⰳ
ⰾ
ⲁ
ⲉ
ⲏ
ⲓ
ⲕ
ⲗ
ⲙ
ⲛ
ⲟ
ⲣ
ⴰ
ⴷ
ⴻ
ⵔ
ⵢ
ⵣ
。
「
あ
い
う
え
お
か
き
く
け
こ
さ
し
す
た
ち
っ
つ
て
な
に
ぬ
ね
の
は
ひ
ほ
ま
め
ゅ
ら
り
る
ろ
わ
ん
ア
ゥ
ウ
カ
ク
コ
サ
セ
タ
ッ
ト
ニ
フ
ヘ
ホ
マ
ミ
メ
ヨ
ル
レ
ロ
ヲ
ン
・
ー
一
三
上
东
中
丰
丸
主
之
九
书
二
井
亚
亞
交
产
京
人
介
代
仮
伊
休
会
伝
何
佛
作
你
侘
俊
健
僑
元
光
党
內
八
公
六
共
内
分
切
別
利
前
功
加
动
助
勒
動
化
北
区
區
千
华
南
原
參
叉
及
取
受
口
古
合
吉
名
君
吞
吾
周
命
和
善
四
回
囧
囲
国
國
在
圭
圳
场
坡
城
埠
壁
士
売
夏
多
夜
大
天
太
夫
失
奥
奨
女
好
妓
妻
子
字
学
宁
安
宮
家
宿
寂
小
少
尼
山
島
川
州
市
帝
平
广
店
府
康
式
彪
徐
恩
懐
成
房
手
技
拳
振
政
教
敬
数
整
文
新
方
族
旗
无
日
明
星
春
昭
朝
木
本
机
李
村
条
東
枕
林
架
柄
柔
柳
栄
株
栽
棋
森
楷
楽
標
樟
次
欢
歌
正
武
毎
毛
民
水
汉
江
沢
河
治
泉
法
津
活
浦
海
清
港
湯
源
準
溥
滬
漢
澳
火
点
然
片
特
犬
独
猟
猫
瑞
田
由
疏
痛
百
皇
盆
目
石
碁
社
神
福
私
秋
稲
端
筆
篆
系
紀
紅
納
細
組
經
綢
總
織
红
绸
罗
羅
義
者
聂
联
育
自
舞
芮
花
芸
茶
茹
草
華
葉
蒙
蓮
藩
蛋
蝚
蠕
血
行
術
表
裂
裏
西
親
角
言
記
語
説
语
说
賞
路
身
車
転
輩
轨
运
速
逸
道
遣
選
邦
郎
部
郵
酒
里
野
金
銀
鏡
長
門
間
閣
陕
陽
随
隶
雨
震
靖
革
韓
音
風
香
馬
马
鮮
鳳
鸞
黄
龍
ﬁ
ﬂ
ﺍ
ﻕ
（
）
，
￼
𐌿
𐎍
𐎓
𐎢
𐎽
𝔷
𝘦
🐷
##n
##t
##e
##r
##d
##p
##a
##f
##u
##i
##o
##h
##c
##s
##י
##פ
##א
##l
##g
##m
##k
##v
##w
##7
##0
##9
##z
##x
##b
##j
##5
##6
##ر
##و
##y
##1
##4
##3
##2
##ა
##ლ
##ი
##შ
##ვ
##ø
##в
##с
##ो
##8
##q
##е
##н
##а
##д
##и
##ل
##م
##د
##ة
##ı
##α
##ρ
##σ
##κ
##ε
##υ
##η
##з
##р
##б
##ж
##к
##я
##у
##ß
##γ
##δ
##ω
##ο
##ν
##τ
##о
##ð
##נ
##ו
##ה
##ك
##ت
##ا
##ب
##т
##л
##ʺ
##º
##μ
##ι
##ς
##°
##ש
##ר
##æ
##ł
##ю
##ч
##ы
##χ
##گ
##φ
##п
##ь
##ʊ
##ц
##đ
##ק
##ס
##ת
##ص
##ع
##−
##½
##ف
##س
##ط
##ي
##ن
##►
##і
##λ
##π
##ि
##क
##ब
##ा
##र
##м
##ל
##ם
##া
##ক
##э
##ϛ
##ш
##ə
##ま
##す
##か
##る
##β
##ह
##म
##ʼ
##²
##ɛ
##ŋ
##ɐ
##ˈ
##ʲ
##ه
##θ
##ː
##ʁ
##×
##г
##ϐ
##→
##ন
##¬
##ד
##า
##ล
##ฎ
##ก
##ъ
##ج
##ζ
##ħ
##ʿ
##▪
##³
##ξ
##¹
##ܘ
##ܪ
##ܝ
##כ
##ך
##˝
##ء
##ф
##ב
##х
##מ
##ן
##ض
##˚
##®
##ح
##œ
##ﬁ
##ข
##𝘦
##ף
##ɔ
##ɨ
##ע
##○
##´
##ɑ
##น
##อ
##ว
##÷
##ق
##ش
##ɪ
##ण
##ड
##ल
##न
##ी
##ˌ
##ʰ
##™
##ɕ
##ɾ
##خ
##ほ
##ん
##し
##ゅ
##う
##ɒ
##ј
##ʒ
##☉
##ʃ
##ױ
##ז
##þ
##€
##ր
##ա
##տ
##ղ
##ز
##ª
##ט
##ग
##ĳ
##ᅡ
##ᆫ
##ᄀ
##ᅮ
##ᆨ
##ǝ
##⁰
##щ
##ی
##¨
##ᄅ
##ᆷ
##ץ
##ង
##ᅧ
##ᆼ
##ᄉ
##ᅥ
##უ
##თ
##ს
##ᄋ
##մ
##յ
##ն
##±
##ⲁ
##ⲓ
##ⲣ
##ⲏ
##΄
##ย
##µ
##ח
##რ
##ರ
##ಟ
##ಕ
##ґ
##є
##ѣ
##ᅩ
##ら
##ぬ
##ฐ
##ส
##ภ
##द
##ɚ
##ג
##♦
##ร
##ง
##เ
##ท
##พ
##ม
##ห
##ค
##♠
##ى
##ち
##め
##ʔ
##ா
##ல
##ம
##ப
##ூ
##ர
##ⲟ
##ः
##□
##あ
##ᄆ
##ᄒ
##ष
##ث
##ـ
##ә
##ɡ
##ལ
##ね
##ო
##ფ
##ћ
##フ
##カ
##£
##ሕ
##त
##ʾ
##て
##व
##ᵻ
##ө
##↑
##ک
##⁄
##ϰ
##ษ
##ி
##ங
##க
##ை
##ذ
##ー
##マ
##ⵣ
##ⴰ
##ⵢ
##ⴻ
##ⵔ
##ʧ
##な
##い
##چ
##￼
##ɜ
##غ
##ʌ
##🐷
##ᄇ
##ᅵ
##᾽
##ქ
##य
##ე
##ბ
##ɽ
##ˑ
##ೂ
##ು
##ル
##ウ
##の
##ʐ
##ψ
##ظ
##ʂ
##コ
##ト
##ⰾ
##ⰰ
##ⰳ
##ტ
##ნ
##љ
##ホ
##ン
##ዋ
##つ
##く
##ு
##த
##ज
##り
##≡
##צ
##ు
##ᄃ
##ろ
##ո
##ս
##լ
##ի
##ミ
##ッ
##ク
##た
##བ
##ց
##ɣ
##っ
##↓
##ˮ
##დ
##ძ
##ા
##ર
##∞
##ⲛ
##ᆯ
##∫
##ﺍ
##మ
##న
##მ
##ზ
##℃
##ᠡ
##ᠯ
##ᄌ
##ɬ
##վ
##դ
##ۈ
##ニ
##メ
##ட
##வ
##ҷ
##ⲙ
##ᅢ
##ᄑ
##≤
##ʦ
##ﬂ
##ன
##ய
##ʷ
##¼
##ჭ
##র
##জ
##ত
##บ
##ং
##ল
##দ
##ে
##শ
##য
##კ
##𐎓
##𐎍
##स
##ด
##ะ
##ღ
##ʻ
##ܦ
##ત
##ܒ
##ҹ
##ե
##կ
##ხ
##ɟ
##ܢ
##タ
##ɮ
##प
##ᄎ
##ܐ
##ʑ
##ɹ
##ध
##װ
##ɲ
##ɴ
##গ
##ག
##⅔
##პ
##ც
##ⲕ
##ⲉ
##⅓
##ү
##ゥ
##𐎢
##𐎽
##ɢ
##え
##𐌿
##ռ
##ɫ
##ւ
##թ
##ᠣ
##ք
##ғ
##ʋ
##ⲗ
##at
##ar
##ul
in
##in
de
##st
##ri
##an
##re
##le
##en
##or
##it
si
##on
##ea
##ic
##er
##al
##un
##ui
##te
##ie
##ra
##are
##ii
##om
din
##ent
##ia
un
la
##ol
##ce
##ste
##il
re
cu
##ut
##ului
ca
se
##ate
##ru
##se
sa
al
##ro
##ct
con
ma
pe
##de
##ta
##um
##im
##oc
##ata
##ori
##sc
##si
este
an
ce
##ost
care
##uri
##and
au
##ati
fost
com
su
19
##ist
int
##pe
st
##ara
mai
##sa
##lor
##ica
##ot
##ur
##la
##ci
##ca
##za
##mp
##rea
##area
pro
##entru
pentru
##iv
po
##pa
##is
ace
rom
ar
pre
##ala
##art
##us
##rin
fi
##ana
ra
##ma
##ov
loc
ex
##ele
ap
##ile
##el
##ant
##iz
##iei
##ice
pri
roman
##ch
##da
##ine
##ici
##sti
##ilor
fa
##os
##00
##unt
prin
num
##ei
##eri
##ran
##et
##ale
lui
ale
##pt
##oa
nu
##du
ac
##ari
do
comun
##sta
sc
##orm
sau
imp
du
##ura
##od
##ult
##og
##ita
##pul
##atea
##atii
##mb
##pre
##ind
##lu
me
##di
##ort
##ite
sunt
##erm
av
ne
##va
##ua
##ern
le
pa
##ina
##id
reg
te
ve
ur
##oare
##oi
##uc
##ion
dupa
##if
era
##tre
##rie
##eni
##ga
##tele
18
##ba
##ras
prim
##ane
par
##ers
##uit
ju
tre
acest
tim
##iun
part
af
##enta
##era
##op
ba
##ze
ad
sec
sat
cat
##bil
sp
##din
ch
or
##bl
at
jude
##me
##tul
##arii
cre
##ge
200
##fe
pol
##ir
intre
##eaza
##cat
iar
cele
comp
##up
cont
const
comuna
##iu
##men
sub
##ig
##urile
##ord
no
mare
bi
##rat
##int
##mn
##ve
ince
va
##he
lea
inc
cel
oras
##atori
##alit
pu
popul
##atie
acea
fiind
mon
dar
inf
mar
form
##ip
el
ob
##ation
anii
act
##mat
##teri
pl
##peri
20
locuit
##atia
##scut
anul
tran
##ole
romania
doua
##unct
##sp
##ista
##ani
dintre
##orul
##ment
mi
tot
tra
aceasta
lim
##sul
##une
locuitori
are
##zi
incep
##anta
##iet
na
ori
##ing
##ure
##sca
pana
##ven
car
put
##orit
da
ele
rec
##sil
am
##ene
intr
##olog
##cut
##dit
##zb
judetul
as
##scu
##atul
mult
##inte
secol
vi
tar
di
cand
ase
##ente
##itu
sf
to
##ova
cun
##ric
eu
##vol
##ore
apro
##rii
timp
des
leg
##iul
cea
ul
##ib
gen
germ
bise
##ron
fran
##gh
fe
##mul
##ania
conf
##inta
polit
dom
lun
ga
##iile
##ante
spe
##uz
##ne
##itatea
peri
##raf
razb
ani
mo
17
parte
fie
cal
##rul
201
##na
mil
199
min
ist
##ona
fol
##erv
##oz
euro
##mant
catre
##old
mod
##rit
rea
##anu
luc
of
mul
##cea
for
##ti
nord
desc
##chi
pers
##ud
##tori
aut
sup
##arul
ast
istori
##min
##ha
##mbrie
##gan
ab
rel
perioa
razboi
cuno
##zent
##itate
stat
##erat
avea
##atele
ref
ii
scri
pi
sud
##fel
unde
##ativ
multe
soc
inceput
##ug
##alul
##cul
##sit
15
prop
##arte
##rica
aceste
##ren
fil
publ
op
##una
unui
princi
##ob
nation
##mil
##sedin
pat
##ific
##one
##iti
est
et
buc
unei
apar
##ali
gre
##vi
##ert
cla
col
dec
##ctiv
maj
cult
perioada
##rept
en
gu
mun
##ator
dist
prima
repre
ec
##urilor
numele
poate
##oane
exp
cap
funct
aj
194
sta
fata
ev
cunoscut
rep
gener
sch
sale
##as
cur
astfel
erau
##use
dep
afla
contin
cent
import
lor
oc
##pi
ta
##gu
tur
limba
##ces
##iunea
##iar
drept
spre
##tin
cor
##ose
##dere
ei
pot
##of
alte
toate
##iale
localit
dez
mold
##ini
il
inv
alt
secolul
timpul
##duce
##oase
16
satul
urma
im
fo
##ict
arm
vest
lum
##oara
med
##uie
##ora
exista
organ
##cum
##ria
rez
##onom
var
##be
den
##ism
ina
cate
ind
lu
##sid
##vern
cum
##icii
##uia
gra
folos
deven
teri
##arie
art
consil
##siun
##ruct
##sion
inst
ge
10
ai
##irea
teritori
fara
##ivers
14
fin
guvern
romane
majorit
dem
urmat
speci
tri
real
camp
exe
consid
dif
ag
hr
avut
##andu
##izat
198
##iint
12
##arat
##ond
lit
##man
##easca
ant
stra
##icat
##gin
##ola
##pte
insa
##stin
196
cer
11
##gi
193
##istr
precum
primul
##bi
met
situ
##uta
trei
partea
cara
##dea
intern
term
##che
lan
##menea
##mi
famil
191
data
##cte
vor
13
pra
mari
urm
##dent
asemenea
co
siste
val
memb
195
univers
##fect
inte
##atura
##upra
biserica
inde
princip
apart
doar
##cii
##itati
##loc
ha
orasul
##care
##usi
192
##hi
activ
inter
##ime
foarte
cei
prov
peste
gru
##ograf
##icul
##ute
ales
admin
bucure
econom
munt
zona
unor
trans
punct
bar
populatie
dezvol
apoi
pla
dis
sol
mart
sco
000
##uza
##tului
##gra
inca
zi
ci
semn
fapt
sar
197
ol
##hn
conform
bucuresti
majoritatea
##oarea
km
lib
devenit
tara
imperi
##terior
conc
##ensa
##atiei
##gar
sov
##lic
##silv
unul
##urii
##ena
isi
##itatii
transilv
cri
impre
rus
denum
##ubl
ameri
##tr
cop
##ard
una
produ
##xim
##anda
ste
div
ins
cart
##tat
cl
##und
despre
##ozit
caz
desi
nici
treb
##iune
asupra
##cept
oa
##enii
##reg
alb
inclu
##bile
##erg
milit
##arsit
##tim
republ
##prin
nume
para
fac
local
##rom
##geri
##itut
disp
##ote
##dus
recensa
rid
mas
facut
soviet
##res
##arile
ep
acela
mate
##urg
##ument
orasului
sfarsit
forma
ja
res
ban
acesta
capit
sing
domn
##til
##lul
vre
ajun
decat
ia
numit
recensamant
##osi
##rect
##onia
##tei
reprezent
##cia
##unci
##rum
prez
##rei
san
##eau
cad
##ai
vale
ort
##orii
comunei
##iilor
face
##atal
prezent
##gul
##imb
##reaza
romani
indep
chiar
ade
daca
##operi
moldova
partid
##end
france
##sele
ora
lucr
port
##oan
cunoscuta
##atoare
##enia
secolului
sca
acelasi
##lui
asa
propri
avand
man
##ula
##aliz
##icip
dev
atunci
lup
romana
##ilea
##atului
##lin
direct
iul
##fic
presedin
populatia
tip
##erul
##mente
ment
##ja
##zit
viata
cons
##riva
exemp
pie
##lo
mic
ea
util
mondi
##sat
##olul
ultim
##oie
parti
##can
##omb
dat
bal
ze
##sk
dece
##ativa
ru
##uat
##arta
exist
stud
mana
##volut
it
priv
##gust
ortod
nou
##rib
##rop
##erc
diferi
public
cir
##siv
vedere
##iect
dra
national
sfarsitul
##orului
lin
plan
##ret
the
general
##urat
ret
nic
##otriva
datori
##lan
##fa
aust
magh
afl
doc
organiz
##bila
##es
aici
tarz
administr
##oasa
##pta
##antul
##je
muz
numai
acestea
confe
atat
grup
##iere
##ix
elect
ver
resedin
##atiile
mot
aceea
constru
per
is
soci
inal
det
sen
schimb
unele
inreg
clu
printre
asez
resedinta
sal
catol
impotriva
transilvania
pet
mondial
oct
celor
dezvolt
arh
nea
tru
ceea
##oca
lat
noua
scoala
putin
perm
##oni
##atilor
relig
fr
cuv
neg
##inat
alex
tarziu
jur
suc
##ila
##isti
##ble
##ni
incepand
##co
locul
minist
german
tit
europe
om
impreuna
etn
viz
##rile
bra
##iunii
niv
fiecare
locuitorilor
##ox
aproxim
compon
vol
efect
deci
august
baza
##iste
##ape
ven
cadrul
##iment
##ove
##lea
##arilor
def
datorita
serv
baz
condu
temp
apa
##aturi
brit
tele
suf
internation
em
indu
cole
fel
asta
prote
special
cul
echi
##ril
comple
##bit
respe
dum
initi
##iii
nivel
numer
pop
decembrie
aproximativ
inainte
##ian
asi
romaniei
##ver
alexand
##bor
fond
politice
judetului
190
##ss
past
transf
zile
creste
gal
aproape
##enti
actu
cuprin
satele
ada
influ
profe
##semn
cateva
##mar
anum
##antin
desf
##diul
britan
doilea
octomb
indust
centr
octombrie
iun
rev
edit
trecut
##derea
cant
post
ata
##ive
pier
teritoriul
anului
pamant
30
##rij
##alitate
##ioane
##rilor
patru
rama
scris
armata
iunie
##urit
##anul
reprez
25
decl
2002
politica
numar
##iuni
##ismul
##sor
pozit
##alia
function
regiunea
and
doi
##oarele
##telor
infiint
sti
##stig
ion
pute
rap
ocup
be
ram
miha
alta
ext
mu
insul
##mentul
martie
septe
ofici
cauza
confesion
alegeri
valea
multi
##ilen
ide
##atiun
descoperi
sistem
ara
rand
septembrie
##urt
##diu
exemplu
vechi
sur
satului
mom
rasp
stabil
##scri
noi
cin
##cet
##len
##ire
intele
amb
langa
iz
##gn
##atelor
ape
modern
inceputul
fer
##org
unite
realiz
tradit
noie
maghi
noiembrie
##oh
bun
institut
bu
marea
ianu
stan
cultura
##dem
##cu
iulie
germania
tarii
aparten
manasti
revolut
cet
alba
cas
aca
misc
astazi
ianuarie
tehn
##ricii
##dele
##cteri
stu
societ
mij
##rafata
2011
apartenenta
provin
##ima
obie
bine
##oci
persoane
##zia
189
suprafata
fre
##ich
diferite
core
li
##atorii
proble
##ural
nicola
putern
##ative
##atile
##bru
contra
utiliz
europa
##itor
april
xv
##anti
etc
sla
scol
aprilie
##stul
##meni
sus
trebuie
lip
origin
ungar
bol
vo
can
sl
mit
lucru
tin
ghe
##siunea
##ka
##der
pal
disc
ang
construct
##pisc
##ow
pict
ros
186
nascut
componenta
##ctie
por
acord
formata
##umul
dim
hot
##utat
##zii
##ismului
eng
ali
##est
##ins
##atra
##oarece
parla
##dei
jos
##ler
putea
ate
crit
propriet
inform
##ducerea
##li
moment
milioane
conv
agric
bo
bul
##itori
fl
##ieri
deoarece
contr
nat
nicolae
primit
casa
##ures
xix
civ
person
rezult
ot
##ctia
constantin
cercet
gh
sustin
republica
localitatea
##cin
moldov
##rici
liter
187
sim
document
##ctul
deose
##gine
za
##itul
bog
##ctor
inch
reprezinta
##eratura
##ck
ser
struct
##umat
##sei
##siune
pract
##onul
faptul
materi
ioan
stil
##oaste
respectiv
numeroase
##rate
numarul
arg
dus
##bel
trat
##gerea
folosit
##aniei
##bat
##vit
locale
cluj
##oana
##cta
bel
188
recensamantul
##var
importante
stef
intal
##mna
milen
##arh
alexandru
bisericii
##rele
oameni
consider
##ierea
ordin
membru
prom
21
od
##oria
recun
##esti
##umente
on
##50
poe
##stra
22
ple
olt
autorit
23
lista
mica
mention
acestei
primar
##bruarie
tine
##elor
posi
caracteri
condit
pod
lupta
februarie
proce
inve
##mei
presedinte
progra
superi
primele
proiect
inregist
ramas
iv
cere
echipa
he
franta
100
format
##nic
simp
vla
##eaua
##enul
##ologie
imb
ren
europ
engle
importanta
consiliul
neces
##elui
apare
supra
mici
24
transp
centrul
considera
vic
obtin
##sch
democ
lungul
##ptat
constit
anim
artist
mijloc
##rog
abs
castig
conte
minorit
##cra
184
alegerile
statului
particip
##lia
denumirea
academ
sot
domeni
arhite
pun
armate
fot
##erit
##itat
##alului
ulterior
pen
muntenia
lar
##atiilor
prelu
##jul
##pet
trupe
inta
##ros
cladi
medie
dan
aer
asig
muzica
prem
film
##dine
capitala
episc
totusi
##selor
##olo
aparut
social
important
##init
obs
timis
sai
##indu
colon
##rim
##pale
fron
##arului
compus
iasi
##ue
fort
tan
##ung
##artea
teat
##dic
##odata
stefan
liber
paris
sprij
lume
##anii
dintr
##iva
even
aprop
noa
reus
afir
##inei
pas
istoria
circa
luat
ka
cinci
ortodox
jurul
dun
prof
##utul
lung
viet
determ
nationala
##car
##ont
alaturi
teren
succes
##arit
##ens
mileniul
mor
##olit
nev
moartea
##ris
une
##ologice
urmare
germana
27
tatal
##lal
tari
##icei
50
aceeasi
ie
impart
execut
##entele
28
natura
ima
##etul
cru
tex
##ologia
ortodoc
2004
independ
br
ero
arta
##onst
ajut
ident
polone
principal
##les
##atat
carti
drum
radi
resp
van
guvernul
acestuia
jumat
serie
##cident
arhitect
juc
##usa
##ful
recensamantului
gran
joc
acum
religi
preot
##unda
statele
batal
distru
##20
orient
evre
situat
formula
bas
petre
##ton
##sec
ortodocsi
politic
razboiului
##orghe
##sea
rol
##uti
proba
iii
orice
##dat
desfas
trece
lemn
nr
##ual
cuce
dob
regele
intro
anterior
vech
##las
##del
barb
raul
dina
um
ber
bat
simb
diver
jo
##bal
municip
ajuns
amp
cra
ari
fiz
##fici
##stat
oamen
gheorghe
26
devine
##siuni
regim
principale
mag
acestui
vin
apartin
ridica
singur
odata
##ke
##diat
##ou
carol
##eze
asoci
vari
##atorul
2005
gl
##urata
functie
acce
##alitatea
##iaza
populatiei
industri
pan
##seste
sistemul
##tine
cazul
##rig
##ski
##mis
piatra
bibl
gar
fiul
credin
##ub
partidului
parlament
fra
incer
##orma
jap
inclusiv
opera
ucra
printr
contrib
##entei
##ed
##vale
oper
vrem
trib
##ki
victori
185
muze
fab
##uita
##uirea
##anesti
##bra
ing
europene
##son
##stine
corp
eg
artic
##dul
casatori
puteri
energ
cod
nationale
2006
partide
vreme
geor
rusia
new
##zie
##ortul
40
duce
probabil
##vent
##ional
##intele
mures
biserici
2016
opt
##oar
##rata
interpre
top
##cle
sect
##lav
tut
efectuat
2000
secole
comunist
spati
monument
subst
##ume
1990
es
obicei
raului
dia
th
##erului
##scul
##vers
##rent
otom
sep
interv
acel
##bia
incepe
romanesti
har
constitut
pur
curt
##viz
ro
spi
absol
interes
razboiul
epoca
afara
numita
##ifica
##orilor
cola
mal
aveau
29
sate
uniunea
plat
imperiul
reform
##itorul
urmatoarea
naste
polonia
##iului
construit
considerat
##30
maria
vot
initial
facea
##nit
sin
ope
alcat
##ges
mos
proc
democrat
##urala
mem
istorice
##rice
turn
##iunile
varsta
preci
##istrat
obl
edu
##upa
ni
##zut
hid
unii
cost
etnica
familia
dove
turi
pove
##itatile
oficial
##urs
aflat
dor
luna
ten
orase
masa
condus
##10
##cului
unit
sos
mihai
universitatea
arhe
ras
partidul
capa
copii
##anului
legatura
intrea
2007
ciu
imperiului
scrie
comit
posibil
extin
ministru
zid
ado
inloc
dol
mir
##stre
cit
wil
##rita
sase
acestia
marii
uniunii
zon
comer
functia
##oniei
##sile
romaneasca
reusit
statul
civil
amen
sovietica
international
frec
cro
transform
so
sold
##ologic
deschi
##stit
localitate
##oma
sovietice
obiectiv
experi
stap
confesional
franceza
episcop
##lica
prezenta
xx
extre
lumea
drag
pus
del
##bii
observ
##cel
##imea
2008
curs
americ
dn
toti
raion
intreaga
sig
##ipl
##bul
comb
##burg
adun
centru
italia
##scute
inscri
cam
itali
izv
pred
adu
sh
ziua
armatei
continu
ti
gaz
mus
militare
inalt
murit
##inul
##stica
medic
acestor
imparat
regatul
deal
pare
primarul
piata
##landa
##erna
##sia
localitatii
constr
buna
exa
vietii
##itudin
##untat
jumatate
##run
scur
##ok
##cand
continua
existenta
crestin
##zand
elemente
prea
chim
##enilor
veche
fuse
##omin
aur
ridic
##sm
##ph
fav
sala
celui
venit
##cau
##ex
1989
administrat
comis
singura
##60
origine
feder
diviz
toata
total
influenta
george
consiliu
presedintele
##orie
##antului
simbol
##imente
intreg
##urn
cong
indi
priet
elib
buza
60
gor
austria
spune
detin
##lat
roma
oblig
istoric
munca
stal
acestora
animale
aplic
##oiev
structura
frum
potri
declarat
dru
##uale
stiint
ocupa
definit
facult
fen
proces
literatura
folose
nor
publicat
31
dezvoltarea
anilor
che
produs
monumente
invata
domeniul
deb
##stic
##uma
romano
nec
centrala
exc
compozit
american
inregistr
##mele
##lalte
activitatea
uci
nucle
cine
urmatoarele
bot
remar
##isn
impar
publica
##mt
##rins
aparit
not
##ionale
adica
log
sport
cetat
particul
##uala
##gere
coresp
titlul
pom
retra
##ilia
1950
cante
##reaca
parc
nap
##80
##ursul
pres
##itudine
ech
##don
poet
meto
sil
je
##ace
poarta
consilieri
vas
##mos
##neze
1968
##omet
masura
cuprinde
gol
##zon
##sco
##entia
plasa
complex
sex
preg
##itoare
gro
##ciei
gand
confesionala
semnific
except
bor
##ry
##land
secret
distanta
vlad
##ctele
inva
copil
80
republicii
##mit
##ter
indiv
coa
luni
##40
atac
lice
obtine
sua
##osof
engleza
calcul
##ya
anga
##90
comand
regelui
##eren
pad
occident
mort
prezinta
##70
##oscut
categ
situata
azi
motiv
iu
succe
mama
uneori
##izarea
puterea
##orta
urb
clas
nep
##uzat
persona
dumneze
bras
distri
ung
incat
##get
metal
transport
petru
acolo
independenta
castigat
maghiara
##ateaza
mediu
insula
manif
##isa
ambele
##sii
libert
feme
##lam
insemn
##rarea
filosof
interi
##ans
##oli
sef
intra
conta
183
adus
continuat
##erme
##cesti
raspun
arges
adevar
##cilor
campion
central
publice
dreptul
maxim
##pei
amint
tro
##venit
asc
mel
180
vite
sib
agricult
##reapta
acoperi
catolici
##matica
ime
drumul
##met
diverse
intrat
ungaria
##anci
ph
##sesc
egi
##ger
##stii
##izare
forta
vara
nav
her
deja
basara
moldovei
##uror
ran
cunoaste
##cup
scadere
##vat
2010
##rasera
judete
vit
##bo
gi
##ino
alti
malul
privind
muntii
efe
##ect
conducerea
specii
aspe
semnat
militar
economice
70
##uite
##asa
putere
cana
##zat
familie
state
##zare
##sera
##ere
limbi
##ensi
oltenia
vers
ului
ef
##vet
stand
domin
chi
##ghel
profesor
##escu
europeana
clasa
##gia
comune
##cuprins
voc
tuturor
mat
creat
##zul
##ral
faracuprins
1918
concent
zone
statelor
##urarea
mosc
germane
cos
##endent
construita
scurt
flu
fortele
##lande
randul
geograf
1940
ajutorul
us
accept
vasile
istorie
dumnezeu
rot
##bili
##imp
anti
mand
vict
inregistrasera
brasov
##iana
arata
obtinut
altele
specif
psi
case
germani
lucrari
##rael
##istii
##wa
pron
termenul
concept
##cent
realizat
deza
181
2009
##melor
##opol
cresterea
atrib
##oanele
organizat
500
##rului
##let
son
oca
egipt
colabor
puternic
##stina
tat
incon
oamenii
cot
2003
folosi
fund
lov
rob
sara
norm
ter
ultima
carb
adesea
economica
ip
locuri
paul
sarb
raspand
putut
conserv
atest
##stice
##intei
cron
foc
biz
##lend
##cl
voiev
integ
destin
celelalte
pierd
most
sea
##su
membri
john
ridicat
##erii
obisn
##mentele
90
##em
guvernului
familiei
##cie
prot
principala
intamp
comerci
rein
##deri
folosite
israel
inaint
lo
conducat
nivelul
revista
potrivit
padu
sfantul
tron
vul
acesteia
vii
##alele
##spir
ultimul
hom
##ork
##ionala
popular
ir
desfiint
##veste
ier
##eamna
extrem
apropi
date
##stea
timisoara
pret
rezist
caract
lansat
album
raport
sapta
contine
formeaza
existat
ciuda
simil
crescut
complet
##atis
atra
bulgar
2001
descoperit
##reasca
evid
##sel
we
##den
nim
##ducere
eta
bene
restul
lumii
tul
desp
clasi
##stei
##ill
bla
francez
bloc
ri
dj
##unea
termin
##pat
##hova
numara
inseamna
ben
rest
european
##sului
35
ajunge
##erne
interpret
administrata
##aj
##lei
anumite
declar
177
modific
vir
dimen
evolut
seri
profes
hel
##alt
inchis
##ordon
manastirea
ruse
referi
##bita
calend
##ota
tarile
##mon
evrei
rusa
##opul
rolul
mecan
xviii
distin
secolele
##stiv
calea
##con
lans
##spre
spirit
militara
1944
bur
bibli
curtea
sustine
fenom
don
dipl
pref
limbii
control
juri
noul
fier
regiune
mone
margin
incerc
mircea
##vel
cultural
program
fusese
sociale
##uni
resta
dezvoltat
stabilit
45
intin
##atorilor
familii
##gen
gasit
1991
nordul
gas
circul
marele
cump
sever
rege
relativ
ed
studii
ox
televiz
##oaie
182
mihail
##inescu
ramane
servici
dreapta
##ors
##isl
aface
spani
scopul
imagin
braz
psih
##osp
leaga
metri
cuvantul
mara
##dec
angaj
fact
diferen
infiintat
constituie
bist
sucea
plus
reda
hal
##form
##mite
participat
##ozof
greaca
cale
internationale
ungariei
cartea
##berg
##onim
romanesc
crestere
sudul
##ovita
demonst
##fi
tinut
##unta
securit
minoritate
soseaua
mijlocul
stran
bacau
cunoscute
promov
buzau
##ili
##alen
##reze
arhitectura
viena
filozof
##bire
presup
##stru
financi
politici
lond
1999
practic
explo
trimis
manu
papa
intreprin
desch
kar
natiun
##ann
##inele
##ced
cuvinte
hen
pil
incercat
suceava
intoar
greco
lic
locuitorii
momentul
educat
departe
diale
sapte
invatamant
stiinta
totala
voievod
##aria
municipiul
scop
timpului
##nita
regul
legisl
munte
##lus
lac
continent
dict
depre
actual
##uga
##anc
primului
comanda
interme
mii
stalin
prime
mont
##iel
universit
fal
portug
culturii
plante
europei
bran
##antii
1992
latina
calitate
partici
pale
##hor
1925
frantei
##stel
transilvaniei
##val
##go
festiv
devenind
cetatea
chine
faca
cursul
##anilor
grig
premi
179
##ster
##rian
neamt
universitatii
influent
batalia
##sie
##imi
premiul
anume
spania
forme
elvet
berlin
##dia
##resul
damb
ordinul
radio
##entii
grad
1930
sens
constanta
vestul
dateaza
##erva
academiei
300
sof
##ctiva
##au
aparitia
legea
##ionat
prahova
##rut
lucrarile
separ
punctul
##anghel
meta
temperatura
altor
##dica
piesa
extra
az
##19
##ical
##mana
##do
##ctii
calug
munc
dezvoltare
fotbal
franci
##ovici
recunoscut
calatori
electron
##rati
##cata
imediat
##vo
estul
gaseste
autonom
folosita
intru
abia
las
1945
capac
##ciu
32
##riei
afect
##ise
ocupat
go
##cina
carui
##leg
##ock
##oamna
problema
##jului
valcea
trupele
##ologica
##imit
instru
generalul
perman
inconj
final
societatii
catolica
principalele
mode
##aru
pune
##relor
##unde
atom
bron
soare
1996
slu
actuala
americii
ana
##uieste
bro
2012
departa
hit
##mani
aliment
conda
compet
pose
xvi
##orat
radu
far
178
lumina
##bu
expre
scul
##alitatii
pierdut
##rare
##omat
cated
##icilor
depa
judet
america
obiecte
informatii
stanga
conce
element
inche
bibliote
membrii
practica
materiale
funda
##vara
valori
cic
##lele
aseman
sun
plane
aci
oce
produse
bucov
anglia
##rid
procesul
targu
1998
persoana
stare
##idu
##irii
arad
er
##sd
##yn
administrativ
york
##erinta
magn
lei
##ier
superior
norve
iarna
grupul
inferi
##ande
naturale
targ
insusi
afirma
dumit
##ozitie
usor
1948
corn
numeste
adev
supre
pozitia
maghiari
agricultura
considerata
zonele
##zilor
modul
termen
##alitati
trebuia
industria
scoli
contemp
ortodoxa
##anie
apartine
media
##zei
##uire
oficiala
redu
compar
descrie
nevo
slova
som
cup
##vire
relie
puncte
inchi
urmeaza
japone
banat
##bur
##erarea
pere
150
religioase
cavale
controlul
ax
##des
sibiu
tig
##samb
revol
stele
fir
invat
##alog
regiunii
##oace
aflata
culturale
fiica
ideea
editura
estim
xvii
hune
##rist
##derii
manifest
rena
##dan
rapid
pace
discut
destul
dific
timpuri
vremea
cari
got
##gand
##ong
consiliului
mine
33
jurn
infran
muzeul
sediul
frun
repe
stea
##hel
consemn
cuceri
niciodata
rusiei
##zar
multor
moderne
sustinut
##har
implic
obiect
##gini
die
##inii
linia
##secole
huned
coleg
sistemului
ling
evenimente
##cate
probleme
romanilor
instal
bru
##rale
ela
carte
provincia
##ction
localitati
director
condamn
litu
literara
strat
apre
meri
##itorului
##ocat
patri
front
model
lucrat
alfa
##ificat
economic
pastrat
scurta
lid
spit
1941
altii
seama
revolution
36
##no
##uiesc
emi
uz
##erare
expri
uri
doctor
monarh
germaniei
regiuni
tun
provine
lud
##gare
accent
parint
apropierea
ofit
##her
scolii
1997
flori
exclu
gosp
inm
1920
ue
##nia
teoria
nastere
##siunii
miscarea
sluj
travers
##ham
asigura
##etului
contempor
bre
##mentului
club
sine
naz
hotar
ansamb
##aliza
condusa
frag
sculpt
##olen
distrib
##rala
##ko
##pele
sotia
granita
studi
len
uman
meci
resur
sanat
##iri
desemn
##mo
scriitori
mig
solut
legate
termina
batran
fla
ore
##stini
coasta
scot
celul
standard
adopt
imparatul
##ho
##itei
strate
1960
valoare
vaslui
deschis
gospod
sy
##inge
legat
societatea
revi
char
1970
land
##deal
##umb
inchei
1980
maghiar
apropiere
sac
treilea
invent
##nice
permite
scrisa
##istica
fig
1994
careia
clasific
refle
adaug
exploat
97
##alii
temperat
lungime
morm
##isul
ofera
37
revenit
antre
lipsa
##roc
##ell
sursa
176
1995
##atorului
95
##ff
pasa
severin
kil
poloniei
reprezentat
capt
hart
##anca
neagra
izb
priveste
servicii
grecia
stiinte
inspir
##sive
##onescu
lucrarea
hunedoara
vine
##istul
mitrop
han
propriu
tratatul
populare
sfint
##ctive
inalta
intelect
rusi
##col
##dar
##fon
spus
##izi
ferata
invecin
basarab
prog
urss
##ifice
celeb
carp
autoritatile
mut
sul
mentionat
##oul
emis
bune
generala
##alizarea
omului
poporului
##urate
vars
jucat
prep
##itele
lunga
##ronom
economia
externe
##piului
##iat
ceh
##siunile
rezultat
participa
gasesc
situatia
piese
revolutia
remarca
grigore
##gori
##kov
##ev
deas
ost
von
evanghel
##grad
combin
bote
tras
vice
##iau
##istilor
##itudinea
pru
tu
vec
rezol
intoarce
dambovita
cativa
##bilitatea
bronz
##ius
teore
existau
deasupra
tera
##rand
cab
##sip
candid
efectu
puternica
°c
##ms
aerop
gri
populara
umane
incre
legen
filmul
totodata
2014
liv
intai
##antei
moscova
##qu
munici
elim
refug
singurul
credinta
##ano
fratele
razboaie
fundament
##mir
##xe
##omp
larga
dane
activitate
calendarului
galati
##izate
##ologiei
determin
glob
bistrita
cerut
##fera
pictura
arheologice
##mica
exerc
jose
scena
##deauna
larg
romanii
regatului
intermediul
##iza
38
96
paroh
lut
brazilia
##enirea
limita
strada
34
arte
china
rosie
foloseste
durata
veri
##decenii
oara
maram
medit
caruia
400
deosebire
chel
musul
lovit
##ero
##eric
comunic
conditii
##erata
hip
##licat
##rina
primii
##aliste
permis
interiorul
vezi
adoptat
mac
cunost
casatorit
unitati
leadecenii
confir
zece
sociala
traie
1919
cariera
treia
infiintata
campia
75
cai
sem
contro
##och
franceze
celei
aiba
##sev
vorbit
##hal
sez
ent
deveni
londra
clim
palatul
volum
protest
fizica
chis
victoria
aste
##lict
frecvent
consta
documente
constructia
intitul
stati
romanul
locu
1993
crist
##mes
conflict
##alizare
revolutiei
eveniment
noastre
facultatea
ial
##lement
nobil
manastirii
hol
specta
willia
botos
articole
##rete
##eria
regula
nomin
##ang
##oiesti
lingv
produce
privire
##igh
argint
nevoie
canta
tere
stabile
grupuri
energie
chit
boie
dealul
cris
petr
stapani
compania
pamantului
miliar
##ys
conditiile
##onsa
neut
anex
##onului
rau
numite
individu
carei
##alei
asia
##icului
##odor
dinast
peric
otoman
##uci
finlanda
descri
##erciale
teatrul
##oaca
aflate
42
dese
africa
scriitor
albumul
tv
##zece
facute
adanc
tabl
obisnuit
comerciale
piet
1938
melod
lite
39
schimbat
raionul
rit
slav
literare
recunoaste
elevi
faptului
doct
raspuns
mol
##izata
##etic
atmos
imparatului
2013
moderna
mutat
vide
buda
bos
scrise
##oza
utilizat
volumul
crearea
primavara
sprijin
traian
camera
conflic
indepart
tipuri
britanie
graf
##tica
##rich
1939
altfel
imbun
contribut
povesti
incor
##tic
1956
asezari
domnului
##ovic
paci
##meste
##terioare
negru
natural
dunare
dunarii
bala
acces
spec
km²
parlamentul
1952
stilul
studiile
flore
memori
ziar
##ular
actiune
incal
consti
nordica
linie
alfab
##entie
curen
administrativa
iug
##siva
vorb
##lit
lunca
mer
strabat
districtul
bug
presa
preluc
vand
##resti
interne
zilele
##mer
##cas
##ovia
femei
ultimii
##ban
specifice
##inau
caracter
responsa
##insul
cauz
denumit
sent
##van
let
turne
orasele
municipiului
toamna
tren
violen
hidrog
cerea
rada
gradin
arist
competit
pici
##th
##oj
comert
##unerea
deosebit
arme
##ptea
britanic
cetate
mix
##raj
dobrog
##lung
subiect
teritoriu
literar
efort
##lare
cha
dav
rezerv
cioc
domniei
teatru
cob
##delor
##ney
gura
##ografia
clar
rosu
##line
major
sigur
1900
productia
profesion
vis
preve
veget
introdus
proven
asezare
48
##gon
##arca
ach
##gara
##15
intors
##olf
##bilitate
explic
sovietic
fortific
strateg
##ficat
istoriei
eva
leon
originea
43
##organ
nem
internet
47
vazut
sfantului
internationala
decis
##ential
##ghi
opin
inlocuit
les
pap
catolic
acordat
napole
omul
##uze
acuz
##bs
##nici
lacul
austro
deri
limbile
agricole
1848
gene
##stele
viteza
44
contex
##rel
soldati
men
##etica
2015
acele
serbia
fun
##urare
relatiile
tab
sit
##tice
##vil
##viet
peninsul
caut
rezistenta
coordon
##ografie
##ope
lunii
proport
160
include
metoda
viii
superioara
valoarea
impa
fortelor
folosind
xiii
altern
vorbe
intrucat
raman
os
tem
precip
raionului
liceul
exceptia
formarea
statut
120
##lant
##ico
directia
cca
merc
aband
supraviet
fostul
expe
astronom
bara
xiv
rece
star
##matic
producat
apartinand
sinte
scara
ridicata
sele
fiu
cazuri
dispar
exil
suferit
aeri
ameste
casti
romi
folosirea
sue
sensul
folosesc
refuzat
caracteriz
##arasi
refera
intaln
##11
##erate
galb
fabrica
##so
ceva
action
antic
ucraina
pope
lege
##imitir
##orda
##nes
miscare
oamenilor
trata
##carea
facand
credinci
asezat
preluat
continuare
cimitir
nimic
incheiat
maramures
ese
greu
##vin
rac
secund
##to
##sin
##ley
varf
1917
puterii
jean
##ly
reconst
religie
andrei
tehnica
ortodoxe
gim
emig
interbel
minoritati
55
red
alat
declan
cultiv
cetatii
vran
wa
##ida
voda
##otul
televiziune
hitler
mesa
gregori
institutul
gorj
izbuc
cif
##fica
##urul
##ificarea
aparare
##icu
##ierii
moarte
americane
##zile
functioneaza
##jele
##sci
cuvant
spatiu
##oga
constituit
niste
cape
##ozitia
kilomet
gale
##aliei
ilu
ultimele
determinat
600
pon
##lau
intrarea
coop
crai
##ky
##ormant
institutii
##stein
puteau
sufici
ialom
aceluia
mosten
##ratie
prieten
dinspre
##ctiei
autorul
bolsev
district
##eli
##oaia
simplu
regimului
##nica
##xa
##entul
autori
##osex
perfect
primeste
##lig
nota
tud
ipote
##desti
##uren
inscript
cen
tom
##imentele
culoare
##po
scen
cladirea
amenint
fant
##que
apost
anual
olimp
parale
##ghe
##ld
sute
##icale
comporta
46
##erile
insot
construite
cinemat
aceluiasi
bani
##itatilor
statutul
centrale
anton
inmormant
##atiuni
material
##unul
rapi
caror
planul
critica
miliarde
rich
usc
##oarelor
1931
##cani
##retul
##orf
epis
apei
robert
mc
miner
pozitie
bet
flor
##itata
vedea
literat
victor
##ovei
comunele
regina
##uro
arun
incluse
purt
##neste
sufle
inregistrat
rata
conduce
marturi
##alizata
studiul
gimna
bihor
independent
articol
dolari
vala
tor
satu
burg
anuntat
##ziei
##oslav
pregati
inaintea
modelul
##entiale
denumita
apele
plecat
65
aduce
##uca
muntilor
surse
zonei
mediter
chisinau
teza
actiuni
campul
##inatate
judeteana
riv
tal
documentara
obiective
elabor
##venta
domeniu
sprijinul
monumentelor
fete
autom
constantinopol
##lului
lupte
##uf
##unz
nasa
bulgaria
inclus
motive
49
##oiu
##opera
multa
cucerit
reint
finala
imperiu
devina
##ner
##sen
suver
relatii
publicata
contribuit
dumitru
mm
##umit
ofic
prezid
##curi
ploiesti
decor
98
##zarea
##iev
armen
corpul
##uiasca
productie
insulele
chelt
non
permit
ix
##dicat
##iecte
comunitatea
interz
##com
unitate
org
text
ocazia
pic
regiunile
##dice
gara
investit
comuniste
schim
evol
retele
facuta
prezentat
ian
##umentele
dac
interse
linii
relief
##itare
##itorii
gradul
considerate
japonia
expedit
dub
mentine
gregorian
##nesc
qu
cast
##ish
deport
puternice
sant
##ilib
sam
jack
micro
construirea
exact
furn
nost
unirea
organizarea
regimul
sum
##cuta
tendin
##icala
##eti
alianta
rasarit
fenomen
carora
##ozia
verde
hotarat
arb
judecat
spatiul
fon
came
maced
stiintifice
##sesti
patrim
islam
postul
elvetia
culturala
sezon
sued
##sac
170
teritoriile
exce
##landei
xi
##imir
constructii
iosi
ordine
majoritate
republic
##ington
reforma
94
cle
##istea
super
documentar
atestare
biblioteca
52
pit
##gaz
istorica
##arite
##iesti
mong
catolice
miscarii
iesi
impie
avan
exprim
1964
##stian
slov
dimit
rock
curent
##alizate
58
##ft
##reau
##ariu
filme
liga
expl
secretar
efici
estica
jurnal
fondat
simt
64
propa
marginea
dea
izol
adevarat
mad
fosta
protej
precipitatii
##antele
cursurile
##ide
##arele
masiv
##enesti
##atiunea
studiat
##iasca
braila
necesare
diz
imprum
biro
1947
ilie
consum
pr
##hedin
inaug
umb
mascul
locala
plas
constructie
afirm
reci
vorba
congres
##ram
acumul
constitu
specific
componente
critic
##nei
adre
marin
criza
ho
1946
proiectul
##ks
##uzia
1949
personal
procla
unitatea
1981
religioasa
auto
##otel
adauga
dovedit
mehedin
publicate
austr
pamantul
tema
varianta
lap
clima
ministrul
bud
ke
cli
austrie
##istic
cera
rare
##zele
##inga
der
trait
suprafe
cova
gaze
iosif
amenaj
tudor
dr
##izeaza
elev
cladiri
botosani
sper
spun
marelui
maxima
medi
formul
##ocup
imprej
determina
41
generale
hidro
kilometri
india
totul
referit
cruci
varful
53
##ust
##ald
numelui
##iunilor
introdu
comercial
napoleon
abandon
85
ordon
britanice
inalte
padure
ludovic
consec
localitatile
lucrare
pastreaza
indic
parasit
rosii
caste
oferit
guverna
800
opere
urmator
1914
gla
##izit
##otdeauna
electric
##giu
##stici
conclu
studiu
afaceri
william
##imul
analiza
treptat
##olecul
cercetare
##ber
constant
##ibile
nel
##loace
fasc
autor
mijloace
liberal
impartit
carbon
securitate
xii
##gina
##zeci
cresc
patriarh
nar
##poi
##cer
##antilor
reprezenta
cf
max
desen
finlande
utilizarea
slab
tatalui
scand
trimi
matemat
defin
dolj
acceptat
steaua
##eter
poiana
mona
##ologii
1921
activitati
##ilenii
posibilitatea
contact
oficiale
emil
sor
sav
##nesti
realizate
bil
lua
cartierul
##lova
##milenii
lasat
parten
aflu
aspect
##ocii
##istice
incar
scazut
prefect
meste
leasecole
retras
rut
actiunea
detine
favoarea
insi
##oveanu
indica
##ensiva
bizantin
insta
##rov
regiz
1977
ib
##uiau
##ografice
antren
##entic
##imii
##oti
echipei
crea
femin
cantare
coc
stie
legi
impresion
negoc
suede
boi
crestine
arest
##eneg
1910
ingrij
700
alp
sezonul
##kt
##rad
trebuit
descoperite
vrancea
reun
##cs
sap
##ician
marcat
##unere
prab
1974
salaj
ialomita
##ker
trecerea
barbati
sult
##inesti
marit
140
asezarea
indeplin
was
mediul
inam
iulia
loui
56
##lini
ziarul
##ratia
episcopul
greut
1975
observa
93
main
acesti
metrop
dig
academia
purta
parcursul
och
evul
variet
grav
comunitatii
elena
realizarea
88
infl
functii
litere
starea
partial
grupului
54
reuse
urme
dens
perform
gala
stang
intalnit
peisa
elisa
ministerul
desfasoara
david
justit
171
perioade
evolutia
dure
tradu
ampla
##anga
valen
pierde
##25
##dinand
reteaua
63
##ju
modele
caras
medicina
apus
##intelor
net
##cal
##ilal
1933
##sita
trase
deput
altitudine
reprezentata
urban
##dis
acelea
multip
propria
baia
drepturile
straine
contract
parlamentului
diplomat
vede
respect
echiv
##tina
##urb
faim
tempor
afirmat
experiment
charles
harta
##zuta
##atic
##inica
faza
ferdinand
realizata
muntele
1965
dimitrie
propus
flo
##ational
casei
clop
matematica
desfasurat
bomb
##osul
putine
legii
moara
173
inteme
89
spect
autob
intere
bl
##han
degra
sisteme
paduri
##orile
175
1985
capital
dimensiuni
dator
##sche
fiinta
crime
maghiare
nisip
presupune
iugoslav
##we
calif
intalni
parcul
volume
italiana
##iss
sina
terminat
latin
petrecut
dorinta
detinut
soarelui
aratat
domenii
asist
presedintelui
alcatuita
##ux
##hia
dezvolta
57
##ome
marile
invatat
trebui
libertatea
giurg
molecul
habs
purtat
animalelor
dobrogea
infra
sudica
student
realizeaza
preotul
mani
adres
record
negre
sectorul
##onic
tes
86
ofer
1916
##ling
deleg
predomin
##seasca
nov
formate
frank
vestica
1972
bucovina
ah
##tel
imbunat
tub
adrian
indrept
cheltui
##nea
##ware
##dep
trupelor
inaltime
concep
##cob
##chen
1922
muzical
edi
toc
preocup
avanta
compusa
##beta
budape
intotdeauna
greci
sarbatori
vulcan
regale
orche
teritorii
bizant
##ionare
explica
acasa
ucrain
literaturii
apara
##tiera
traditia
serviciul
tr
vatra
##inare
1936
##secut
1937
concer
arhie
campie
1971
masina
angl
77
78
##hicul
dezb
mond
privile
castelul
seful
##urale
antich
solic
naturala
io
1973
bazele
amplas
cern
##mburg
oferi
datand
ucis
norvegia
51
vil
##alizat
reorgan
principalul
elector
echilib
exprima
pont
##uraj
oradea
infiintarea
pregat
159
155
turc
libera
canada
62
pc
##zute
##by
stri
##ificare
reprezentand
functionau
experienta
retea
99
##tii
##fal
##cht
##eratiei
curand
invecineaza
sir
incearca
1969
autoritatea
alcatuit
##fov
##ji
interior
asim
grecesti
1986
inaltim
problemele
68
abord
principe
ajungand
mitropol
petrol
patrun
frontiera
cm
##zo
anat
suge
recom
##uth
calarasi
1924
nasaud
##inului
##ghita
arhiepisc
ior
##ek
reven
americana
napoca
apropiat
67
69
92
##atice
##ramul
pesc
intreb
1984
##deau
epocii
live
teori
tranzit
grade
administrative
inscris
fug
subl
##feren
colectiv
utilizate
init
sfanta
forte
rezultatul
craiova
##fiint
##pere
lumin
1988
slob
trad
##ografica
repede
rar
wal
west
##terioara
concurs
remarcat
##reu
susp
tratat
consemneaza
deseori
130
teleorm
zilei
asemanatoare
speciale
bri
vie
##xic
decenii
frate
joh
hor
relu
stej
industriale
extins
##atica
##odul
necesar
adunarea
76
transformat
jan
##dului
1942
turci
teritoriului
1967
mentin
monumentul
##ater
##orth
noii
incad
traditional
suma
##vita
##scrie
nein
navig
cert
##atiune
##etice
1979
reinfiint
##rus
exemple
bazeaza
vechiul
crisana
##colo
##ieze
capat
proprietatea
bob
ceilal
##itelor
eroilor
homosex
79
oare
proprii
deplas
deschisa
padurea
ceilalti
##vala
##bri
deva
1987
voturi
atmosfera
1966
saptamani
72
mie
stral
tineri
lenin
sora
##ctare
copiii
programul
59
intens
bogata
sind
fix
1935
habsburg
but
##uarul
##mai
##oslova
campionatul
degraba
tol
saint
perspe
strainatate
traditionale
versuri
74
cerna
##dura
atentia
personaje
66
albe
filip
ilfov
inapoi
1912
exclusiv
danemar
##ford
##oreaza
##ordin
1932
metro
vechea
cehoslova
##stilor
1943
distrus
mortii
magaz
ajutor
judetean
##pro
##gor
##ciun
ecu
georg
includ
vicepre
provoc
francisc
apreci
repro
existente
substant
chitara
mala
vita
seria
salv
naturii
administratia
ilust
coroana
urmatoare
necesara
particular
ine
##sese
negust
bapt
situatie
maest
accident
174
ruga
atacat
polonezi
gr
##rag
sto
renaste
budapesta
hramul
sax
recent
evreilor
imn
##am
##zer
inclusa
dispozit
comitatul
##ateasca
intelig
adapt
ivan
suprem
gospodarii
varia
achizit
87
##io
##arm
intent
1976
##smul
sclav
##bes
1934
poloneza
sm
deceni
finant
traiesc
capul
##nav
trupa
corpului
intinde
giurgiu
1958
constitutia
##gy
##ctic
intreru
dacia
franco
mov
##itarea
rasco
crestina
fan
branc
ferm
vant
##urele
elementele
aminte
tronul
artei
crestini
istoricul
civile
separat
stiintifica
zbor
peninsula
ger
##post
stadi
110
vremii
##mului
##seud
##schi
trec
cred
marc
masini
##oanei
faceau
regala
1923
stapan
catedrala
91
cezar
nicio
editie
spiri
congresul
ct
preva
legata
ajuta
mentioneaza
italiei
superioare
corespunz
femeie
influentat
73
noului
marime
1961
##istrului
inchisoare
##tt
caci
confr
1929
##isp
descris
dn2
nave
cladire
thom
definitiv
spaniola
iern
rod
atlant
companii
ajutat
luci
economiei
corespond
natiunilor
richard
lot
og
tib
##ieni
##olid
cuza
arma
supl
vladimir
manife
adresa
84
pn
##hul
##ize
##anescu
ceause
drepturi
1983
1982
1913
sange
mitologia
bogdan
82
formatiei
169
versiune
comisia
portughe
##dy
sad
agre
evidenta
iancu
145
federal
##ies
lungi
grele
civiliz
wash
sha
##dict
dincolo
##tale
##isme
redact
revolta
lucreaza
invins
##ierele
turnul
favori
paralel
sic
aprob
initiativa
andre
filmului
pilot
152
james
absolvit
siguranta
dizol
83
ramn
##ationale
artisti
copa
##ografic
comandant
plea
mah
patrul
teritoriale
1926
1928
cazut
impartita
##luri
crede
masuri
ic
traiau
##ska
fondata
scrisoare
tanar
drumuri
ceausescu
##ny
##pol
testa
formatia
electrica
##uizare
mondiala
societate
noastra
cucerirea
mondiale
##uind
infect
altul
##oresti
diferenta
parintii
castiga
bate
##idi
##oru
avans
marx
ferov
desfiintata
cata
proiecte
romei
intemei
vicepresedin
moare
sz
##easa
economie
accepta
manuscri
##ouri
mam
poezie
primei
realitate
1953
ambasa
noaptea
moneda
dot
##ps
comunista
sfant
agent
dezvoltarii
religia
posibila
polonez
aceleasi
##dam
variaza
anumita
ramura
condamnat
fru
##oten
##cam
minute
156
venet
surprin
elimin
cimitirul
pseud
##ase
##umin
coment
poetul
##ionarea
1957
##gerii
frontul
evenimentele
fabric
cantece
portugalia
vid
##elul
imig
coalit
umana
despart
washington
psd
unica
politicii
149
declara
apararea
demis
financiare
angliei
ebra
los
sand
redus
##ficarea
eminescu
specifica
australia
##ratii
172
165
luca
sarcina
popescu
proclamat
##enticost
gros
mele
penticost
##mbig
formele
opus
provincie
deosebita
saptamana
similar
inlat
deca
##struct
incet
actiunile
1962
153
bazat
mosia
fluv
dezambig
echivalen
rug
create
persoanele
renum
suprave
ampl
joaca
bazata
dezambiguizare
talen
##ulta
##retului
privinta
interbelica
##uirii
prece
trimite
martin
##endenta
web
capacitatea
vederea
advers
mobil
urmand
1955
matei
premiu
61
tone
##cec
##reni
debut
##ude
1978
##tia
eugen
##ag
avi
legaturi
##dney
sab
stic
##heim
italian
botez
intitulat
unic
##usal
araba
##itorilor
isa
spatele
scriitorul
turcia
luptat
noapte
facultatii
educatie
revistei
teleorman
##eala
rele
romant
comunitati
majore
facil
documentele
boala
cartier
tribun
joseph
bacteri
tarilor
##ificate
centre
interna
cantitati
imbra
comertul
schimba
lig
##sh
##lip
##ctiile
traducere
relatia
declin
provincii
##seze
antonescu
##ghet
balcan
irlanda
suedia
rud
zis
##ac
##iceni
##odina
aflau
banca
organizatii
volunt
atestat
aduse
distribut
##dor
##gea
lasa
export
adevarata
imbunatati
crom
##pit
##sug
trage
##ovada
militari
belgia
operei
permanent
fu
afric
reuseste
medii
articolul
karl
strabatuta
mile
##zu
dramat
slovacia
brat
##vente
proprietate
rezultatele
1000
semnificativ
mixta
##ik
##sal
acorda
avion
viitorul
hru
wh
aman
250
brati
alaturat
##cati
##ward
proviz
rezultate
artistica
accesul
substante
##sprezece
aeroportul
nerv
##lelor
aurel
formand
164
germanii
legenda
deriv
dovada
anuarul
single
socec
americani
basarabia
zil
##rescu
##ureni
154
fratii
ferate
evreii
##gog
##untea
personale
##cen
##reste
##ried
stram
artistice
fri
sare
##uali
conducere
audi
##cile
radic
scut
pavel
158
onoare
gradina
jul
##cole
##onii
fagara
moza
situate
membre
niciun
iulian
textul
ingin
##itar
aran
teorie
dovezi
similare
##atisfa
oxig
guvernament
71
cui
recept
pedep
versiunea
rapida
##por
sche
##script
##ristos
fict
##yl
##uil
##idul
numerosi
frecventa
##furi
implica
##ceau
munti
bulg
ierusal
calitatea
osc
##uda
##mic
repet
artile
bronzului
slobozia
##lad
arestat
168
echipe
ton
dedic
partile
##intea
istorici
adapost
influente
##carui
stiintific
pleaca
##eneasca
##erilor
instrument
bon
##fice
caderea
cealal
conformitate
functionat
cetateni
##cic
2017
dimine
podul
lungimea
religios
dialectul
##arda
##inde
##cteaza
##ovo
tipul
##lim
intera
drepturilor
luxe
##sionat
fizice
festivalul
fragmente
lovitura
supliment
ere
mur
zeul
insulei
serb
cererea
evident
varsovia
dos
##suri
impus
##oreste
rezulta
castel
printul
traduce
cunoscuti
instruct
dispune
organizatia
electrice
manastire
chimice
soft
ideal
mea
rig
##ood
lucra
repar
geomet
campania
cealalta
durat
datelor
##izarii
continut
motor
medievala
harghita
henric
supravietuit
mehedinti
##ule
##ghiul
consolid
schimbarea
apelor
frumos
metode
scriitorilor
thomas
inima
rega
atena
vaii
financiar
universitar
lituani
get
##silor
simpla
imagini
operele
##ick
##mann
##mida
concert
argument
virt
nist
infr
perioadei
incluzand
organizate
asociatia
iorga
lant
vig
##junct
exterior
conferinta
pian
1963
cancel
ansamblu
hrusci
poata
incuraj
expan
apel
tehnic
porn
energia
favora
##bele
##ctica
colt
banatul
nik
cabine
elisabeta
bratianu
wind
##chet
titlu
traditie
provinciei
necun
vitea
hrusciov
##bilor
set
atins
nato
parlamentare
##pp
##ziile
vehicul
actualul
numarului
discurs
inferioara
##siei
##gii
##arc
seara
carl
gasi
##hael
eliberat
my
mis
##mina
neolit
creata
celal
gav
podisul
ridicate
organizatiei
disparut
##onica
numiti
1927
paraul
francezi
caracteristic
divizia
obtinerea
comparatie
##cep
##itesti
carag
telefon
idei
jocuri
intregii
retragerea
imaginea
##rari
sovietici
salbat
categorie
gy
long
mane
casele
dubl
mese
atras
exemplare
decizia
metropolit
##ferent
domnitorul
publicului
poezia
ira
lich
##iuri
color
demi
britanica
puterile
liderul
##ocrat
deserv
proprie
##mita
base
original
ascun
cumpar
81
alco
etim
caracteristici
fusesera
poalele
putem
1864
jumatatea
bir
mers
tent
##eal
teme
gasite
sydney
bosnia
cauta
dirij
1954
design
vizit
1906
apostol
pel
pota
baiet
legile
stema
austriac
categoria
fii
##eniile
ucraine
analiz
olande
pietre
pasari
colegiul
##resc
augu
patra
166
1951
domnia
##oe
vad
anumit
progre
##upt
arhi
antrop
indelung
transforma
nasterea
sportiv
video
cov
##ath
tarani
sarbi
criteri
peter
vizita
conduse
muzicale
frunte
##ight
credincios
luxemburg
##sis
suveran
##orom
dialog
activitatii
caragiale
kg
tel
intar
raz
romanului
nobel
1959
portul
##bert
prile
##oresc
163
diferit
circum
generalului
cercetari
terenuri
angajat
efectuate
##oste
labor
raza
1905
bogat
urbane
cornel
dificult
vandut
tocmai
fc
##iciile
intoc
nobili
albert
occidentale
vorbeste
hon
##zate
lacului
popa
companiei
noile
167
advent
legion
culturi
tai
solar
1907
doband
test
straini
iacob
memoria
catedra
##alu
anuala
fili
##ificata
apararii
cursa
initiat
tratatului
caracterul
datele
##obil
cupa
157
campanie
directa
sed
avioane
insule
rusesti
consecinta
##feri
dedicat
drape
ministerului
descoperirea
caracteristica
totalul
viitor
suport
tax
1908
benefici
##lex
scos
regal
deputat
concursul
existentei
isus
dimineata
##icult
cutre
pest
mereu
bus
rede
denumire
clasica
ierarh
califor
hi
satisfa
zb
consul
143
victorie
floren
fur
fuz
##kes
alung
alesi
efecte
evoluat
##gului
##orld
arom
##ifere
muzicii
efectiv
oceanul
declans
##ierei
secui
subter
incen
franc
divin
prezente
michael
petrece
protoc
comunitate
146
nostru
referitoare
pis
##fre
##vision
libere
datoreaza
ideile
celalalt
que
##usc
##vei
##erve
##ispre
compan
marilor
copiilor
categorii
suficient
prizon
utilizeaza
transportul
comisiei
alfabetul
jackson
furt
proza
brut
curtii
aeroport
cala
133
recuno
englez
restaur
imprumut
penticostali
dul
##deze
march
medica
luptele
felul
discipl
teatrului
sprijinit
##iene
##ku
##riu
##lava
##arirea
spunea
jocurile
kos
##teze
cut
clase
cule
popor
redusa
ipoteza
danemarca
has
grec
domnul
organizata
voce
conceptul
tendinta
imen
adje
difuz
capitalei
protectie
batalie
phil
clor
jura
ut
poloneze
##iade
##inelor
catal
marca
139
grupa
octa
absolut
urbana
etapa
contextul
##site
fostului
primara
1911
angele
sedin
sanatate
##sani
statia
##ogen
period
autost
gravit
##ozitii
debutat
##bre
##fere
existand
personalitati
benefic
##die
##mice
ducat
biseric
relatie
private
filosofie
mestesug
ume
##veni
##cesc
##ctori
##sist
alegerea
vac
vadu
ecran
##siunilor
completa
tinutul
studio
stapanirea
demn
arbit
dorea
palat
infrangerea
ign
rurale
imposi
depozit
vizitat
fotograf
codul
izvoare
scurte
pronunt
147
vanz
croatia
depresiunea
louis
consac
trecand
nemult
##ias
##ptii
##mentelor
atestata
farma
cip
nen
##xx
poezii
bisericile
arhiepiscop
##mas
oricare
##enesc
imperial
diction
900
##hov
##kin
##steste
organism
raportul
ucisi
serviciu
demult
vreo
cuvintele
colaborare
perspectiva
##itii
vecin
bac
revine
mentionata
libertate
kre
rural
soarele
##upe
aplica
strab
membrilor
oraselor
editia
feri
fert
rebel
##ceasca
antice
cruce
brun
arheologic
adaugat
tea
ingine
##oarei
franz
patron
lucrarilor
proprietati
respins
comitetul
conducator
resurse
asp
moi
##isc
##riet
intregul
inclin
aproviz
poporul
simple
introducerea
comitetului
calatorie
ritu
##cuz
inse
actul
148
urmata
zeci
institutului
merg
##oriu
creeaza
planurile
externa
1880
industrial
##itudini
silv
permanenta
##sau
rast
nava
etnic
intelege
1898
arie
hum
##vd
##buri
##iciu
regiment
1850
treime
##orescu
curte
162
vizi
##gov
##jan
monet
cuprindea
clasice
referire
redactor
lider
situl
##deratiei
##cini
##unte
##alitatile
plin
cerc
augustus
albastru
sci
trop
##itz
##ilat
chesti
2018
fruntea
respin
simbolul
intregime
frumuse
inmormantat
inscrie
atinge
mark
muncii
imperiale
evreiasca
ceramica
lug
sarat
##inic
lagare
invin
clubul
ordinea
festival
alcool
cutrem
##dro
##data
locurile
scrierile
raspandit
##gur
##12
importanti
urmatorul
austriei
serviciile
mijlociu
imagine
indiferent
ansamblul
minerale
ierusalim
dorit
##duri
##cit
inund
caza
ala
##cti
##deric
##oris
pros
dura
duca
avent
bucura
turca
transmite
schimbari
atacul
1890
municipiu
cotidi
mercur
autostra
tir
aparea
implicat
dida
bazinul
reviz
cronica
lie
##rarii
##candu
##isoara
argent
programe
tanarul
terenul
soldatii
chineza
##ogra
dumbra
dealurile
patrulea
##atoriu
puse
obtina
imperiala
cantitatea
pul
##bite
unel
##zesti
taranii
1904
canalul
insemnat
tabara
##par
##lar
numea
dezval
studiaza
initiala
belar
padurile
sugereaza
emb
ron
##vele
ocupatie
##win
unitatile
pusa
industrie
palatului
irlande
ionescu
##hei
##mia
seg
ardeal
vorbita
brad
obtinute
independente
asociat
propag
iub
pui
##ence
##onice
##pada
##ologul
minim
ofensiva
artistic
dunarea
apartinut
victime
fanta
pib
acuzat
corect
bogate
eliberarea
##onimul
##lie
proa
##gau
justi
cunosc
majora
scaun
observat
complexe
dinastia
herm
muta
##dita
##set
supus
scria
explor
ajung
diamet
incheierea
aeriene
cran
epi
pd
##bar
regist
unesco
frumoase
rang
reflecta
doctrina
stre
##usul
cardin
supran
estonia
138
universal
cuvantului
cuprinzand
administratiei
tole
##asca
##bei
relatiilor
armatele
autoritatilor
logica
fluvi
usoara
00
ful
foa
##anei
##reta
##ons
##ovat
organizatie
1909
ghica
executat
aspecte
normal
actualmente
targov
##zz
##olia
##diata
caracte
1870
hristos
world
##fin
##rot
interesul
baroc
convent
grat
uria
##giei
##siu
##oamn
profesorul
straluc
bale
milion
circ
simult
interpretat
satelit
succesul
##helm
viteazul
pin
zo
##steri
sah
fapte
recup
lucruri
rezolv
ku
##aza
##olt
plina
feci
antica
fondul
cursuri
geografice
##isprezece
gig
rost
##anele
marm
genul
propriul
renuntat
industriala
costa
mandat
##coln
roc
site
sose
##aresti
##istan
incetat
144
solid
mitropolit
##per
##rav
comem
femeile
cumparat
software
##oge
subordon
opri
lincoln
proiectului
socialist
tulbur
iran
odi
parea
sug
##cid
apol
vase
incinta
plata
plant
absor
transmis
consult
ceremon
necesita
iuda
modificari
prabusi
clopot
ene
latura
prut
trai
refuza
olanda
asasin
miscari
##div
arond
##duit
2019
referinta
124
reprezentant
craciun
personaj
mamei
mete
teritoriala
1878
risc
planeta
ordonat
dur
##icieni
refuz
guvernare
constitutiei
ocazie
sacri
dezbate
california
##wn
##zan
##bol
##jma
##iasi
trag
litera
reprezentate
etnice
vocal
lacuri
slujba
vicepresedinte
grea
##bet
##erind
##ingen
reactie
povestea
acid
ko
##lob
##zata
dau
gabri
eurovision
cartile
numesc
zeita
critici
oxid
clasificate
macedonia
jud
corupt
triun
actuale
politician
figura
##nist
##oreasca
organizeaza
senz
barbu
trot
mainile
##orum
opozitie
specialitate
banatului
socialiste
dezvoltata
1902
otomana
landul
stro
preda
primare
infatis
event
urmatorii
provocat
societati
europeni
muzeu
luter
hidrogen
sint
##erla
##erina
descendent
acordul
crucea
speranta
semin
plut
rezerva
praga
principiul
place
studenti
dezvoltate
inteles
utilizata
hectare
golful
standar
departamentul
responsabil
orchestra
toma
##uce
##mm
anterioare
acopera
orbit
munteneg
1877
executiv
sinuci
bern
kal
mant
##zeaza
siria
acte
multime
##vius
asezata
##entiala
jocul
monede
pacific
ioba
reinfiintat
bord
fried
maicii
altitudinea
timpuriu
mediterane
hran
vert
##ode
##att
##ses
##elles
asoc
##vian
termeni
participarea
scrierea
dealuri
cantacuz
intersecteaza
uran
spaniei
gheor
iesit
incercare
egal
cronic
terminarea
sop
##oeni
##ith
ceara
##uss
bavar
infante
##rg
##eniei
casat
ars
orna
organizare
cercetarile
orientul
masac
inferior
ofiteri
incoron
reginei
agricola
personala
independentei
turistice
capacitate
comertului
recomand
substantiv
rad
relat
emot
scolar
medievale
corpor
manifesta
ure
dete
##onde
comed
##otice
autoh
curse
schimbare
ateli
proclam
desfiintat
amplasat
testament
judetele
mars
cora
##atiunii
muzeului
separate
implement
##enire
sensi
stabilirea
provinc
boli
ghet
sotie
terori
circulatie
madrid
infrastruct
loi
nova
##testi
sel
##ationala
inregistrate
botan
tulcea
galben
targoviste
mla
nix
rul
prec
##ovan
tram
carta
evita
turcii
foloseasca
asigurat
chimica
adevarul
uscat
flota
infanterie
coaste
dal
##kh
deta
nere
tehnice
aliatii
structuri
morti
by
pitesti
##ceni
sece
statie
##erson
traditionala
asigur
turism
antichitate
urmele
ocupata
1860
premii
frumoasa
blaj
relieful
funer
##omot
##scop
duminica
gazd
geografic
traieste
violenta
pictori
predominant
bei
hun
mori
natal
ov
##zy
##yer
##enberg
confect
##lah
reglement
judecata
refa
disponi
rub
define
1901
industriei
wilhelm
supraveghe
##fir
##san
sectia
mexic
regat
##ionate
taranilor
functiile
denumite
asadar
latine
institutie
comandantul
black
spaniol
locuinte
digit
##usit
clasele
speciala
pierderi
cetatenii
inspirat
controvers
cras
id
liste
balti
izvoarele
hei
transnist
later
calculatoare
exprimat
##ques
opinia
ramanand
##zului
samb
conect
respectiva
onu
1859
sasesc
occidentala
incheie
slovenia
ucraineni
oxigen
baieti
boc
jun
md
reduce
##rof
presiunea
luate
insasi
ramuri
continuu
elementelor
procesului
japoneza
prezidentiale
cd
##buc
fiului
companie
sfera
fortat
retraga
factori
vecine
ken
reich
specie
scriitorului
distric
ciob
concuren
##ficare
culori
serban
texte
accele
malurile
cantemir
candidat
eru
neob
tradus
propun
activitatile
propriile
efectul
culoarea
sistemele
proprietatile
lituania
accentu
justitie
cheltuiel
spiritul
sosi
adult
subcar
aparat
restran
promovarea
##los
##iman
producerea
balta
##ows
garda
casatorie
olimpice
patrimon
angeles
nixon
rss
##dt
##hur
##bt
ves
confer
##mantul
##virea
##ismund
realiza
1903
discuri
pictor
egala
caracterizeaza
gimnazi
patrimoni
mina
##forma
##graf
stimul
##gas
polon
##antelor
liderii
spitalul
dre
hera
via
vint
##18
alimente
##lavi
teod
activa
reprezentanti
devin
otomane
burghe
oarecare
irak
tramva
##hol
##iac
##umele
luminii
1915
ramifica
randuri
constitutie
frecvente
grija
fundamentale
ghi
camin
munchen
situatii
ramana
preoti
reformati
sigismund
adunare
alimentare
concerte
ebraica
air
##cla
referen
##ctice
##cher
##ozite
persoanelor
firma
astept
omen
##ete
##ugh
caii
prede
##zelor
lupt
1897
demonstrat
promovat
ofiter
adoptata
hat
mes
invers
trium
interzi
spital
##zator
dej
africii
credea
polite
populatii
demol
domnitorului
piesele
1896
originar
cerem
norvegi
refugi
lichid
kara
impul
rusii
productiei
schimbul
conducatorul
securitatii
hist
##ars
inru
constel
stur
nefi
persecut
pierderea
##atiunile
bolnav
1849
rasarite
fenomene
nevoit
basarabiei
merge
ji
mist
taran
gama
obligat
egiptului
strans
dinastiei
##lom
carne
greciei
frederic
voiv
moldoveneasca
procese
hidrograf
##erent
##lot
lev
depinde
administrarea
investig
operare
licenta
##isului
cercetatori
moldoveni
cooper
prun
##isus
rache
celebra
inspre
numere
clasic
aspectul
atribut
briga
bin
##ranti
##uel
##pect
##iver
marina
abuz
1867
nascuta
fragment
musulmani
##ville
amestec
cfr
ly
ovi
satelor
tei
##uv
sila
118
disparit
reprezentantii
convins
morf
evreiesti
henry
inconjur
suspend
vea
##sna
urg
coloana
cartii
ministri
sentiment
excelen
divers
hotel
##ben
##pes
regional
reale
##osebi
realitatea
indeosebi
cior
servit
lansarea
reviste
sulf
confrunt
adjectiv
gabriel
ies
##dum
##ye
locoten
end
valor
daniel
triburi
virgin
educatia
ulei
##niz
##ła
##iliu
peda
##urgh
sfert
##obile
125
revolutie
inregistrata
##oenix
##enie
fire
ult
ajunga
1866
sustinuta
trebuiau
emp
rose
##gele
##17
##omun
directorul
ruinele
transferat
diversi
stabileste
venetia
##piter
fruct
rog
legit
functiona
frontului
profil
phoenix
nemultum
sk
tric
siret
##urie
audit
##pti
##ipte
sfat
motivul
iubit
covaci
##oveni
limbilor
limbaj
universitati
posta
identifica
recunoscuta
ochii
bulgari
basescu
mora
##tea
##clor
##scal
##ando
biserice
decedat
retro
atesta
intalneste
ordinului
premiera
prevede
iisus
tet
##indea
pagina
douazeci
lucreze
peters
rangul
cunoasterea
diploma
hy
##atei
baca
electro
stiintei
zapada
primaria
dans
fabrici
reforme
preponde
conflictul
ramnicu
patrimoniului
##itand
##raz
comunisti
##ziste
##ozom
prezentate
manastiri
fortare
ileg
lore
xen
##usti
baut
reala
intalnesc
varietate
ochi
sob
##mata
##mond
##roasa
predat
##baci
decursul
inving
##besti
sarba
flan
##psa
##gel
##lesti
domeniile
principiu
muzicala
obiectele
controver
individuale
mediului
afluent
##14
jupiter
##opi
statui
finlandei
136
1895
educ
windows
ump
##arita
##inilor
##cei
adop
chil
localnici
aliatilor
semnificative
liceu
brux
kol
ya
inov
printe
##ariul
avoc
nede
##vere
indo
galile
1899
profund
nimeni
mecanica
cernauti
gel
##izati
teorii
varsa
pozitii
distrugerea
dragom
extraordin
indepartat
pala
pante
spa
santa
sie
regionale
##bere
rupt
dusman
inregistreaza
identificat
variante
casatoria
substanta
invazia
sonda
frat
##zont
reden
avem
chri
conflu
denumiri
asas
temperaturi
pestera
cantacuzino
##uare
sev
mace
nef
pag
admir
turcilor
universul
##roma
percept
aplicatii
meridi
inaltimea
stejar
circuit
bod
##ensiv
##sius
catun
mass
##ficata
trupei
continentala
doamna
##king
monte
liniile
originale
preajma
restri
picioare
suta
##net
##ston
semi
anna
deschise
sunet
adancime
bruxelles
##mus
nes
asemanator
bucovinei
teoriei
##ptele
debit
##stie
##ille
masive
135
universitate
principii
asezarii
colectia
institutiile
1876
compozitor
instrumente
aminteste
lini
##rius
ced
##andra
spate
produc
arabe
exceptie
valorile
exploatarea
context
parteneri
necunoscut
pedagog
puna
##cd
##lina
##ionata
abru
colum
generatie
liberi
verb
esenta
impact
eficienta
dramaturg
iron
##fen
cauca
saptea
##osta
##ostea
##oto
subs
actor
orizont
originala
discip
garant
libertatii
reduse
vorbesc
arbore
nefiind
moc
##ple
##pen
##ogene
milano
jac
culmin
procede
jucator
egipte
cantecul
episod
dubla
intemeiat
##yi
popoare
randurile
1892
dragoste
invad
atlantic
##rana
##cute
##cescu
camb
caes
locului
atent
gheata
ingrop
pronuntat
protop
reguli
turneu
simultan
##16
##sirea
meg
##ifici
intretine
dire
evalu
134
tanara
corespunde
angajati
anatom
##marea
fauna
##olesc
cald
vechii
acoperit
geografica
similara
clubului
flavius
corespunzatoare
fos
sali
uniune
fere
cultul
stramos
caramida
albane
solutie
rugaci
roz
##cari
rauri
##erica
primind
##matice
dreptului
luand
vreun
1881
posibile
sotiei
lasand
movila
pnl
##ferea
##ght
materie
##leaza
fondator
petrescu
asociatiei
necon
nucleare
musulman
spectacole
interzis
dion
sod
vel
peret
presc
rab
pacea
bucat
bazate
protectia
zidurile
city
evenimentelor
sinteza
imprejuri
vult
##lezia
##chim
##alelor
fiecarui
##ozitiei
izot
artistul
comitatului
agriculturii
##way
incercarea
migrat
pasageri
pericol
iugoslavia
pescuit
sticla
up
##erba
##ranta
pam
medicale
transmi
aflandu
jucatori
italiene
liceului
unguri
constiinta
exploz
doamn
sati
reagan
abstra
##oanelor
titluri
fonduri
pastra
intampla
comerciala
confirmat
ecat
yo
##via
dog
bahia
ating
hrana
insemnand
conservator
metaf
desemnat
reca
sanct
britanii
porumb
incredin
cereale
precedent
dost
meu
##ariile
reput
situeaza
domnie
nivelului
scolile
1861
cercetarea
aerului
vremuri
acoperite
etape
inconjurat
intoarcerea
demisia
tort
##arate
##stem
generat
bucurat
##giului
veniti
pozitiv
lipsit
proprietari
largi
amintit
autonoma
johann
rascoala
##hr
##jo
##yd
cuant
imparta
pagini
comprom
tabel
finalul
confeder
turnu
invatamantul
resursele
petersburg
banda
kir
##zandu
ceanga
alege
publicarea
transferata
zahar
fuga
schi
##24
anuale
##ativul
109
zeu
socialista
imediata
intampl
ocean
prelucrarea
derivat
350
ama
fis
vrea
##cov
##wer
compa
impun
zeus
slave
simion
deschiderea
sexuala
renault
uefa
liviu
interact
cena
rati
laure
vasil
propunerea
urmarit
vinde
incerca
sosit
particule
flux
distincte
sezonului
galax
cehoslovacia
fagaras
octavian
voi
##irile
##ser
##wood
conex
pele
anivers
##oiala
compuse
##oft
##lope
intelegere
criticat
individ
##ridge
mormantul
intitulata
lapus
indeplinit
cite
dand
venirea
##ira
##stan
##all
##rug
comunismului
regia
suburb
abund
depus
colonisti
insemna
neutron
eforturile
avansat
congresului
covasna
indreptat
grin
cond
pacii
intrare
ulterioare
republici
diferita
1893
efectele
pretin
##iona
credit
limitata
viitoare
folclor
placa
titular
condusi
cantitate
1888
apropiate
hard
##13
duc
baze
nordic
invitat
guvernator
indeplini
aliate
respective
kaf
jef
incredere
prevedea
fantana
ucraineana
rib
##lem
##ierilor
prelung
fiindca
117
sankt
micros
tehnici
autoritate
absoluta
intamplat
dialect
performanta
buz
pina
##well
ardele
desert
rezid
137
energiei
sustinerea
suprafete
inginer
propaganda
comemor
friedrich
##cele
macar
arca
##alau
potential
iuliu
scrisori
administratie
colaborat
montana
plantelor
boieri
cenz
zei
##tate
pac
ocupate
slava
suprap
distrusa
deschide
aplicarea
departamentului
sfintii
cifra
dizolv
vina
##yce
##steni
bai
stanca
cheie
ak
treaca
prost
##ionul
intregi
feud
sarbat
produsele
dimin
contribuie
videoc
povestiri
camere
impiedica
##sz
##log
##inci
##islav
##ife
##bac
##cator
michel
culm
alegerilor
angaja
asimil
provinciile
##reme
sibi
##onilor
scor
basti
##bilitatii
##ceasta
paraului
coreea
simpt
evacu
fructe
##ien
##mati
##ulescu
##enburg
##oric
factor
impusc
1800
##anelor
capatat
reper
principiile
1865
cosm
buget
sinta
baile
plumb
##entelor
distruse
ferovi
urile
##nirea
##erca
cada
comas
##otic
babil
adolesc
##ologi
barlad
agricol
tineret
extinderea
sexuale
austriece
caesar
gard
desa
##icle
unif
##scani
neb
marcel
putini
afacerilor
bill
eman
iord
mint
##nicul
##enit
##utu
mares
caldura
oprit
decretul
pornit
combusti
austriaca
nepot
invatamantului
prizonieri
grand
heter
##rara
##pri
##atina
deriva
all
##ocent
diferitelor
obtinand
apartinea
platforma
zidul
antise
muncit
somes
traverseaza
aristotel
bavaria
ovidiu
dara
##enz
acelor
papei
##gue
manage
colectie
extern
contrast
juridice
mentinut
##icultura
##qui
##stro
fierului
##mag
##ales
neur
formatie
##tire
vreodata
otto
soarta
serviciilor
deceniu
bile
##ariei
##ilie
maior
directie
##sky
conditia
prieteni
destinate
desprin
filozofie
amplasata
vigoare
##usera
aprobat
limbajul
##icula
semnal
produselor
decide
1871
interviuri
prusia
tratament
initiale
artilerie
confluenta
05
##erati
pedea
limit
potenti
grave
familiile
barbat
balcani
cresterii
bunuri
boem
considerabil
reusind
gorbaci
cetatenilor
materna
afectat
revolutionar
edifici
kiev
muri
pp
##pii
##mel
##pela
##useni
##izii
##cha
vai
sovieticii
versiuni
vanatoare
capabil
personajul
vorbitori
reconstru
insotit
asistenta
brancoveanu
dostoiev
rurala
##hid
##orn
unirii
sapat
anunt
##icianul
teodor
locuitor
recente
difera
germanilor
infiinteaza
1889
federatia
debutul
poetului
diplom
intreprinde
invecinate
terestre
metrou
pt
pant
##arga
suro
##urch
presti
parintele
principele
morala
dovede
turistic
construi
atacuri
saptaman
declarata
georgia
marcheaza
pedeapsa
gorbaciov
mata
zar
##hard
##cc
reducerea
##orita
intune
atin
tarul
strazi
##biri
universului
ciuc
##irescu
extremitatea
apropiata
suprema
norma
multum
activeaza
negativ
cuprinse
deosebite
engleze
examen
fundatia
inchisa
memorial
lugoj
improp
compusi
nordice
fostei
institu
127
singular
partidele
ramase
problemelor
belgrad
mentionate
ridicarea
hartie
deputatilor
temporar
strict
gheorgh
##hl
##hin
##bus
intensi
##areasca
adorm
##ozitate
##haus
grecii
grau
123
adam
pictorul
personalitate
simpl
platon
goluri
1812
450
plu
vet
veni
vatic
aux
aleg
impozit
##dian
##ioneaza
##atorie
plural
react
urmau
medici
115
voia
caracterizat
tancuri
ucrainei
malta
expresia
entuzia
glaci
ty
##minte
##ary
##osu
decorat
gesti
universala
scoate
balt
cuprins
ataca
traditii
stilului
trecere
serviciului
university
cristal
actioneaza
definita
nut
pore
ciup
celorlalte
sotul
brand
cia
esec
ilumin
artifici
diferent
119
ocupatia
bela
1894
instalat
sanatatii
teoretic
subiectul
prefectura
conceput
pornind
cil
zero
##oda
cade
locali
federatiei
reface
continue
aflati
idee
compozitia
premiului
multiple
nikola
veter
##inia
##alnice
maz
bad
turda
grupe
paraseasca
descoperita
civila
filosofia
belarus
dro
##pu
impune
1830
trafic
timpurii
truman
arab
votat
educatiei
recunoastere
voivodina
02
##ficii
##ureaza
alune
##ingrad
instit
##tila
trupul
frati
bulgariei
temel
mongol
##ozi
stiu
putand
banii
##jelor
neam
1854
atrage
henri
muncitori
automobile
masculin
macedon
06
giu
love
nig
##stia
und
avocat
config
socot
indoiala
latime
preotului
japoniei
ciclul
nazista
leonard
htt
nod
##rol
##for
##ifa
decret
capitul
diferitele
britanici
zah
renov
asigure
predom
recunoasterea
bata
bost
mei
##lun
##more
##ony
##tem
cona
spatii
misiunea
totalitate
##integ
##oneze
aparta
129
cerce
percep
andal
lucrurile
discul
granitele
##valea
conflicte
renasterii
vraj
##stesti
scene
ned
##oph
aduna
atentie
dominat
indone
##hire
cantat
cladirii
profesori
incercari
separata
##bury
producator
##alniceanu
03
pion
rat
roci
sune
vama
totdeauna
domneasca
aliat
coada
progres
maniera
bart
esp
tare
##itoarea
##bach
chip
##gesti
traducerea
istoricii
semnul
semnarea
ocuparea
simfon
1885
1884
hem
impartite
transformarea
scotia
contributia
suedeza
ire
ura
##ois
##istului
##cium
arat
sclavi
##med
mierc
gay
procesele
fortata
drumului
bataliei
evreu
puterilor
copilarie
intermedi
##cara
dealului
##ercul
lapte
##atesti
anot
##sale
##osului
encic
continutul
membra
cuprinsa
izvor
venituri
federale
##ield
obiectul
feminin
stadionul
clopotnita
ornament
drog
sn
##ualitatea
##cz
curat
actrita
##oreni
timpurile
patrat
curb
adoptarea
exploatare
cinematograf
sufletul
arhipela
dostoievski
brea
esc
king
##esc
##ohi
##mont
##enei
cautat
raurile
pacate
church
compune
subdiv
fortei
turing
indemn
stabilite
hotarul
principalii
orientare
pomp
lansata
timpurie
izbucnit
iesirea
abandonat
##hna
cub
intentia
creatie
folcl
106
devreme
etnie
necesitatea
aerona
accesi
garniz
spectacol
credinciosi
aria
mog
war
##uria
atare
margare
formal
senatului
simboluri
legislative
camerei
ligii
fertil
tana
confisc
mobile
calare
reaction
statuia
decizie
bere
vlah
colonii
triburile
turnuri
scriere
femeilor
celule
inteligenta
florenta
autoht
jiu
locuita
planta
active
semne
cristian
privata
defini
##gnost
miscarile
punctele
interventia
sportive
concentrat
fenomenul
hotararea
capela
fratelui
provizoriu
ein
lent
tha
##seni
##mw
##orica
anterioara
raurilor
locuiau
atitudinea
##olei
activat
zisa
##runta
nucleul
semnificativa
juridica
dificil
densitatea
gata
lg
lord
wolf
##cire
arn
preced
infi
disputa
lemnului
imnul
defineste
eti
##tes
##urului
teologie
complic
recon
126
baltice
fondatorul
vechile
intreprinderi
calugar
steagul
razboaiele
concluzia
dispozitiv
09
mid
##gene
##mare
##pel
preti
marcata
viol
politie
publicul
repart
popoarelor
alexandria
pierre
episcopului
raspandite
devenise
ritual
microsoft
miz
##anz
##itara
pretul
dreptun
ascen
dominatia
diplomatice
08
##unic
##ctate
##tagon
arha
preia
aparte
specul
razbo
opozitia
capata
canal
1862
victoriei
poveste
doctorat
inventat
intelectual
bret
##cine
##inus
##stri
str
aplicat
plateasca
aparuta
114
113
##scrimin
introduce
definitie
prefera
ziarului
mediterana
07
04
jar
kle
##este
##oade
##bas
script
grupurile
stabilita
ferrari
criticii
eroz
joyce
hall
augustin
01
bic
ceha
expul
secrete
ath
arthur
105
litor
stabili
scopuri
legaturile
vegetatie
investitii
mentinerea
preponderent
bit
titu
##nii
##fina
inghet
##seu
radul
primelor
dependenta
108
1869
materialul
impartirea
animalele
invadat
statistica
cautarea
tubercul
baptisti
urgenta
ile
ky
ud
##sar
##onibile
##iesc
presiune
avram
nece
partiz
creatia
legilor
coe
crimin
studiilor
crucia
diagnost
poseda
pericul
interzice
inaugurat
trimisi
pcr
marmura
referendum
predeces
aga
citi
ias
##onie
alun
##urari
regionala
spion
elementul
##ceae
1500
operat
116
senatul
sufera
chimic
nucleara
1773
devast
cne
##sy
ingu
##andri
##istit
rach
secuiesc
##dini
solo
##alizeaza
pietei
religii
aliantei
considerare
promot
democratice
chiru
japonez
traversat
pregatit
oscar
kafka
##cy
##ense
alma
carierei
colle
trip
disponibile
cantonul
aliati
barbatii
accepte
construieste
natiuni
dialecte
autonome
tigani
melodia
imbunatat
scandina
interesele
studentilor
fluviului
blu
gog
ww
##illes
stia
raze
chinei
genuri
142
intelegerea
ziduri
vocala
declaratia
anasta
traversata
incorpor
alternativ
nistru
politehn
steri
##onime
maus
##erman
refer
albania
sanger
1863
vechime
1857
delta
egiptul
blocuri
interpretare
locuinta
individual
intalnite
declansat
cooperare
flui
gold
##non
##lice
unda
anunta
arc
calatorii
gusta
cadru
victorii
guvernamentale
pir
verii
##ml
ster
##arire
marie
bisex
moz
consilier
132
privat
tratate
1856
italieni
complexa
diferente
muntelui
ostil
demisionat
##fred
necesit
kon
vrut
##aga
analog
apoge
avere
atitudine
antoni
sufix
buni
tinerii
absenta
irlandei
somn
frunze
descrisa
fugit
unelte
polono
enciclope
usa
##oce
##zig
alge
##ateau
limitele
1600
solare
slaba
porun
1872
considerati
caracterizata
apreciat
##izeci
brom
deloc
##anus
##iese
lag
mira
ministrului
ziare
insu
controla
zam
turistica
crestinismul
golf
versurile
interpretarea
letonia
sadoveanu
foame
ucen
##dal
##dox
##fil
sasi
##sier
maiorescu
##inet
actori
naziste
discrimin
1891
1886
arhitectul
egale
spatiului
interviu
albumului
spirituala
posesia
contemporane
rezolut
philip
rasariteana
kat
serg
zv
##omen
domina
mini
petro
eroi
precis
chemat
nepotul
conceptia
incercand
flora
regizor
##itia
##stelor
##ding
plop
##aniza
tract
propune
128
culorile
anglo
documentare
artistului
tanc
south
obligatoriu
personajele
comunicare
doctrin
geni
##arescu
comitate
spont
constata
vap
newton
sofia
cavalerie
lingvistica
proportie
etimologia
drapelul
jacques
bea
brate
ruti
tata
##uk
aloc
##umen
##chia
doreau
##renta
depart
dispus
negative
editii
ascult
herte
sarbatoare
palestina
combinatie
secundare
campulung
opre
sw
aleasa
note
reactia
cercul
latitudine
jocului
crac
asociate
medical
complexul
castige
johan
ctitori
locotenent
nistrului
##nicii
leop
legal
calcar
gust
depla
lux
122
sovie
fizic
particulare
acoperita
inaintat
calendarul
participe
vegetatia
beton
pregatirea
intalnire
fluviul
ecaterina
insufici
ble
one
inh
suce
numarat
park
admi
tarna
teritoriilor
albume
francezii
balne
planuri
petra
convert
produsul
calculator
parinti
trasaturi
caractere
asasinat
isc
##ziu
destra
##itie
curi
intor
constat
expozitie
cartiere
jazz
theodor
centrului
lipsei
angel
considerand
primariei
animal
##exist
intregului
fundamentala
cultivarea
greutate
feric
##ulg
##tex
##cere
consecut
celebru
limitat
tamp
terenurile
respir
dinamo
aplicare
descrierea
razboaielor
constient
mitropolitul
fine
ki
kog
ye
##ueaza
##ark
##cerea
rasc
romanele
putna
##mintele
##ficate
consoana
zeului
apropie
sinod
compozitie
homo
capturat
vecinat
pregatire
caracteristicile
www
dari
oh
##lov
##erta
faptele
lect
primi
scaderea
feluri
transfer
descoperiri
##cuv
cetati
1883
plecarea
ungure
influentata
planetei
firme
incalzi
comportamentul
bombard
rasturn
vintila
dvd
soma
##dra
serii
contele
locuiesc
doreste
vectori
sfintei
ruso
##gerile
nicu
1882
renunta
inlocuita
gazda
##ensis
voievodul
continental
depasit
situri
emigrat
elaborat
avantaj
magazine
predomina
zg
##ken
retin
sava
##tai
locomot
##izeze
desene
gramatica
solului
religiei
cinstea
1868
filmele
expresie
solutii
climat
florin
purtand
biroul
virginia
combustibil
fore
pec
##mail
adjunct
constatat
turcesti
foloseau
antip
reprezentare
##alizarii
adams
tehnologie
informatiile
belgi
textele
turismul
canale
preferat
cumpara
intoarca
sculptura
reintoar
iliescu
lucian
manev
##romagn
bmw
##udi
##inata
##icea
##olului
conver
statii
##diului
lega
vestig
nam
articul
portret
senat
trup
templul
pierdu
ungara
desfiintarea
bursa
geneva
tranda
otel
##bona
##icus
formare
scazuta
manole
fiecarei
editori
momente
numeroasele
identitatea
transformata
veniturile
clasificat
joase
tinta
##sud
##ory
unitatii
##det
plo
recuce
ocna
produsa
dispozitie
##otei
electromagn
titan
220
plece
preluata
tribut
medicala
##smului
cineva
grigorescu
sambata
rosi
##zoni
ree
predic
teut
bag
optim
delimit
cunoastere
securitatea
universitare
exercita
speciile
periodic
bisericilor
epidem
peretii
prestigi
hertegov
horia
ote
##furt
##zen
lauren
seba
##sey
##urarii
scuf
continuit
indrum
aglom
clara
scapa
respecta
sustinea
1875
considerau
vietna
sinc
modificat
prepar
floresti
competitie
izbucnirea
retelei
cracovia
bom
##wig
##cip
##oasca
recol
capatul
armeni
liturgh
cazuti
salva
germanice
pozitiile
pozitive
1887
extinde
##mitt
japoneze
iesire
serbiei
solidar
hand
icon
kur
##pia
##ios
laca
anal
artelor
amf
legend
autorului
portile
hotara
fract
show
atacurile
josef
mamifere
gat
##sw
##lurile
intensa
urz
catalog
vada
aren
sudic
folosinta
scade
detalii
suflet
parlamentar
civilizat
copilul
moscovei
edward
aprecia
evenimentul
williams
comportament
villa
gea
sr
##uate
##entilor
##iliei
adn
spin
infinit
##besc
privati
suferi
stiintele
lideri
1879
imbog
iep
groa
financiara
cunostinte
strabatut
autostrada
adopta
glu
lazar
existe
##odob
##uiti
##matia
ocupe
concil
viziunea
moldovenesti
1840
citit
izvorul
carbune
azerba
jurnalul
prelucrare
dublu
echilibru
disciplina
cy
gras
kn
##bc
dela
##omit
lacas
##illa
##orice
ante
preca
presei
prins
bastina
polar
marte
gest
iau
constructiei
critice
1873
castigand
electronice
statiune
aristocrat
corneliu
moise
blan
iata
##kel
##ituri
##itatie
may
statiunea
print
lee
parohi
oricum
politiei
generatii
demet
metod
adec
slatina
tinand
proprietar
##olitic
federala
cuvintelor
steag
http
osta
rum
##ocle
rasa
##izand
catunul
mary
marfuri
domic
bucurestiului
##low
traditiei
atel
siberia
axa
cobor
##kyo
acumulare
hu
liva
##mod
unita
##ctat
cec
aure
##otip
##mad
implini
clasat
prezentata
vechiului
criticul
asigurarea
variate
indian
detinea
interioare
autonomie
revolutionare
figuri
inspiratie
nervos
adventisti
sugerat
infrastructura
neobisn
rin
run
tism
##sus
##ance
reabil
stau
centura
indrag
prada
cladirile
colonie
dinainte
nasterii
cantec
intinse
acidul
termenului
comparativ
confirma
tratamentul
reluat
coalitie
aranj
sedinta
nil
panta
##nov
##sf
##zona
##itura
unire
##perea
##chiul
urca
perimet
expuse
stramt
cartof
discursul
kaza
necrop
destinat
aceleiasi
cantareata
zilnic
hris
##nie
##omon
cailor
ave
neo
neva
biograf
formatiuni
ploi
calde
medalia
demon
steph
protector
ionel
invest
muresului
turisti
gandirea
conducatorii
dimensiunea
meciuri
1769
violente
cetatean
tolst
dedicata
prabusirea
jer
##aren
##istra
priorit
tecu
creeze
actiunii
scrieri
agenti
traditiile
picturi
##cinile
iez
miron
usoare
spiritual
programului
cupru
parohia
organiza
valentin
argentina
legitim
printesa
cilind
cord
nunta
sort
##hen
##hem
toy
open
marti
##nik
poeme
soldat
construiasca
destinatie
atractie
manifestat
dificila
resurselor
sultanul
intemeiet
prilej
subcarp
maturi
praf
soi
##pin
##hy
##enirii
##anesc
calat
oport
expon
coroanei
tipic
utiliza
liniei
hein
roy
atribuit
chineze
terasa
armenia
nenum
##pie
##enita
##ierile
anche
prestig
pact
tech
christ
daco
termenii
incapa
sarata
maniu
grupate
alexander
orientale
crestinismului
colegii
progresul
bugetul
rudolf
sosirea
civilizatiei
oe
##ов
##ariti
stoc
##iceanu
subt
##ones
scazute
revenirea
onoarea
ducele
music
metodele
estimat
reconstruct
deportati
precipitatiile
cori
god
hus
mp
ungh
##rod
lex
tarului
inceputurile
curge
trimit
credintei
esential
aduca
echip
focul
1774
serialul
circula
invatator
eliminarea
meleag
deut
##sire
avert
avandu
incomp
marimea
strave
felix
reformei
noroc
retrage
ungare
sonora
turneul
corespondenta
feroviar
repetate
fortareata
##sudski
sva
##mate
##vor
dureaza
orbita
##inti
genului
urmasii
majoritar
112
activitatilor
publicatii
documentul
diac
tatari
obiectelor
carpati
curentul
bombarda
cromozom
bisericesti
550
rute
##osa
##anim
rasi
impodob
secreta
##ferei
coloane
facandu
dispuse
capitanul
zeilor
canalului
porta
caracteristice
toponim
##boreaza
concentrare
pilda
estimata
temperaturile
arbori
lgbt
foi
ok
##vici
##sas
##izilor
afis
1700
pisc
plastice
reprezentarea
detal
orientarea
magura
esuat
ocaz
virg
magnetic
##stinian
tabloul
boston
tolstoi
##cus
##iectele
stari
pris
compil
compara
noptii
##atiale
mision
organisme
marius
barcel
transilvan
capitol
piele
asezate
infiintate
convor
tinerilor
conditiilor
constitutionala
aplicata
fundatiei
lanseaza
depaseste
accentul
astepta
secundar
dacica
republican
tesut
francois
dulce
750
gari
tina
##emin
unghi
##see
strig
scum
misiune
recla
1200
motoare
titul
omor
##iresti
radioa
1858
extinsa
spaniole
contemporana
clasificare
mozaici
districte
leopold
##pan
##erti
##unat
##cis
noilor
fill
paraseste
emite
poduri
panza
prietenii
nucleu
notiunea
gandirii
evolutie
peninsulei
elevii
autobuz
metropolitana
patrimoniul
kogalniceanu
fiii
kra
##zel
##arla
##icele
##imen
##ciul
##isera
politia
cultiva
britanicii
profet
campionat
vocea
discutii
shakes
vecinatatea
ss
##proc
##geni
##bon
deterior
stol
locuite
comunitatile
vaile
aparand
distins
expozitia
expozitii
descoperirile
porneste
bulgara
fotb
metale
atomi
global
austrieci
recunoscute
refugiati
andaluzia
ford
gir
ming
intarit
scar
1790
aparute
enum
desigur
terenurilor
retragere
secretarul
dominata
prietenie
aprobarea
fras
hea
##vand
##areste
univer
sector
alfred
intretin
comput
organele
campanii
dispun
luptelor
utilizare
succesorul
memorie
dealu
natiunii
transnistria
shakespe
idea
north
##yan
##imet
fisc
adolf
calinescu
pił
dezinteg
##andute
proveni
drama
pastreze
reformata
raspunde
normala
evolutiei
popesti
bizantina
patruns
tranzitie
cind
hiv
##uarea
cupei
caile
prosp
pog
ray
ducand
pacat
vazuta
mobili
modifica
continea
taxe
lupu
detali
ambii
tehnologia
medieval
separa
adusi
occidentali
raspandirea
jurisd
stapanire
oferite
variabile
cuib
casatoreste
directe
jurisdict
360
roa
##uru
##mund
alip
juca
tokyo
estic
distante
vorbi
ham
luptei
studia
pastor
democratic
extrema
1815
estimeaza
alternativa
masivul
geto
oportun
fillmore
piłsudski
big
creasca
iose
##kow
##jug
cauzat
combat
##das
formatii
intrun
capri
schele
107
muntos
concret
materia
piesei
zeitei
dramatic
arhiv
negli
ocupand
210
punand
asociata
poeti
indivizi
acceptata
filozofia
umbra
reciproc
traseul
kosovo
zug
##ns
##kas
##jeni
##arei
casca
##sig
##peut
numirea
pasul
vioara
##feld
guvernatorul
campaniei
cota
piept
anumitor
tineretului
croati
combate
succesiune
vocale
muncitorilor
expeditie
ptole
gn
hil
puri
seni
##fat
##hu
##gatoare
##jd
delu
##ceanu
alatura
creta
mariei
misiuni
domnesti
##viat
inspe
islanda
senator
lisa
renumit
operatiunea
voievodatul
punerea
mormant
pseudonimul
castelului
prilejul
chirurg
flex
hob
hoh
vandute
##inc
degrad
cauze
preist
##ring
imparte
pagin
navale
##iculescu
tiparit
##jeze
postbel
sprijini
intervent
gazduit
vladislav
oferta
voluntari
strabate
650
##oului
##sian
##meu
##alitatilor
provoaca
popoarele
stiri
picturii
1874
preotii
dn7
examin
chimie
integral
inchise
nazist
refugiat
ambasad
##caminte
tentativa
apollo
shakespeare
##uch
##lita
##eru
anghel
actele
aburi
unuia
bazil
erou
inceperea
croata
gaseasca
luther
conducerii
avangar
deservita
disparitia
calitatii
##ds
##iga
station
##otov
proemin
##iteze
crei
constran
formelor
schw
semnifica
capitan
singurele
##endo
vointa
230
magistr
mosie
soldatilor
1835
raniti
spirituale
1821
demonstreaza
electroni
cheltuielile
subdiviz
hertegovina
aerul
hill
inze
##isuri
prest
impra
mik
domest
rezerve
instanta
coar
banc
telecom
ocupatiei
renunte
obiectivele
dn1
1828
manifestari
intelectuali
##evard
mostenitor
gazduieste
tod
##gre
defic
##right
##reanu
conscript
anarh
fidel
##ethe
alecs
reactii
fatada
folosea
campiei
paras
proiectat
colonel
spatiala
##ansen
inconjurata
cunostinta
melodii
reprezentau
crimeea
fabricarea
omenesti
radulescu
ferme
tas
##my
fizi
aprin
##itas
##orel
persana
relativa
##vial
coloc
continand
##iniste
revel
pozitiei
ideilor
slabe
convin
partidelor
sectoare
secolelor
adunarii
motivele
contributii
arestati
blind
oglin
sicilia
azerbaid
band
##date
##ος
##itt
##unile
##atale
##oianu
##uzie
descopera
104
haidu
insar
domnitor
mentiune
petica
adusa
cunoasterii
oxford
insist
incendiu
repertori
configur
bona
dri
mure
pip
##lon
##gie
##mal
##opota
spal
##vesc
limitate
calific
enorm
pastrarea
240
asigurata
platit
adunat
obligati
legende
rapide
automobil
suediei
spunand
imigranti
sze
##field
##ourile
##urand
##ismelor
##opolit
nagy
carpat
recrut
descomp
omonim
venus
simon
georgi
substanti
prietenul
dominanta
diferentele
montane
mesaj
muc
vene
neof
patrati
divort
pastrate
ferma
ghid
270
vanatori
jocurilor
absolvirea
episcopiei
regulile
stabileasca
capete
constantinescu
trimise
subterane
adormirea
jon
nit
vop
inel
##entului
conspir
raid
##eriei
paz
crezut
vag
calig
colonia
evului
vestic
binecuv
biblia
operatiuni
chiri
lichi
stelele
parintilor
conflictului
constituita
recomanda
impropriet
pne
##isiunea
inj
inarm
##aret
##ateste
##row
rai
imper
nereg
treizeci
spatiale
##renti
solist
divina
paradox
specialisti
ramasit
conving
poeziei
autoritati
executa
deschidere
contactul
trofe
ranit
planete
prusiei
neutr
curentului
anotimp
churchill
tecuci
aq
blo
vila
##hil
baba
orle
elen
scho
guvernele
urmarea
cadre
contradict
informatie
transporta
mosiei
predare
aduc
federativa
##mith
categori
##ensive
regulat
sintet
schimbe
eficient
indelungata
videoclip
kan
you
##utele
##kan
stir
prizoni
admite
##inger
schmitt
depozite
##oxid
saraci
raspandita
conservatoare
benzi
dimensiunile
implicit
lituaniei
lingvistice
cauzate
modelele
distributie
auri
cn
cis
vom
inra
##anbul
##itului
masiva
cedat
deplin
liturg
plasat
prezenti
vizig
cincilea
tisa
indirect
navei
israelului
legislativa
electronica
celulele
entitati
antrenor
autobi
beneficiaza
insarcin
mia
trin
##ppe
##atar
trecat
subiecte
incend
recen
mobila
socrate
aparent
demers
situatiei
had
##own
terenului
aripa
zidita
adevarate
tvr
gradinita
cifre
incarcat
recunosc
regimentul
cog
fag
paste
parinte
bab
incur
orizon
studentii
linux
verzi
practicat
milenii
online
eduard
crestinism
inregistrati
terra
terminata
inferioare
monarhiei
inmult
cauzata
monaco
market
columbia
barcelona
ramasitele
##randu
##dina
##late
conjunct
prelun
primeasca
bah
amon
abre
versa
neaste
negri
urmareste
corpuri
democratie
aplicate
raspunsul
distinge
invatatura
fundamental
vorbite
racovita
aruncat
bizantine
privileg
principesa
sindic
corespunzator
costache
320
abil
zim
##sim
reiese
##elect
romanice
##dale
##erice
scorul
adver
catar
atata
traver
##oreze
istanbul
statatoare
pira
##onesti
sistemelor
concomit
isla
arhanghel
atace
bulevard
260
eliberare
giovan
calugari
emise
desemneaza
determinata
intersectia
definite
portugheza
eredit
ascuns
alecsandri
mt
oi
##cun
##zt
##joc
##unj
aluv
##scar
afe
saturn
recenta
confera
lunile
automat
altar
finele
crizei
nivele
tinerete
sectiunea
interioara
amintirea
fierb
anticomun
introduse
ode
##arhi
##erci
comitat
##urge
leu
1820
populat
miros
sfatul
abol
luata
scaunul
posturi
artistilor
carpatii
introdusa
radical
proasp
curbura
sebastian
rup
##lut
##alis
##ctarea
##dela
perioadele
grecesc
clasei
functiei
balcescu
templu
otra
mosii
aparitie
mandate
inchisoarea
emble
brigada
zdro
##ritei
##enstein
siretului
sept
##roase
targul
nordului
invel
##gio
indepline
adese
protestat
atacului
originile
structurii
drumurile
granice
atribuita
francisco
negocierile
infract
galileo
doamnei
inzest
##ficul
##urea
##gal
##olna
##odot
adanci
aderca
ceai
domnesc
play
presedint
consumul
structurile
practice
cerere
gandire
metabol
minere
spectacul
curente
inscriptia
regizorul
inflorit
imposibil
orleans
adeseori
joasa
##ep
nuvele
daciei
aparate
majoritatii
campului
epui
baltica
server
moldovenesc
morale
desfasura
campionilor
dezastru
modificarea
morminte
efectueaza
mcc
justitiei
incurajat
filipe
sarbatoarea
##dza
##ad
##lis
rem
caselor
printului
##stadt
moes
capod
strain
olte
lucrarii
galilor
functionare
obiectivul
dragostea
song
lovinescu
stratul
amenajat
teoriile
berg
funci
hind
hop
hug
hans
nativ
natiune
##urati
treimi
secunda
##ricul
##uiesti
strazile
zeii
1846
1855
harry
mecanic
terapeut
tabla
samuel
referitor
incadreaza
civilizatia
debuteaza
judici
##ław
bum
mg
scept
vent
##uata
##enne
##orva
##ptun
regi
aderat
confrunta
suprarea
coloni
vestice
ciuma
pastori
iese
arhitecturii
satel
procent
izvora
dealurilor
inregistrare
programare
brow
aprec
ritm
aristoc
frankfurt
maestru
saxonia
oricarei
muntenegru
joace
line
odini
##vanta
##inarea
##ilian
camil
##otica
protagon
compunere
multimea
sudice
functiune
imun
stel
massa
conduca
pozitiva
beat
simet
1852
muzee
observator
groza
mosche
stransa
mixte
dacice
maritime
manipul
indragost
giovanni
odinioara
fat
ig
lis
oas
##mane
##wan
##ery
alg
##laus
armat
acvat
intrebu
eltin
moduri
expus
turb
101
straina
solurile
bancii
theod
neap
etnici
buj
sustinand
programele
1844
280
interesat
reformele
definitiva
obisnuite
separati
prevazut
infrant
laborator
triunghi
roset
christian
bari
cim
##kia
##zatoare
cura
##imile
apple
catorva
caricat
legume
abra
altitudini
epic
sursele
asociatii
continuarea
semnificatia
usur
alpin
walter
suplimentare
teama
registrul
arondata
accelerat
empi
scufund
euc
fane
micul
win
##pun
##shire
##kre
##erarii
##siana
##urandu
##ivi
romanci
neintele
secunde
celula
populata
stepa
proceselor
fabri
esentiale
civili
noteaza
femeia
1838
donat
antrena
carpatilor
boierii
constantinopolului
permitea
matematice
oferind
gheorghiu
suprareal
bica
##iche
impuse
paine
regii
admis
aparenta
moldove
##beste
gram
agentii
cook
oltului
mancare
##fav
corecta
democrata
victima
mecanism
materialelor
perechi
cablu
finlandeza
privilegii
confruntat
##eb
##arist
##enari
rete
rect
consi
##aras
paza
partii
creatiei
pusti
elita
aseza
dezvolte
soluri
conventia
bogati
democratiei
heliu
juridic
goethe
magnet
urias
holly
contributie
cautare
talent
desavar
cr
gui
##inice
##strul
##orde
unicul
##vesti
filologie
103
agrara
marian
persi
asezarile
institutia
porum
promova
poemul
padurilor
herodot
finalizat
molotov
patriarhul
densitate
##orthy
mesopota
330
box
cler
fum
him
voie
zola
##dare
##uer
##lata
stras
arsen
primite
##vela
deser
minor
##ativele
colin
difuzat
telef
pictat
materiala
cucerita
campionatului
cosbuc
ciclu
aerian
episoade
mijloacele
traduceri
conferinte
pelerin
heterosex
##ziilor
##oman
neptun
margine
patr
fostele
##entiat
transpar
politicile
inglob
otomani
parere
buzaului
mandatul
electronic
axei
tunuri
contemporan
scandal
greutatea
stramut
dumbrava
meteor
qui
yu
inn
##ruri
mauri
mez
bay
spori
##terii
origini
daci
calda
opozitiei
finante
interf
concord
oastea
east
arhiva
resping
costin
rusesc
diferenti
departament
tunel
meciul
statistic
chamb
provenind
neolitic
credinciosilor
hiro
declansarea
potentialul
bert
guri
ruta
##dos
inele
analit
pole
##izari
mearga
nema
lucrul
indre
insum
neavand
exterm
executarea
acceler
parlamentara
roata
delim
padurii
1814
festivalului
dieta
monah
amploare
regaseste
sturdza
college
bie
isp
smith
##inoasa
##ito
##umati
##mberg
infa
relateaza
taiat
familiilor
costesti
paralele
renunt
penit
desfasurarea
inregistrari
3000
oceanului
teoret
tablouri
exprimate
sultanului
einstein
flam
lon
nip
pita
##fan
##opt
##vii
##yai
##ск
sier
##ceva
##taj
##otii
preveni
bach
carn
armistit
cerul
privit
grupurilor
editor
trecutul
lipsita
poem
distruge
umid
operatii
ocupau
fundul
declaratie
lansate
televiziunea
berlinului
nevoia
marturie
autobuze
adresat
imbunatatirea
virtut
fratilor
concomitent
kh
consist
arbu
numi
##erie
pactul
asiei
indraz
folositi
pragul
interog
##otehn
sansa
##oniene
odob
tinere
roluri
bibliei
alcatuiesc
succesive
rezistat
etaj
##hory
discutie
celebrul
paralela
instaurarea
prabusit
dificultati
normale
aspir
pand
##iada
##elo
##uay
##ureze
##ghea
minima
##tirea
supor
plastic
decizii
editat
apere
tinuta
bathory
comunistilor
platoul
continuand
1806
navele
gasim
permanente
cultivate
sublini
dragomir
emancip
480
fia
gon
galit
umil
##ital
##eapa
##ocal
exterioare
comunal
pache
spart
chin
populatiile
valeriu
scapat
cuprind
intervalul
observatii
invazie
invaziei
prefer
1829
eforturi
aranja
beneficiat
companiile
eventual
boris
frica
jert
ny
##mart
##teb
dinu
alcal
##ilesti
comunelor
trecea
bucati
culturile
disting
altceva
102
numerele
insulelor
acordate
evreiesc
##kien
1853
inscrise
mandatului
rezistentei
concepte
gott
anexarea
indepartate
simtit
suprafetei
tulburari
virgil
intrebuint
giul
gratie
rh
##dite
##soara
##ls
cuba
arge
regilor
adri
mih
caran
##bela
principatul
capitolul
balan
grupari
bazin
bunicul
cercetatorii
ont
autoritatii
imbolna
uneia
mostenire
restabil
legislativ
discuta
straturi
trenuri
suflete
favorabile
criterii
consacrat
sibiului
uniform
parohiala
coz
dori
hib
kas
pata
pert
##bis
union
sacra
pline
putina
intrand
legale
##anuel
##chian
plasii
directii
consuma
putinele
vizibile
hotare
raportat
dj20
helsin
stelelor
gotic
descrise
galeria
districtului
isaac
protocol
dick
py
##mile
##vate
estetica
comite
##otera
##pad
##ifer
chica
##urei
dacilor
amara
calvin
##bescu
folosindu
urmate
##ierelor
anglic
aducand
divizii
karol
separarea
cluburi
desemna
prusa
radacina
electoral
funerar
cc
sole
##sol
##inea
death
silezia
##iew
aron
impot
pak
spera
spir
spuse
supusi
indiei
muntoase
##atiunilor
cincea
realizare
convers
liberale
moral
##seala
facto
demonstr
intelectuala
asteptat
strategica
rareori
distributia
reparatii
longitudine
gimnaziul
metafiz
feudal
zvon
versailles
dorm
lyn
purit
##mu
##wi
##iele
reusi
sediu
fosti
intari
aval
ord
bih
inceapa
eliade
actiunilor
##off
campan
localnicii
scaune
motorul
united
institutiilor
informatiilor
stiluri
argumente
extreme
nuclear
saraca
obisnuita
revolte
terestra
inscriptie
iernii
audio
science
lagarele
erupt
sucevei
binecuvant
usurinta
hollywood
berna
cct
wi
wat
##mand
##arna
sion
##uiri
dintai
start
stinga
##ilele
afro
marine
marcate
bisecti
anticip
caram
rusilor
schimbarile
influentei
extras
gherla
promulg
identitate
identificate
exacta
georgescu
inaintarea
desfiintate
azot
vineri
constituind
apuseni
derivate
didactice
laterale
dreptunghiul
helsinki
mute
nori
zice
##nel
##cre
ladis
casp
anx
comen
podu
##isu
##opolul
asemeni
##ozitatea
astea
gresit
inver
planului
decisiv
emit
arabil
obtinuta
optica
amintim
monedele
dobrogei
tiberi
luterani
atelierul
disponibil
dovedeste
pierdute
universale
ae
gole
oda
##chea
urcat
dadea
amir
eclip
fosile
cazurile
portiune
ital
planet
##onian
contractul
plecare
##nicilor
platform
costurile
povest
tatarilor
coordonate
inflori
coastei
hrisov
fet
plen
roca
wright
##pina
mast
acelui
autorii
specializate
paltin
pension
executati
comunistii
atribuite
integrarea
batrani
climatice
aeriana
gazeta
pierderile
tolkien
filiala
dictionar
380
bov
horthy
iod
ps
##sari
##inate
unice
##urich
moderat
##torii
limbajului
indicat
devenita
valuri
colegiului
cancer
materialele
1842
monumentului
constitutional
episcopii
nevoiti
florile
tablou
reintors
jules
circumst
medicamente
vecinii
gratuit
leonardo
school
cctld
biti
cs
sut
##kon
##zist
##zlo
##enci
##umita
acu
paj
parf
time
daruit
nasta
trimita
hamil
placi
masin
scape
niveluri
bolii
gher
1845
identificarea
1851
rosc
judetene
determinarea
reliefului
dispozitive
tribunalul
enescu
ileana
ptolemeu
biv
hub
oma
##dorf
##zarii
##bro
##atri
##descu
fixa
##icienii
trepte
orhei
##ves
ulterioara
imi
gramat
antig
marturii
includea
banci
domnit
moderni
hotarele
constituirea
executate
batalii
transformare
filosofiei
colaborarea
seaca
stranse
emisiuni
trasat
fortificatii
deputati
records
preocupat
stoica
mahler
diametrul
mlastin
interzisa
johannes
fabricat
bes
ege
lana
viu
##hina
##cord
##omor
pren
fiinte
rascul
mex
chir
topul
solul
piete
viziune
volga
##imentare
colectii
superiorit
domeniului
vechilor
aparitiei
biblioteci
sfintilor
mutarea
botezat
nominalizat
champ
eseuri
suficiente
furniz
vehicule
asasinarea
controverse
ferestre
dionis
conacul
iosefina
##lii
##mie
##leni
lav
##cee
##sef
romul
##usului
##uresti
asediul
ceas
autop
luchian
valorilor
presedintia
##lius
contrar
interpreta
stapanul
ludwig
globala
exercit
notabile
rares
diametru
cercetat
apogeul
bres
cort
pist
lamp
cahul
##scent
##memb
vazute
traiasca
despa
greseala
guverne
tarzie
proteja
arama
bunurile
informatiei
##rosani
cucereasca
vladim
succese
serios
calugarii
coboara
impiedicat
datorat
abordare
regasesc
prosperi
atelier
ceremonia
averea
chicago
hote
irig
slan
##mr
##vina
come
##ciune
calificat
stav
corvin
activi
sarcini
tipice
popovici
inlocuirea
episcopia
profesorului
alimentara
condamnati
radauti
ceramice
trimisa
sultan
pontific
livezi
vitamina
ierni
tanase
etiop
neregul
fres
iorda
juni
sv
capet
starii
stock
##lag
propul
##male
afgan
adit
ministe
coinci
semnata
dispute
reprezentative
iulius
ismail
negativa
transferate
functionar
albastra
bolyai
acordarea
floarea
vieti
comisie
divizie
imparati
1831
1834
1832
trole
destinata
dictat
muncitorii
calatorit
dumitrescu
meritul
incorp
expeditia
comedie
antonio
nenumarate
##kreis
ht
lilie
urilor
##vna
locuieste
amin
amster
confund
opun
pamanturile
sotii
desfasurate
dinaintea
fizicii
metalurg
zonelor
descriere
slovaci
holoca
strategice
protejate
janos
vizibila
egipteana
cadav
royal
ungheni
850
ritul
zurich
##oba
##mint
##jk
unora
##imba
sustina
stup
figu
##diste
##ernic
vesti
aderarea
vib
mila
ecumen
ajute
antici
prezentei
zeel
decesul
rezultand
materiei
##scher
pomer
pronunta
carbun
funerare
interbelic
australi
meglen
indrumarea
fs
##ten
##colul
##arcat
##chip
regizat
teologic
baden
##hes
intervenit
economici
produca
divizat
celorlal
fondului
extens
scolare
constitutionale
logod
ungureni
##metea
rotatie
benz
harti
semif
articolele
insotita
sorin
peisajul
revendic
dedicate
crasna
rara
nete
sparta
spanz
incepuse
oricarui
daun
tarn
tarm
tox
genit
moda
supuse
astr
localitatilor
armatelor
instr
sangele
diferiti
contest
1843
bratis
eroul
diacon
democratica
experimente
bordei
gasita
stiintelor
organe
sinaia
baterie
catedralei
precadere
vladimirescu
gib
irina
murala
pig
##port
##parte
##cor
unchiul
rebre
cupt
albi
##ocen
prid
duh
tect
constand
tarmul
scriitorii
stabila
armele
varna
sarate
cartierele
utila
plantele
datoria
scrisoarea
informatia
ordinele
dn6
parcuri
atacurilor
1809
tatarii
incercarile
presupus
intreprinderea
contemporani
celebre
profesionala
1733
amplasate
electorale
provocate
negustori
corespondent
frumusetea
excelenta
vestigii
telecomunic
hes
mish
ofere
ration
santi
wood
##ualitate
##zati
derul
savar
##umann
strug
##oth
poien
urs
league
##ghei
gasea
corb
imobil
numitul
##endente
adapo
premiile
dinamica
diviziei
##board
afectata
infrangere
botosan
boierilor
grafica
solicitat
electorala
lituaniana
credinciosii
kreis
algorit
rosetti
lomb
##moto
##rite
##imar
##isor
##ptata
##odia
incru
formeze
estice
aparatul
center
cateodata
numerelor
tehnologii
acordata
cercetator
1847
colonelul
1836
tatar
conservatori
proto
sustinere
implicate
revolutionara
climatul
insecte
hidrografic
tabelul
gul
glas
##tiu
##ity
##ison
duble
dama
recomp
viza
suporta
etica
##osesti
principatului
absolvent
inregistrarea
popularitatea
regulate
chinez
cavaler
distribuit
vecinatate
alfabet
gradini
proportii
intalnirea
purtau
faimos
iugoslaviei
copaci
vacanta
kor
nk
omn
##nera
##ienii
##cenii
incident
saget
##ateasa
vasta
traficul
viru
##rick
autent
supusa
scoarta
paramet
reprezentativ
intelep
constructiilor
cercetarilor
drumurilor
##baldi
sosea
extindere
dragos
uciderea
imparateasa
atribuie
popularitate
1775
legislatia
elementare
norvegiei
implicarea
negocieri
alpii
expansiunea
fotografii
gestion
troleib
hann
jen
trun
##niei
##fer
##ht
##bot
##jud
##omi
capre
ped
##deanu
suzer
nuvela
##oiul
darwin
misca
1750
decern
urmari
crima
frunta
arabi
bunurilor
podisului
arip
crestinii
exceptii
1839
antioh
manual
voievodului
portugaliei
berlinul
cicl
monarhia
ipoteze
exprimare
finlandez
franklin
triumf
pretioase
necropola
calitatile
how
hisp
muse
##enos
##andru
pretex
rak
##alea
subtire
dacii
etern
##hnea
##rome
organizatiile
pamanturi
informat
pasarile
alcatuite
definitia
logof
occidental
prona
israelul
intelectuale
protestante
radacini
cenus
purtate
urmeze
datorata
negustorii
marcus
balcanica
laureat
colocvial
sd
##vata
##star
presiuni
creanga
infan
razbun
opune
reprim
finale
transmit
cartilor
masurile
prezentarea
portretul
studieze
ramasi
nascuti
interval
1792
afecteaza
doctoratul
adoptate
permitand
crescand
trecute
prevazute
rezolvarea
garnizoana
heinrich
convorbiri
hiroton
ladislau
mishima
370
nice
rational
##dana
##dha
##gma
##atu
stins
##ilescu
primita
ass
aprox
conferit
##belor
ruseasca
insarc
mentina
podului
preluarea
vinov
inlocuite
parcurs
neput
benedict
riscul
factorii
anexat
esecul
ochiul
orchest
concursului
oarecum
avionul
uriase
standardele
uranus
sunete
amsterdam
semifin
410
ascut
sera
yoga
unanim
alumin
##deu
##sih
##urne
faget
pagu
##ziene
amand
candva
inceputa
filiale
aflam
##bec
guvernarea
principatelor
##ografii
##ografiei
reprezentantilor
salvat
sustinute
mijlocie
pasarea
egalitate
amenda
1837
focului
bloca
blocul
spanioli
atomic
sanatatea
teoretice
picioarele
varfuri
traduse
dobandit
##ferice
interzise
compromis
anxiet
mcl
##ст
##tehn
lase
##ctoare
mail
intins
acomp
##diana
ameli
##ibal
istoricului
count
postmod
ramasa
canon
proprietarul
pasuni
ingre
sectorului
290
acoperisul
conducatori
remarcabil
elimina
provenite
elaborarea
afirmand
intrebari
fagarasului
catunele
simptom
management
stramtoarea
kazah
marketing
celorlalti
insarcinat
430
noma
ose
orele
##sind
##itari
ses
alia
algeri
##lace
proiectele
numeric
compati
infern
bisect
abd
enz
generali
dispozitia
actualei
serveste
vanat
codice
cursului
logarit
semnificatie
chiril
rio
emisiunea
rezolva
picior
izolat
imprumutat
plaseaza
boier
bratul
audienta
##ylv
ultra
transmise
pneum
rebreanu
340
460
atei
dreg
sfe
tov
zor
##inar
intim
acron
intrarii
sfar
modului
reactiv
tama
lumi
eparh
valeni
desfasurare
restaurare
legislatura
cunostintele
house
solicita
reprodu
inlaturat
viziteaza
potasiu
incoronat
groapa
meleaguri
310
nint
##rorom
##farul
##carii
##kar
##iest
##roe
mav
file
##ilei
##dau
faima
numeau
##aleaza
scal
times
2020
generatia
dreptate
1400
porti
##alizari
revina
mitul
##owa
aliante
iveala
focsani
seriei
spiritului
circulatia
##fida
falsi
calatoria
mutata
sentimente
profesionale
impaduri
ponta
uscate
islamica
biroului
ahile
mitropoliei
listele
hugo
chamberla
##tle
##ous
##aros
inci
##inov
auz
suger
stop
faze
imprim
##mba
poli
viitorului
astero
propuse
disney
colective
complement
muscul
pictorului
preluate
profit
dobro
carolina
opereaza
compozitorul
tatara
sarac
inconjoara
pereche
repetat
diece
tuf
lespe
soroca
cantaret
adresata
reorganizarea
arhiepiscopul
sublin
neutroni
sergiu
garibaldi
chamberlain
glo
hoar
wo
##vare
##yu
unificarea
fostii
neuro
##bad
parul
spar
intrebat
##catoare
infin
formei
feuda
agentia
solomon
##romul
exemplul
organizeze
permita
numeroasa
muscel
##itudinii
##itudinile
crestinilor
notat
copilului
1817
integrat
primesc
1789
semic
entitate
ponderea
fonetica
traducator
interese
tradare
gavril
ignor
refacut
hotaraste
figureaza
bure
##jar
deop
dinoza
cav
pesti
posteri
##nest
istrorom
statuie
cultului
tabere
artific
bang
neac
intalnita
polonezii
vanzarea
##ough
congreg
pierduta
blaga
serial
heliade
controlat
dictatura
scotiei
remarcabile
remarcabila
##opere
macedone
renumita
intocmit
tramvai
caucaz
cambridge
imbunatatit
toyota
infanteri
420
hod
zen
restit
caf
implin
celsius
actionat
tranza
navi
asf
game
explicat
metan
cote
##otesti
adept
datat
decebal
ruble
postum
best
arhitectului
granitelor
combina
controlata
continentului
monarhie
clasificarea
cehia
slavona
protejata
deplaseaza
potabila
abundenta
izvoraste
nintendo
ascul
award
citat
fern
jand
out
##tit
##hot
##cui
##cim
##gru
##vy
ingra
sigh
lauda
nest
nepre
tepes
##oire
chile
credeau
bucata
greceasca
1100
##gerilor
studente
deciziile
bucium
coloniile
municipal
unitatilor
izvoru
copilaria
rotunj
vulnera
consemnat
adaugarea
emisfera
evanghelie
volumului
opinie
tezaurul
personajelor
salbatice
botanica
urziceni
bratislava
smar
tart
common
##cai
##arian
teologice
populate
marfa
##tian
persan
realitatii
masur
ultimului
studierea
liniilor
omenirii
rezultatelor
tratarea
profunda
impartire
esentiala
tiran
interpretata
solutia
reflex
vorbea
cinematografica
desenate
cheltuieli
renasterea
talentul
cabinet
culmea
institute
rutier
forest
bros
dc
dy
fante
high
pia
##dii
##lati
##zn
inrol
##inici
##anat
cehi
stric
##rine
fetele
green
demografica
##hiat
incaperi
localizat
ajunsese
electri
echipamente
sotului
colonistii
magistrat
sectiune
operelor
adunari
indiana
compozitii
dimensiune
prefix
presupun
frunzele
instalarea
eliminat
conflictele
fantanele
beth
elaborata
suedez
reorganizare
bisericeasca
vaduva
human
vizibil
iubirea
coruptie
redenumit
dizolvarea
ocazional
neglij
sna
##rar
##fra
##yo
##aldi
##ieu
##olii
sasele
madon
ceata
pofida
acelei
predea
##osfera
primor
nokia
vacare
arena
nas
nationalitati
centrele
sarma
omorat
utilizand
profita
executiva
jucatorii
batut
divizata
sporturi
colaborator
afacerile
textile
nelson
faimoasa
molecula
vidra
aurelian
dirijor
imens
hermann
miercurea
##imension
mclaren
aiu
row
##tu
##bent
##ates
acei
pricina
##chii
impuna
meh
polul
biroc
maroc
totalit
legala
propozitie
culturilor
turciei
datata
vizuale
cetatile
book
pleca
renume
##ueze
sectio
obiceiurile
votul
sportiva
navala
##velt
migr
protestant
trenul
proclama
novgor
trateaza
habsburgic
zboruri
aprovizionare
heidel
inconjurator
valoroase
auxili
violon
inspector
bila
nunt
shi
##cil
inev
##inari
lagar
##scen
intuit
exteri
##ione
polic
pusca
marci
ulise
feren
nationaliste
patria
antib
valorii
integra
facuse
island
brah
ideologia
englezi
penal
obiceiuri
xxi
parerea
1808
dezamag
intinsa
1791
1784
episodul
rasaritene
ingrijor
intensitate
##tts
gavri
imprejurimi
maresalul
gustav
prelungi
bolog
bbc
calitati
frig
kant
kub
##fund
##goga
##arn
##imele
##chuse
comunica
lectii
parcului
vast
marf
##olele
etru
enunt
expert
deplina
##ofon
organice
rezista
campi
cript
nich
titlurile
scolilor
cercetarii
triburilor
speciilor
concentreaza
egiptene
distinctie
promovare
montan
francis
uzina
##hall
bolsevic
bolsevicii
expansiune
nobiliare
izotop
vatican
tuberculoza
arhivele
bonaparte
saselea
heidelberg
inevita
gine
gorg
hate
ico
pura
##oid
##200
##inen
defect
##enha
##oturi
armelor
secul
expune
solide
directiei
muzicieni
motoc
defile
actualului
bolna
tinute
proced
participanti
sprijina
crucii
jucatorul
gloria
interesant
precizeaza
povesteste
ameninta
potriv
iustinian
succedat
acoperis
lansare
afectate
varsarea
strategic
manuscrise
arhiduce
stralucitoare
standarde
cenzura
antisemit
darius
fut
##kovici
##vard
incid
##inu
##rida
rey
conse
prezi
comunitatilor
avuse
leone
satenii
taranesti
gaga
coli
artista
##chester
valid
haine
denumirii
privitoare
muzic
functionari
democrati
##rison
tulb
grafice
eseist
inaugurata
maritima
magazin
vanturile
incetarea
vanzari
##holm
ingropat
bicicle
iezuit
abraham
uzb
vantul
##nele
##itatia
simul
curaj
arch
##osit
scante
##idon
ursul
orb
atlet
vazand
actorul
##ziana
undeva
opusa
reporta
taxa
caraib
sistematic
plasi
solu
denumirile
atas
personalitatii
mentiona
vanzare
codreanu
precizie
observatie
renascent
cauzele
turnee
suficienta
bolsevici
amenintare
traseu
fiction
refuzul
meridion
spionaj
iordache
##chusetts
560
dante
mug
oran
##zari
prolet
fiice
creand
obeli
dasc
##zburg
opuse
provoca
masoara
petrov
neamului
##sso
modernizarea
pasare
texas
vincent
pann
biblie
fals
incheia
botezul
nobilii
fonetic
elevilor
ruteni
echivalent
white
respinsa
tarnava
##ylvania
ateri
##wo
##yas
mao
##deo
##istri
##cirea
artele
acorde
teste
baiat
attila
plati
calmat
pius
guy
inval
cerand
prag
urmatori
formau
java
prezinte
draga
dramatica
gruparea
verbul
transferul
beck
bust
sloane
zadar
promis
artistii
punea
orientali
glori
interventie
pompei
comandat
conceptie
sarace
apropiati
continentul
nevoile
lennon
flacara
profesionist
intalnim
jurnalist
asistent
aprobata
colorate
furtuna
umede
detasa
sodiu
bulevardul
icoana
gun
gua
oferea
tora
##vis
##aron
##icole
##oller
maiest
intindea
locuire
aler
acv
doina
regiunilor
chilia
monitori
dige
##ozei
sardin
portii
grupare
miscarilor
originara
onor
operatiunile
##phia
compozitori
nepo
insemnate
dominic
francezilor
continentale
manifestare
inscriptii
izolate
intereselor
intrebarea
stadion
intemeiata
uriasa
bernard
rachete
thail
politehnica
reedit
pactului
gurion
asteapta
hamilton
ou
she
##lum
##work
##wald
##alilor
unghiul
reia
cuvi
##tas
##scha
anne
##lac
##icesti
1810
totalitatea
##nedy
claudi
depun
grava
semneaza
consoane
etnii
recunoasca
minoritatilor
magurele
reformat
ucide
aspectele
versantul
terti
autonomia
suntem
##ochim
alternative
privilegi
variabila
icoane
ambasador
balcanice
africane
dictionarul
reputatia
billboard
departare
petrascu
stravechi
massachusetts
holocaust
feudale
440
dandu
hele
##uzi
##aritul
##rimat
##eng
unu
alsa
pagan
orga
##ificarii
altora
diverg
##fact
perpet
inalti
salari
telegraf
specializat
echipele
pictata
personalitatea
detinute
corespund
naval
mecanice
atomica
cavalerilor
emisa
stapanirii
vorbind
avansate
lucrau
kennedy
ruptura
indonezia
consecutive
trandafi
lisabona
moldovean
520
540
ay
esti
nansen
vantului
##oscute
##cana
##mine
provenit
poarte
##rane
doresc
##iferi
subie
diana
asediu
minore
istvan
modalitate
turk
medalii
##ctee
##ovescu
functionarea
slavi
bolta
proprietatilor
bulgare
serghei
constitui
absur
tutun
colab
extinse
simbolizeaza
canadei
efortul
clasamentul
halta
1793
laszlo
landkreis
candidati
explicatie
fortificate
inamic
amplasa
##ordinea
deceniul
amanunt
discipline
organismele
dezvaluie
klein
penitenci
despagu
lob
sle
##yne
##°c
inje
##retele
##itilor
sighet
##imon
##otilor
juan
babes
obse
misteri
desin
specia
##ozo
replica
turceasca
internat
sang
latimea
complete
sistemati
picturile
apartineau
colaboreaza
cetatenia
1833
viteze
cavaleria
stelei
ofiterii
florian
comunicatii
valah
1717
datorate
armament
favorabil
salbatic
cheltuielilor
inconjuratoare
incredint
390
boh
##dg
##fl
##uar
##cod
##ен
deces
##redit
law
lacu
raf
locuia
##idia
##ions
##operind
compun
formarii
ploaie
mihnea
lucea
rezon
praj
nicol
decisiva
pictate
criticilor
nisa
exclus
secretari
##clit
metam
musulmana
protestanta
despartit
supranumit
fecioara
odihna
perimetrul
clement
dune
ml
pica
sume
##bern
##andei
##lete
siri
##ead
##sida
pasi
primarie
subvent
obice
##mantului
reales
altarul
majoritara
termica
productiv
stere
porturi
portiuni
peru
colectiva
sustinatorii
##schw
##schimb
orientala
maluri
tensiune
arheologie
particula
metalic
concentrata
mostenirea
imaginile
premier
bibliotecii
peretele
cultivat
buddha
ucrainean
ducatul
cipru
sondaj
imprejurimile
boemia
paginile
parfum
amandoi
630
hur
sza
##hoz
##arind
scrut
impro
##odului
mega
neu
lew
pascal
adanca
submar
amor
amando
tam
strapun
dispunea
epig
fondarea
variat
otomanii
etaje
serialului
1783
tighina
combinate
memoriile
clark
statutului
exilat
islamice
exprimata
maritim
neintre
suveranitatea
ureche
restrans
koln
egiptean
mozart
calmatui
##ollern
610
aa
dil
gan
kom
rene
rela
spons
polig
infil
forum
tactica
inainta
antar
solara
lucrand
organizarii
efectua
venind
servi
bazinului
pastrata
canton
realizeze
contelui
contribuind
zidurilor
sigil
cinema
gaseau
##formula
promoveaza
intreprins
premierul
dambov
determinate
sufletului
sinagoga
sarbatorit
fictiune
tehnicile
ardealului
triunghiul
proclamarea
constelatia
foioase
indeplineste
amandoua
570
boz
cnea
foresti
gov
lantul
oro
##deni
##fo
##ualitatii
##ibil
##gs
##vic
sist
##ceste
reb
cucut
##uman
##cio
##ciului
##ream
##ario
necul
pauza
tematica
trez
monica
desfa
opreasca
nationalitate
guine
invita
libr
albia
disput
senatori
neamul
postului
constructiile
informare
convoc
simf
zav
participare
academic
executie
mosiile
succesiv
aminti
1802
heli
sunetul
standardul
strategia
reflect
nobililor
nominala
fortificata
cenusa
torino
varietati
patrunde
straluci
ineg
redactat
inlaturarea
tropicale
liecht
ceremonie
margareta
hohenz
cv
gil
gut
hier
kent
vanda
##nst
##pl
##aton
##armon
laburi
sapi
maselor
ann
auzit
rafin
##oian
afili
complot
noct
traia
viking
euf
1770
astra
grecilor
capului
poti
##inius
indea
lupul
solida
##alizati
detron
salt
cultelor
puternici
rosia
informatica
tribuna
silistea
acceptarea
psihiat
integrala
tronului
1776
distinctia
controlului
controlate
restaurarea
imaginii
psihologie
evanghelica
increderea
mesajul
arestarea
declinul
dramatice
nastase
campioana
490
470
if
pista
##ymp
##arch
##atesc
mase
##alaure
fixe
temei
vege
##ariilor
obsta
call
abur
columb
code
cojoc
##grama
ciop
sarm
localizata
##ender
deform
buce
tinea
convocat
participand
colonizarea
combinat
poetica
acceptate
clasifica
implicati
petrolul
radacinile
armeana
cantecele
corab
citeste
neofici
moesia
nkvd
naviga
obiceiul
660
840
esca
erei
fone
poc
qua
##kins
devi
##icz
##omorf
intun
##pete
stim
numeasca
neand
sateni
##orer
femele
##neanu
1780
propusa
trilog
crisului
divine
parasch
micu
islande
salve
negoci
emir
aripi
della
dn15
congo
detinuta
mortilor
adevarului
intampinat
atomice
temperaturii
protestanti
documentelor
curenta
retelele
nostri
amintesc
loren
demonstra
substantial
prizonier
infapt
caranse
impotri
##bentrop
950
rip
##uros
##his
##mii
##rima
prev
apuse
basil
atana
sfinte
gaura
##ritatea
campuri
bucurestiul
parau
existent
functioneze
casin
natala
sustinator
profunde
veniturilor
geografia
folosirii
cronici
homer
##sell
lesbi
deplasarea
agrement
andrew
imensa
refacuta
ribbentrop
impuscat
feroviara
droguri
hannibal
hohenzollern
vegetale
780
calit
fit
list
voca
with
##ament
##hon
##vu
##rene
##unilor
seva
maha
##atire
alese
duse
ateni
compart
limite
genetic
##ritate
##ofil
geologice
olig
##ficarii
permisiunea
suferinta
bogatia
procedura
##nicului
textului
obliga
comitet
eliberati
detinuti
intindere
tinuturile
evanghelia
intoarcere
exercitat
secundara
amenintat
ucrainene
adaptare
dublin
bucataria
ateliere
prestigiu
eur
gula
horm
jila
##dr
##jos
alas
spatiile
eli
202
recr
suportul
eclezia
indreapta
epope
iasa
austral
culte
stabilitatea
belgiei
stefanescu
1841
academice
transportat
dominatiei
filozofiei
natiunile
planetelor
leip
cucerite
evanghelici
teorema
maramure
ritmul
rezervatia
reusesc
respectarea
circuitul
ingusta
pitag
cucuteni
##para
##yle
lactee
##utica
conjug
##pez
##ivul
exterioara
##iciul
scoase
##indeau
regate
monitorul
descendenta
##obe
schite
straj
interdict
##utere
munteni
martiri
reveni
originii
natur
cruz
preotilor
roose
episcopi
iubire
hercul
false
influenteaza
inspirata
cunostea
pericolul
articolului
coalitia
echivalentul
##hoven
frumusete
transmiterea
toleranta
lyon
prevederile
extraordinar
feroviare
artificial
break
vocabul
leipzig
ciment
##denta
##ioase
##xul
inut
##inca
##rest
##ichi
##olare
sag
neoc
atc
vaz
monumentele
tracia
recre
greva
urmasi
hamburg
oliv
##atoarele
##alizeze
tehnologiei
tinde
memor
capabile
aplicatie
##illon
tinutului
lacurile
palestini
1795
elvetian
merita
frontierei
comunicatie
producatori
tendinte
imprejm
faimoase
concertul
navigatie
deplasare
juramantul
bacalaure
aprovizionarea
festivaluri
iobagi
concurenta
comasate
computer
primordi
670
760
hanul
rov
rinului
wol
##tilor
##veri
delic
dedica
##olar
##ott
##anto
regas
subordinea
nasc
haw
martori
##jamin
sufer
tehnologic
onori
socialismului
georges
democratia
tenis
iubi
1803
modificata
ernest
scott
captiv
violent
genereaza
mostenit
prol
maxime
instructiuni
trotki
arhipelagul
eroziune
romulus
zeelanda
pomerania
530
iert
viv
verm
zal
##part
##adi
##uu
##geau
##day
##telea
##velor
marino
##ations
calin
autove
##ganul
geologic
1300
insure
adeptii
linist
petrosani
veneau
alexandr
galia
postal
ambi
modernizare
conditie
cererile
castigarea
parisului
##statt
casatoriei
capabila
group
adevaratul
weimar
metalelor
axi
candidatul
pietris
responsabila
fenomenele
ibn
##beth
cartagine
entuziasm
temelie
lectura
stephen
fotbalul
miklos
galitia
luceafarul
roosevelt
870
ciz
##pea
##uindu
##citatea
##mun
##jna
alpi
macin
comise
ramb
iarba
traiect
genetica
##uzii
1760
supern
##had
enter
guvernarii
capitale
##alizand
tiparita
mich
laturi
proteste
musch
nicolaescu
considerabila
timisoarei
substrat
camara
particulele
filosofice
marginile
afectiuni
1787
slovaca
severinului
candidatura
sezoane
lingvistic
pietro
##casatori
cerealelor
piciorul
provenea
arunca
inaltimi
manuscris
consolidarea
pulmon
prutului
verticala
controversata
adulti
veac
rugaciune
musulmanii
nikolai
ascensiunea
diagnostic
domiciliu
magistrala
proaspat
snagov
880
gum
ibra
pint
rate
##vir
##jen
##atran
##alon
unsprezece
laud
retori
##urna
##urtat
fiindu
alegere
comunale
chia
vaugh
formala
oricine
superc
propunere
dent
aires
hab
rupe
infiintarii
problemei
inregistra
academica
desfasurata
posibilitati
soim
americanii
prefata
##andeste
##burgh
discutiile
nazisti
explicit
##ksand
hidrox
tradusa
intensitatea
brancusi
inginerul
lanturi
##xxx
drepte
tetra
sincron
cognit
580
640
930
ioni
pali
rhe
##uscul
##kos
##reana
##sex
macel
cedeze
doug
impozite
virus
autentic
filarmon
curgatoare
##ofa
publicist
infiintare
buenos
proprietatii
##cintele
identice
otomanilor
costul
licee
1804
brusc
1762
constiintei
prezidential
explorer
recordul
principelui
cabinetul
missis
telefonie
aventura
supraveghere
impuls
atingand
sapaturile
editorial
egee
adaposteste
deopotriva
liechtenstein
590
620
830
860
hara
kun
tg
##sova
##mlin
cabl
prele
prelim
##indeni
##gap
bass
secular
secventa
incetin
##ologiile
caldu
milan
luarea
teritorial
##hio
olymp
coperta
dispens
confederatiei
culorilor
posturile
patruzeci
boe
cartierului
respinge
arhitectural
absolv
inlocui
simbolic
sexual
gropi
amintite
brasovului
1818
fundal
normele
conservatorul
desparte
faliment
brown
ernst
varsare
terase
efectuata
refugiu
musulmane
varfurile
reconstit
intemeierea
spectatori
molecule
homosexual
pnt
avansata
favorabila
cruciada
subcarpatii
incorporat
goga
hos
##jun
ingust
##eas
##aresc
##cao
ducea
nemi
back
miro
opon
devenea
caracal
voron
dispre
domnii
venite
venitul
ideii
idecenii
realizari
maghiarii
cererii
asociatie
biblice
cheile
sarbilor
1772
bistritei
londrei
adaugate
chap
evolueaza
consecinte
irlandez
porunca
livadia
amonte
dictaturii
neandert
720
710
breaza
eis
eret
hore
pum
uim
##muri
##ра
##arl
statale
prozator
rome
regent
sportul
tau
membrana
administ
portului
propriei
publicitate
salon
ambig
picteaza
flotei
argil
poeziile
mentionati
animatie
kapp
distruga
arizona
succesiunea
metalice
##bourg
efica
1819
johnson
etajul
atomii
revistele
nobilimea
adancimea
melodie
profesionisti
amenintarea
mehedint
matematicii
biling
impresionat
intalniri
dizolvat
regimentului
aventuri
bagda
ancheta
creierului
510
bia
bis
blande
cane
crat
minte
tif
wie
##gandu
##zzi
##inski
##leze
##eama
##icia
##rac
remi
sasea
savo
locurilor
##elea
##uitoare
obsc
miste
taranesc
##nev
abate
stag
taz
inab
prav
clande
numitele
stiut
bega
materialului
invete
renania
succesor
variata
variatii
mosn
observate
herbert
5000
politicieni
celulelor
inspirate
parohiei
hiper
stabilesc
trenurile
eforturilor
impiedic
amenajate
cehoslovaciei
maestrul
civilizatie
dotat
dosarul
geometrice
cancelar
progresiv
pisica
victimelor
dezbateri
digitale
nebun
reconstruit
chirilic
aluminiu
autovehicul
680
amn
iarasi
ال
##oale
##oarte
##zuri
##arma
fib
acuza
biologice
totale
calul
patrie
turul
invoc
organismului
cerului
clinica
epit
retine
tarzii
temple
influentele
functionale
lucrurilor
porni
hotin
simte
olteniei
liberala
orientat
##ball
##kio
exager
facultati
complexului
riga
elvetiei
hotarare
##sippi
competitii
recipro
avantajul
grant
provinciilor
oxigenul
oscil
consolidat
cutremur
subcarpat
individului
sateliti
cva
corul
ioana
##conom
aurul
##opat
montre
franca
abdic
filmat
distra
medal
antim
lang
impresia
resita
administrare
##jesti
verteb
##ivelor
realizand
lirica
democratii
identic
diversele
caroling
ingro
precizat
unitar
transformari
borsa
declarand
cristos
fantani
##uroasa
concluz
temporara
favorizat
inginerie
justifica
gigant
absorb
instituit
autohtone
sovietul
admira
mingea
heavy
bazilica
repertoriul
meglenorom
suzeran
madonna
730
740
770
arit
bism
jim
uita
##jou
##stal
seism
presiunii
aleaga
incant
##uneste
##zieni
genove
perif
ocrot
take
placut
clare
jacob
mang
pieselor
partiala
dracul
iso
stipul
intelept
##orgy
mijlocii
identificata
polonezilor
reformelor
alcatuirea
extinda
jeff
1807
heral
sonore
preturilor
benjamin
manufact
chinezi
cavalerii
varsov
constau
slavii
cereau
gradinite
coordonatele
starnit
pondere
avantaje
bizantini
danemarcei
cardinalul
bordul
fenomenelor
tricol
stramosii
neaparat
stockholm
metamorf
mississippi
810
eul
more
pent
##fran
##olu
##osinte
numindu
treisprezece
adiac
chei
orala
compens
monopol
darm
mire
nad
statala
claude
gubern
curti
organismelor
hagi
prezentare
adepti
manchester
generalii
socio
venea
initiata
atasat
pierzand
stanc
lipsite
convinga
clujului
ordinii
imbatran
dance
orientata
giur
seamana
calendar
1825
expres
revoltei
repeta
system
competitia
mesaje
macedoniei
eficiente
partener
novi
ahmat
kremlin
nereus
turismului
consecintele
boa
fp
isecole
nan
night
vern
##pid
##arz
caute
##reasa
##ionar
##bau
##zeze
chr
nobile
biju
vasele
##eneste
francilor
febra
gaul
coltul
turcesc
barla
barca
asamb
scrisorile
utilizatori
suspect
porc
ample
sectiei
turnului
unitara
obligatorie
normand
conservarea
paleolit
colegiu
modelului
vorbitoare
tereza
alature
scenariul
burgund
clipa
louisiana
achizitionat
facilitati
mileni
guvernamentala
##ealth
inundatii
caminul
folclorul
geniu
bomba
arenda
eri
jung
ner
zalau
##pal
##hari
##zol
intense
##ovski
basch
conting
ferea
opinii
foste
##cteze
barga
cires
semnatura
baneasa
salonul
tito
cuprinsul
industrii
free
echipament
politico
glod
garzii
credinte
casatorita
dovedi
mussol
detineau
structurale
cetatuia
contamin
phila
1777
profesorii
distincta
inchiderea
grafic
memoriei
iugos
responsabilitatea
expeditii
masivului
afluenti
insisi
##falva
precedat
subteran
dezvaluit
accentuata
muncitoresc
reactioneaza
referindu
provenienta
arbusti
kappl
820
kis
mena
mintea
sarii
tum
trom
##cult
maim
anonim
##ineanu
avari
teologia
baie
##mator
reactiile
##ertis
dezvel
semnate
stein
dispers
##oteste
reprezentantul
bazandu
ramurile
realizarii
lipseste
boliv
personalul
tratatele
podg
dansul
tanarului
ief
malte
procur
pomi
interimar
acoperire
1816
monedei
factura
london
munteanu
dificile
revolutionari
vecini
nobilimii
slavilor
galbena
apostoli
sumeri
electricitate
vulcanice
mergand
examenul
mausole
laurentiu
jurisdictia
mtv
odesa
wiki
vaughn
890
ciul
furi
fura
joi
matia
tind
treapta
##nite
##potriva
##fu
##micii
##yar
##ии
##iter
##unata
##ray
##omed
lamb
mach
fostilor
##oviet
##itescu
creator
eliza
tosc
cerintele
##mian
martiale
copie
sovieticilor
tiparite
popper
##sson
andrea
##ichet
contrare
literal
democrate
diverselor
magne
singap
inscrisa
comisii
##erente
amintita
resturi
departamente
straturile
rezervele
profesional
acuzati
devastat
miezul
sandor
avioanele
african
metropolitan
razvan
imprumuturi
monetara
didactic
supravegherea
minamoto
norvegiana
necunoscuta
aratand
steriadi
tismana
sierra
##istrictul
adi
gent
osp
onesti
##zeni
##yst
interm
raven
##ovu
##anth
parca
marinei
viene
folk
ocol
finalizata
strad
cercului
universitatile
parasi
localnicilor
tipica
consoli
tempera
stabilitate
casnic
contradic
bolilor
voiculescu
dimpotriva
promi
rolului
niob
facultate
pronume
terminand
regular
lasate
florida
clasificata
teoretica
individuala
hidrogenul
horea
circumscript
legionari
sacrifici
descendentii
marshall
bautura
vietnam
mussolini
690
imin
jane
##larea
##univers
unix
##dava
##osh
regen
biologie
##ingham
depuse
grai
famili
ziarele
ridice
resim
portiunea
organizatiilor
vizite
utilizarii
acordului
recunost
magist
pronumele
1813
integrare
restruct
piloti
dialectele
diesel
studiului
##ighet
literele
wagn
birou
suprafetele
sfantu
botezatorul
imbracaminte
##ealog
mitropolitului
abundente
coefici
bariera
html
aminoa
bant
beau
hindu
mum
uk
verne
##far
##vine
inocent
##ank
##oroc
##enthal
stone
##stirea
satan
polare
dio
gauri
intemn
micsor
volta
proteine
adaptat
rapoarte
identitatii
dovezile
adunate
personajului
tulsa
terminate
karate
calugarul
depasesc
comparata
meciurile
sentimentele
slabici
reunite
petrolului
apreciata
prevazuta
comentarii
evidentiaza
farmacie
disciplin
condens
artificiala
telecomunicatii
relax
singapore
arii
cimp
falt
penta
wei
##opa
##aric
##icola
##undi
caine
##derilor
anjou
##pas
fiicei
raional
pav
##ift
creatorul
subun
##ips
##artei
schiz
dezmemb
fox
varste
gramm
campii
anto
urmarirea
intel
materii
##nius
serp
simpati
ducelui
platou
costis
comisar
stalingrad
logic
borde
dominante
geografie
home
despot
interpretate
calugarilor
instalatii
confirmata
miliard
furnizeaza
network
respectat
crimeii
salvare
rascoalei
bulgarii
olandeza
seceta
flancul
nedrept
manolescu
postbelica
neintreru
dile
eric
morii
miere
oua
prat
zel
##verg
##wen
dege
##omul
rept
alin
avra
temele
##ries
##ordat
biografice
incura
##zian
eleg
genealog
##ofob
ilum
agro
intestin
hay
economii
dispare
devot
privighet
duma
fondatorii
fresca
teatre
will
particulara
groen
1801
pretut
pretendent
braziliei
1797
perete
maghiarilor
efectuarea
saptelea
reproduce
cercurile
tramvaie
sfatuit
morav
definirea
golfului
lacasul
cookie
postmodern
artificiale
aiud
piv
sky
wy
##nis
##darea
##hre
##cp
##sla
##mor
##pede
arde
##oaica
basel
constante
populatiilor
amatori
ofensiv
primav
vestea
geopolit
transilvane
crize
epoci
jaf
portrete
consim
institutiei
stanjeni
proiectata
penns
executia
panzer
tiras
exacte
gandit
dezavanta
ocazii
##steacan
modificare
1824
leningrad
umanitatii
trasatura
exercitata
vorbitorii
spectacolul
indeplineasca
performante
peisaje
conceputa
echivalenta
bacterii
analize
company
propuneri
nutrit
zaharia
transilvaneni
armistitiu
ferenc
nepoata
jilava
douglas
philadel
790
aet
bare
joz
vata
wel
wales
##jing
##enda
##omo
secet
aleksand
satenilor
crenel
##enes
viole
confunda
autoc
colora
corni
grame
muntoasa
reprezentativa
tipurile
constituia
lemnul
vinci
framant
hidr
##urnberg
obligatia
vitezei
gradistea
fotbalist
sunetului
firmei
##kovski
contributiile
cifrele
river
budismul
suspici
finantat
bacteriile
intarz
cotidianul
ceremonii
casatoreasca
culminat
boemiei
conciliul
mobilier
trasaturile
afganistan
hirotonit
coliba
920
kong
tant
vist
wit
##hum
##sse
##ziune
##на
deg
severe
alm
##atiu
stor
stanescu
arcul
##cho
primirea
basc
infir
##perii
diocle
miller
##tiri
##gang
scriind
aparatului
functiilor
##usesti
ili
varstei
indoie
plaja
zise
divertis
veneti
colegi
functionarii
provinci
canalizare
engl
proprietarii
zamb
granitei
observatiile
declaratii
1799
pereti
lovituri
descriu
vorbeasca
strategie
maramuresului
izbucni
gimnastica
##ievici
protejat
nisipuri
imigr
adversarii
pelop
satisface
1241
koala
mdcc
redenumita
incalzire
blindate
contradictie
masinile
antibi
pretutindeni
abilitatea
idis
ker
nurnberg
##usca
##hof
##ilul
sere
##atel
##dej
statiile
##cast
raioane
radica
scutul
mest
neschimb
toxic
ceaiului
dependent
1150
oase
singurat
asachi
##sko
percut
schimbata
vizu
defensiva
surp
tehnologice
convinge
programelor
cladirilor
tang
pasarilor
iehova
amprenta
vinul
zidului
corespun
crescuta
demonstratii
patriot
##hammad
combinatii
globul
acuzatii
matematician
experimentale
revenind
mozaic
olandez
irlandeza
segment
infatiseaza
subspe
traficului
sighisoara
scrutin
gaulle
bric
euri
fle
gia
kr
lire
##dun
##pla
##box
insp
mada
intarirea
##urp
preala
fifa
fibra
##chetul
##ido
##ioni
vaste
tok
legati
ceaiul
singure
detentie
trecuta
andor
lipan
sustineau
structurilor
numeroaselor
mileniu
cereb
that
unitari
camer
particulelor
matrice
destinul
interpreteaza
profesie
filozofice
depresiune
1798
farme
cuplul
accentuat
astronomice
producatorul
fluviu
voluntar
tentative
asociere
digital
pantelim
intretinerea
prescurt
pescuitul
edificiu
porecla
inguste
imbogat
intemeietorul
titulatura
radioactiv
romancier
##favora
clerului
mileniului
cric
idi
##ty
##coa
##olan
semant
intareste
nebul
pasti
##anes
spat
spuna
credi
marcand
ober
asalt
generic
scriitoare
sudului
stadiul
evite
campiile
principatele
inaltat
arhime
templului
british
fondatori
functionala
manastirile
freud
##owski
acorduri
ceresti
castigate
dunar
codului
croat
medicin
##oku
simbolurile
desprins
interpretari
deschid
##goe
1788
obiectului
sculpturi
scotian
incheiata
baraj
selectie
caracterizate
plasata
feminine
1716
diplomatica
echilibrul
intentionat
deceniului
catastro
grosime
vizitatori
bush
periodice
seminarul
sensibil
atingerea
refacerea
interzicerea
somajului
teutoni
imprasti
lewis
neoclas
bargaului
940
low
sri
##asi
##hovei
##bea
##ια
rafa
implet
avant
##ider
incun
trac
vise
ulita
miniere
offen
persia
##culesti
schitu
cors
trian
##manul
##hida
sarbe
sarbii
concrete
producand
clari
fondurile
oficiali
municipalitate
construirii
amintiri
raspandire
intamplare
1822
angajeaza
manuel
expresii
planetele
impactul
tezaur
organelor
mongola
nelu
rutiere
apreciate
romantic
salbatica
meserii
pelicula
beius
inrudit
silaba
sentimentul
miercuri
rascum
continuitatea
srl
ambasadorul
emblema
mesopotamia
campaniile
pigment
caransebes
varsoviei
radicale
beria
ug
##danesti
##fara
##cca
##jia
##28
inno
##eale
##ilater
reducere
cust
maini
coman
predeal
##arth
doisprezece
pasiune
##oide
bau
creatii
##fecte
incert
puci
marsul
asea
tariceanu
fetei
calciu
schit
medicul
anth
paradi
ruine
##oniana
nego
teleaj
##inson
conventie
executata
textelor
dinastii
memora
drago
logice
israelian
natiunea
depasi
acidului
supreme
emisiune
##angelo
neutru
alfabetului
bolsevicilor
dezbat
mitropolia
zilnice
1332
clorura
farmac
recomandat
atributii
diversitate
cuantica
simptome
athos
lagarul
nilului
hotelul
grammy
philadelphia
coch
dres
eron
hort
hir
jr
kie
tale
##diei
##inda
sida
rezi
##utii
cafen
sesi
##icianului
dusa
pavil
incore
infrat
misiunii
day
generatiei
gast
oprea
grena
tact
table
organul
cumpere
romaneste
termodina
indelet
sarpe
sarcin
laturile
latene
frant
componentele
colection
respecte
inteleaga
utilizatorilor
##schen
topire
sectiuni
platina
experiente
simbolica
copilariei
chipul
##opolis
practicarea
expresion
gospodarie
sacre
legendele
anexata
astronomie
armenii
furnizat
diplomatic
antichitatii
baptiste
schema
ierusalimului
proasta
implementarea
##hrma
indrepta
bethlen
pennsylvania
910
hul
hoch
kri
mura
rf
##prim
##ulea
inga
##arelor
dinti
unchi
uniti
mailat
anc
anca
##zau
locatii
fapta
##duse
##duct
comunicat
neumann
contop
##hezi
pure
marcu
viorel
suprim
##minster
propozitii
estoniei
vornic
martor
paradis
motoarele
neagoe
brab
defici
beta
hexa
vremurile
stalpi
contacte
pretent
sculptorul
prusac
controleaza
anexate
balada
reconstr
cooperarea
antoniu
toront
adreseaza
tibet
copac
demisi
intarzi
cazacii
suspendat
cuantice
saptamanal
brandenburg
cnez
algeb
jersey
vagoane
asculta
exteriorul
ahmatova
fereastra
inocentiu
jozsef
cp
eoli
fm
jones
kw
moaste
ust
vs
vos
##mala
##veau
##zet
##xt
##23
##ineni
##reti
##alismul
##uile
lab
master
##siste
stinge
##ciuni
fierul
fisiune
mesteacan
baal
spora
ati
aten
atene
crearii
incom
monografia
dioxid
calim
imre
mediile
1130
copenha
matematic
datate
nationalist
nicole
##ess
perce
titlului
lipsesc
danie
reusita
##onstantin
amplu
posibilitate
croatiei
delib
invazii
sefului
conceptului
cotof
integrate
intreprindere
figur
pietroasa
indepartarea
florea
neolitica
metropolitane
patrimoniu
surori
dovedesc
##hausen
escala
rosiori
bancn
oglinda
inflorire
wagner
ohio
sarea
##temberg
##utin
cama
sectie
##rofe
##iness
##feu
##fereau
bibescu
celtice
monstru
visc
##oren
lunar
gaza
piarda
filmelor
##vik
##ofren
invinge
organici
sistematica
plaiul
semneze
bals
privita
##ject
perse
feld
##borg
beet
primitive
deosebi
arhitecti
dorintei
istoricilor
produsului
femeii
filosoful
versantii
protoni
1823
paleont
1785
frontierele
emisiunii
distribuite
legendei
parohii
bugea
##meral
baragan
selection
amenajarea
maxwell
creasta
greutati
albesti
stapanit
fructele
gyorgy
aeroporturi
restaurant
medicament
cardinal
precurs
umple
##ostakovici
compact
iscovescu
maturitate
##cunoscut
associ
stricte
avusese
tiraspol
aseamana
copenhaga
nele
ral
sostakovici
##ffe
##sberg
##kir
##zic
##zice
##zid
##atru
##aris
##stone
##omona
rech
caie
##atif
intri
intind
##sam
proton
alerg
##stabil
##diate
##dium
anulat
cardia
amiaza
asediat
genetice
autorilor
patrici
invitati
##bian
porturile
conferenti
galata
oficiu
cash
practici
belle
uneste
bratele
dorind
transforme
##waii
televiziunii
mormintele
##ffy
sfintita
dinastie
plasate
oferita
1526
africana
derivata
alungat
tragic
diversitatea
reconstruita
combaterea
avangarda
simfonia
alaska
schizofren
pantelimon
960
aducerea
hoc
life
tand
visul
zic
##tar
##ab
##uteri
##sr
##jat
##intul
##orte
##tain
suita
##rinei
##iff
judecati
formatul
actorii
##matiei
incepea
asumat
gab
1720
descar
autoturi
familiar
barsei
jain
petri
ministrii
conduc
asistat
##mark
oltenita
animate
rolurile
sectoarele
shan
1805
norme
preturi
bulgarilor
serioase
universitara
gotica
monarhii
sfinti
seminte
povestirea
menite
cautand
formulat
incarcate
edificii
sclavia
navelor
civilizatii
taxele
fuziunea
fuziune
quebec
disponibila
procedeu
abstract
aniversare
michelangelo
abolirea
capodopera
lynch
claudius
neoficial
dic
edin
fro
grati
ioh
kiss
uitat
vra
##ez
##ium
##ол
##onima
##olome
reme
sasilor
##deg
prefa
exces
##elele
down
##opo
spen
dark
cardi
recurs
ash
viitoarea
tarnav
eugene
gam
##nau
mill
evoc
organica
1140
habit
plac
oaste
banate
sanul
administrate
titus
vizir
bec
beresti
ideologie
descoperire
arabia
contracte
flut
##nicola
coloniale
impartiti
corpurile
egalitatea
interesante
tensiunile
shog
silit
transportului
argesului
preturile
1794
1786
slujbe
parohie
alfabetica
perfecta
decorative
anatolia
renastere
avionului
necunoscute
pietrei
ierarhia
vanzarile
bisericesc
protopop
albaneza
pamante
culmile
ciuperci
accesibile
anastasia
apreciaza
azerbaidjan
virtutea
trunchi
subliniaza
sponsori
binele
joa
nin
pea
picat
xer
##nost
##gilor
##zita
seman
##otti
##ogena
##ioneze
cheama
atinga
douasprezece
##ings
##raft
minele
grece
schita
depline
hawaii
cazurilor
disputat
masurarea
prezan
stanis
manastirilor
liric
originari
sprijine
radiatii
tribul
fabricii
##erenta
ascunde
voievozi
raportului
elementara
artefa
conflictelor
turneului
producatoare
elaborate
castrul
precipitatiilor
inamice
peisaj
finantarea
substantivul
liniste
parteneriat
incredintat
pretins
matase
sufixul
bivol
falticeni
hunt
wurt
walt
##cze
##gerul
##mud
##ар
##ич
lady
##celul
stres
polen
romanov
fast
##ariote
impoz
vect
##aneanu
orf
genera
bucurie
colina
expun
generate
varst
indisp
campina
##ches
marirea
masinilor
baniciu
consens
asezarilor
salci
##ssen
zilelor
reprezinte
alegerii
inteleasa
ambro
nicolai
slabit
porci
vlaicu
diasp
gandhi
##oliza
restaurata
demonstratie
depresiunii
chinezesti
departamentele
suprematia
medias
celulei
ostile
##uciuc
##litz
opiniei
opiniile
menita
galbeni
judecator
dease
neterm
ecuatori
provocand
ferment
imbunatatiri
##ceput
kgb
silviu
mantuit
masacrul
infrastructurii
lorena
reputatie
giuse
destramarea
subdiviziuni
caligula
bahlui
acvatice
aripile
salveze
aritmet
colorado
coca
kare
kel
merit
ric
##ela
##ika
ingh
##rix
cauciuc
sas
anem
strati
press
pasiv
vecina
amar
abel
refra
pix
##itiului
expusa
luati
agreg
vorbire
cazare
pietele
muzician
salonic
component
serverul
conducea
specialist
anumiti
2500
buch
society
mituri
converg
cereri
vlahi
cincisprezece
sigura
indieni
nucleului
intravil
wehrma
1796
sensuri
brej
comunicarea
povestirile
afirmatii
client
concluzie
boierului
inamicul
##ferenta
incadrat
reinfiintata
homosexuale
finantare
portughez
grosimea
zborul
utop
invinsi
cronicile
educational
suferite
detaliu
subliniat
cist
cita
nomen
##pare
##put
##pus
inot
siriei
##rache
aud
probe
##ptate
paune
primeau
timb
partilor
##oplas
atenei
actului
office
persoanei
capra
ocro
##guvern
altarului
1120
balanta
sociologie
vizeaza
pastrand
##scris
ambiti
ambelor
scolara
considerandu
poeta
hepat
dansuri
harvard
transformate
obligatiile
necre
imparatii
born
ungurii
transporturilor
troian
brosteni
competenta
nevoita
discutat
daneza
volumele
statistice
nemuri
olimpic
valabil
islamului
creada
multiplic
delegatia
adaptate
relev
honda
francof
restaurante
fericire
iubita
fructiferi
umplut
bastionul
somesului
udmr
petrograd
tancurile
deplasat
convertit
interventiei
indragostit
masuratori
forestiere
migratiilor
sapiens
montreal
diocletian
grop
hora
nica
osi
ocul
ts
tic
##aceasta
inexist
##riile
##enh
sebes
sao
masca
arsa
faurei
lech
atatea
orasenesc
pusc
elog
obar
legiunea
paturi
etiche
1660
indatori
metalul
old
ruda
suferind
contraata
arghezi
podis
##uela
interesanta
##urnal
comandantii
rotunda
mosteni
prototip
mecanicii
tinuturi
locuintele
geneza
izolata
1453
manuscrisul
surprins
hasdeu
utile
puii
street
subordonata
hoteluri
perceptia
indeplinirea
margaret
retinut
conscriptia
privilegiile
curajul
tiberius
kazahstan
motocicle
uzbek
arhimede
hong
ien
uta
##fox
##cinat
##vana
sider
laura
cumn
auschw
##isia
##dae
acc
pascani
primea
##oper
basca
sporit
##fest
carnea
1711
minime
moderata
principiului
ecosi
finantelor
principat
principiilor
plastica
productii
bald
motorului
asiatice
ambul
##ohoi
utilizator
utilizatorii
mitologie
england
flond
plecand
participantii
fizician
##key
codru
substantele
alcatuire
doved
imparate
pomenit
napoli
silve
calculul
troia
evidente
profesoara
depresie
modesta
cuplu
japonezi
implicata
liderului
chitar
rezervatie
coborat
catolicism
protejarea
abandonata
finlandeze
experimental
gospodariile
renumite
companiilor
ingineri
monetar
chestiunea
invinsa
conventiei
senzori
erudit
demolata
restrictii
debitul
liniara
fosf
cartofi
schwarz
tute
##ereaza
##deaza
##hm
##bb
##jon
##atre
##enko
##alina
##unii
##ilov
sage
saman
maine
anchet
point
##ionarii
afle
chal
polu
##hesti
plimb
##scuta
##ology
##ologilor
legum
calc
patrate
stagn
evoca
imm
soliman
reprezentari
publicatia
##jean
ionita
ghera
structural
vicar
vinului
sinonim
memorii
wilson
destinatii
weber
declarate
mecanismul
##voda
capacitatii
inchisi
mineri
incalta
scenele
predominanta
pregatita
mahala
imbracat
descendenti
corporation
ultime
pretinde
uniforma
infiinta
reintoarce
neobisnuit
calatoreste
azerbaidj
asfalt
trianon
wurttemberg
garii
mr
nera
speri
valul
##vre
##bn
dei
uni
caini
sasii
##roscop
##sio
##pelor
postel
ardere
##elli
##chie
accid
##ogue
##disc
##idie
##bama
conturi
##igan
##ratiei
formatiune
##sula
elef
tarist
tour
oprita
clay
distantei
tay
taie
organic
##bey
arts
artiz
litri
antantei
situatiile
pesteri
##osiu
sangu
catolicii
alexei
bazei
societatile
corecte
sustinatori
zapol
##bels
academie
vinuri
optice
curtile
precise
predicat
inaltarea
elibereaza
chere
insemnata
maximus
egipteni
colaboratori
evidentiat
dj10
goeb
alimentatie
exploatarii
1765
verita
cairo
ciocni
##pool
deportarea
ibm
iernile
pedepsit
aromana
ciprian
cutremure
sinucis
hidrografica
severa
rugaciuni
prestigioase
zugra
arhangheli
pelerinaj
caramizi
apuseana
pumn
aminoaci
teleajen
dmit
ek
klaus
lost
llo
randa
##bista
ined
##sesera
alve
arctic
##els
impusa
comparat
noe
##oreanu
aproba
minutul
munci
ajust
verse
culo
alexandra
transfera
stabiliti
vointei
brune
introducere
probabilitatea
dorin
dornei
draganesti
maximum
ieromona
burdea
relativitatii
influentate
merite
spitale
orez
ostrog
armean
afirmatiile
mijloacelor
suedeze
1718
afirmatia
decap
pronuntie
cronicarul
autohton
proclamata
pamf
intreprinderile
foamete
ungureanu
fiscale
configuratia
bumbac
winston
interfata
incrucis
tovara
alsacia
clarkson
lorenzo
primaverii
spencer
auschwitz
980
bc
beri
guil
rationale
zape
##tal
##rcul
##fried
##cles
##ан
##onala
cuat
arti
##vas
##mesti
marco
nae
dain
viseu
calcare
calificarea
##onez
limbaje
principate
haz
steven
##ozitiile
propriilor
mann
return
versiunile
conducand
stabilindu
bolint
slog
rezultata
zaca
compusii
##dictul
kap
identific
petrecute
rouss
sinodul
construiesc
obligatorii
concentratie
viisoara
circulara
muntean
targului
sacru
atmosferei
gradinile
producatorii
mongolia
inaugurarea
boierul
blana
sclaviei
movile
gyula
auguste
aries
trotus
firefox
migratoare
fisiere
lapusneanu
rezolutia
islamul
slanic
sageti
brejnev
goebbels
dl
dren
jiului
rrom
ule
##eana
##pg
##lop
##red
##uis
repa
##ctiilor
statiunii
##oshi
##etu
papi
reghin
adera
poly
biochim
monoc
##matura
##matricul
mihal
##scuse
disid
##rona
fest
abolit
relatiei
patriei
##erto
densit
specializata
straja
martir
liban
epist
portof
piemont
schimburi
germano
inteleg
deoseb
pasnica
bunast
victimele
conservare
promovata
##annis
muncitor
some
estimari
studioul
batranul
grivita
boieresti
anexa
doctorul
cinematografice
mongole
consumului
kep
austriecii
invatatorul
abordarea
provocata
inefici
dotate
rugby
trimiterea
artileria
continutului
progrese
furni
protocolul
imposibila
zootehn
rocile
coruptia
asigurand
extraordinara
prelungit
intunecata
blue
solidaritatea
mucen
pirami
fierbinte
ecumenic
burebista
nichita
iubirii
rafael
giuseppe
zapolya
970
banesti
cina
durit
hin
jas
patul
varul
##gart
##gna
##ик
##ор
##oro
##onale
cass
##seli
male
masei
##imilor
acetic
rase
locatie
romanica
##oas
##dius
##ucat
##zef
vasul
marsil
##scau
das
toh
gaesti
moha
opta
experti
urmasul
organismul
##miha
incas
steve
prezentand
partida
nivelurile
societatilor
liderilor
flandra
necesitate
##rismul
radiatia
barbatilor
vinovat
glorie
fraza
voturile
dorohoi
posibilitatile
citeasca
adunati
elibera
atestate
branza
condamna
leigh
legaturilor
nominal
vanduta
ciocan
actiona
fetesti
finlandezi
sarbatorile
westminster
agresiv
radicala
dosar
ascunse
designul
business
efectelor
depozitele
uraniu
coastele
pictorii
evacuarea
glaciare
drobeta
manevra
tismaneanu
injumat
recenzii
desertul
ordona
##omorfe
prevenirea
chaplin
savoia
cuatern
ena
tene
##ibila
##uli
##ulesti
##onso
##olata
##oclim
##mpa
pote
precon
fide
impunerea
impriet
pasionat
##mene
##heze
incin
vik
##itian
evitarea
graiul
sovietului
asezati
##oxidul
defensiv
asista
oficiul
feroe
realizarile
traditiilor
buh
floare
odor
prelua
profitand
executive
orientate
cheia
notiuni
groase
scopurile
modest
globale
verifica
4000
hipp
crisan
bosniei
proveneau
mercenari
santo
hidrocar
insistat
iberica
varietatea
homosexuali
lotus
inceteaza
dublat
legionara
subterana
monetare
chestiuni
faptelor
conferintei
pagane
intretinere
comemorativa
managementul
edificiul
fertilitatii
blues
antipsih
aurelius
deutsche
zugrav
venez
algeria
mavroc
fernando
adiacente
conferentiar
cof
tria
##term
##pur
##seau
##mante
##xi
##anzi
rector
##scanu
rapa
excel
pasiunea
##bai
treptata
polona
naos
##inteze
colhoz
indice
termice
urmarind
clo
includerea
##skie
confesiune
verbal
braga
budiste
albastre
canc
canonic
225
invecina
considerabile
colonizare
colonistilor
fortate
bataliile
operatie
interventii
delf
izvoarelor
chimia
indig
obligata
conducatorilor
caracterului
1827
psihice
manuale
intreprinse
voievodatului
1781
slovaciei
infrangeri
terasele
lingvisti
napoleoniene
coordonat
astronomic
ialomitei
comportamentului
exprimarea
rugat
adversar
cotidian
asigurari
controversate
confederatia
vasili
arcade
ucenic
categoriile
strasbourg
umiditate
odobescu
atanasie
administreaza
offenbach
edinburgh
rousseau
gur
gug
gang
lilia
nora
psal
voci
##wick
##rey
##rese
##iliar
##utor
apt
##oastra
##ogle
pachet
regenta
parod
##opole
aderare
caton
creativ
euhar
1740
##culescu
expunere
taina
geo
agentul
111
1180
clan
sanitar
##ileaza
tipar
planificarea
brau
##oxic
temperata
numerot
fondurilor
argila
podoa
preluand
eroare
municipii
principalelor
variantele
incercau
oficialii
episcopilor
poetice
psihologice
factorul
depasind
##andesc
invatatori
minerit
batranii
##house
sulita
danez
frecventat
explicatii
coordonarea
bolsevice
uscata
investitiile
formularea
intemeiaza
neincre
aviatiei
cancelarul
cabinetului
beneficiind
divinitate
queens
umed
fertile
cutremurul
districtele
luptatori
cenac
calugareni
rezolutie
rutiera
subtrop
bielor
rakoc
pronaos
amelior
lespezi
emin
hugh
kot
kha
u2
utre
water
zlat
##nut
##tra
##uoasa
##ierul
##git
##ер
##atin
sip
##ics
cucer
masele
##umi
##oriei
suferea
##pesti
prevent
##chus
##ines
##dusa
acoperind
afi
chart
nopti
##ificatie
colinele
enig
schitul
curba
corint
cople
pielea
ispa
##cota
emile
functional
surselor
momentele
aliata
argile
fotografie
##petru
eroului
dinam
umor
diavol
tensiunea
modificate
depresion
depaseasca
consemnata
sculptor
studiate
molda
videanu
davis
oslo
barajul
galerie
scenariu
furnizate
clienti
gazelor
guvernamant
feminina
impresionanta
clopote
spectrul
stricta
ilustreaza
intrerupt
agentiei
sabie
lituanian
neferic
comasat
limiteaza
litoralul
stirbei
insarcinata
bicaz
metafizica
caspica
comenzi
auxiliare
cozia
roi
ring
sandu
##zzo
pete
##anas
##oaga
##diene
atroc
vascul
celtica
marita
orion
exprop
corne
coroane
indata
interc
saruri
##gard
cristi
consola
service
numeros
trecutului
surpri
pornesc
inchinat
proiectie
profitat
distrugere
trecerii
concentrate
inconsti
israeliene
risip
marasesti
legislatiei
azil
inchiri
slujit
ostrov
eseu
notabil
aruncuta
ingrijirea
inamicului
trasee
intrerupta
aviatie
colturi
indelungat
imense
cazaci
plantatii
mediteraneana
procedeul
evaluarea
explozie
jefuit
bartolome
reconstructia
##oterapie
omagiu
etiopia
commonw
biał
hog
oitu
##nt
##wall
##xes
##bic
sirius
##omir
laut
##olara
peres
anverg
raut
comunism
nee
teolog
secuiesti
judetelor
carmen
asum
##ricani
legionare
modalitati
lucia
##rence
##alioane
ecole
indru
luft
grajd
finalizarea
strazii
1160
paramil
formale
exempl
rude
rusca
rudele
planificata
##onius
##oveze
specialistii
ionut
muhammad
momentului
eroii
topol
absolvire
reformate
tensiuni
capabili
dn5
gazele
comandata
femela
herta
dominatie
padureni
atractii
regulilor
alimentarea
flaman
verile
terestru
sentinta
6000
explice
fascin
desenele
afluentii
negocierilor
##ktor
1714
turcice
fixat
##izeget
releva
romantica
efectivele
respingerea
segmente
oxidare
bocsa
controversa
prescurtat
intensificat
plug
wolfgang
aquit
filipescu
pagube
holocaustului
imparatesei
mavrocordat
hole
loz
orei
##dri
##fele
##sme
##arck
##rep
##tesc
dint
##iller
##utice
seat
##atio
##ciunea
##isma
arate
##dap
##arion
##gai
primilor
##anez
##zech
biologic
##venita
recea
timpurilor
genoc
moale
instin
metru
##trate
cartur
paraie
parada
masinii
capitole
sanse
consumat
publicatie
##ianus
cantand
tehnicii
penala
vietile
toponimul
sound
inscrisi
crestinat
eliberata
compozitorului
##scopul
pregatea
vitelor
efectiva
tatarescu
practicile
nazistii
celebri
acuzatiile
actioneze
insotite
armenilor
tendintele
cocos
cernozi
luminoase
westf
aromani
umeda
recuperat
oprirea
rubla
retrograd
adopte
interactiunea
socotit
corid
incompati
sceptic
inelelor
antoine
beethoven
venezuela
anvergura
dv
from
glic
tz
##fint
remetea
sabia
alan
conifere
##scov
statiuni
##sag
poke
##ptica
comunismul
##dieni
##zecea
confuzie
abu
##rente
deceniile
tamb
dezert
illin
antit
vald
olandei
ajunul
mancar
console
organizatori
schimbarilor
pierdere
bez
zacaminte
dusmani
autoritar
constituiau
castigata
fabul
constitutii
frecven
silistra
vitreg
conducatoare
rezistente
1779
restaurat
1826
gotilor
cucerire
condamnarea
syl
bugetului
republicane
prefectul
reorganizat
metroul
fabricate
deservit
razv
controversat
rasaritean
subsolul
spontane
aglomer
prepararea
parasut
jonct
miami
mccart
solemn
rowling
totalitar
rezonanta
gulag
flondor
sageata
kepler
commonwealth
fani
kru
sł
##ienilor
##cro
##bos
##bir
##inos
##erus
##alist
##stesc
cumul
##round
sura
starile
##urarile
apul
##000
pariz
christos
##blin
marinescu
transcrie
cunoasca
euse
calificare
descria
##haba
repres
geologica
antis
1110
prahovei
semnele
concurat
exemplar
persist
declare
budesti
echipamentul
vlasca
imbina
minoritatii
succesului
granite
operatia
##inteles
deschida
obiectivelor
prietena
elibere
staliniste
retragerii
versanti
atraga
preferata
spitalului
##elly
1761
proveniti
leonid
##uroase
castro
formule
adresate
concursuri
salvarea
eliminata
1648
nikita
aspru
cartagina
norvegian
fructul
ilegale
cenacl
galaxii
auxiliar
alunecari
inhib
vectorial
peceneg
convingerea
improviz
laburist
memorand
onorific
bismarck
3d
koh
lotul
ms
sart
toa
urug
##kk
degen
##tere
##utt
stin
##main
locke
##elet
##icescu
##unti
doza
dobor
bast
##orelie
scrierilor
##oneta
etan
etichet
schuma
##asera
tabe
turt
urmas
campurile
antena
cercuri
planificat
inaltul
catolicilor
germanica
culorii
pastrandu
transferarea
ideologiei
stanci
##bruck
##lipul
ghil
poemele
hege
minoritatea
vechimea
operatiune
precisa
aducea
administrator
definitii
sefi
numarau
distinctii
psihan
practicata
falsa
cavaleri
marturisit
gimnaziu
dureri
durere
legionar
vaccin
fantastic
balet
sosele
digitala
constelatie
excelent
suburbana
oedi
scumpe
detaliate
cascada
implinit
sarmizeget
pucioasa
association
nv
nei
pha
rdg
##eus
##kor
##vie
##biu
##inform
sima
##unchi
##rau
reche
##roa
##dek
##lamat
locatia
acredit
scoasa
neer
##baca
jukov
afin
creatiile
crezand
creier
##intern
infati
amerind
genurile
##nad
scrisul
scrierii
invinga
denota
graba
1170
valce
economist
solca
parazit
nouveau
circu
dragan
datorii
perp
schimbarii
salzburg
editurii
ideologic
revolutii
ross
boic
batalion
corpurilor
optulea
spatial
dorob
rasun
predarea
scurgere
favorit
compozitiei
1811
saracie
beneficii
instrumentele
poseidon
descript
sprijinita
ziarist
fortificatiile
ramanea
interbelice
abandonate
bilater
sapaturi
peisag
sinagog
indreptate
vilnius
balcanic
nervoase
cumparare
alungati
farmace
definesc
ceremoni
taraneasca
confruntare
suburbie
maresalului
zgomot
inarmati
pastelui
piramida
afecta
browser
exterminare
mihala
povestile
schumacher
ezit
fanii
gunt
iuri
##45
##inara
##strele
curie
allen
stana
##sada
presiunilor
fiintei
##ett
imput
##ogl
ural
##ign
monroe
obos
carlo
multumit
toul
minogue
scriu
##ofiz
geode
campeni
cerb
termine
militarii
jak
zecim
ruina
cresteri
utilizati
discret
bulet
deosebeste
plevna
235
liberali
berk
operatiunilor
energetic
rosca
interesati
observata
transportate
1778
psihologica
factorilor
muncitoare
intruchip
acizi
frontierelor
cabana
grila
nominativ
pacif
fundu
proportia
scenei
impiedice
afirmatie
impresionant
faimosul
1595
geometrie
laboratoare
##ferica
arbitru
##ograme
dumbraveni
soselei
placere
monteoru
arborele
videoclipul
esper
mogos
averescu
reconstructie
abrev
transparenta
concordanta
museum
lloyd
illinois
bland
f1
fiilor
iti
kurt
##oct
##br
##stur
##anne
##onne
##unar
##unei
##ied
conot
comn
##lai
##laz
proz
##ella
neop
pasta
##irom
##inton
marimi
##iplin
armoni
luman
triste
##bise
principali
capitaliste
porto
electr
islandei
isbn
salcia
etnografic
##iang
##sser
editorul
postale
buf
personalului
tratative
castigatoare
textila
granit
variatia
panora
##brale
hidra
pregateste
gandul
##lands
egida
folosire
imaginilor
psihologia
extrase
##199
good
instalata
florica
rezolve
frecventeaza
vorbeau
astronomia
galerii
bolsevica
##uflet
reunit
ville
reluata
gavanu
dificultate
redevenit
argentini
bradbury
corabia
atributiile
silabe
culminand
poreclit
vamale
arhipelag
prestigiul
deteriorat
mexico
genitiv
damasc
pitagora
dispret
baschet
iohannis
portofol
elibereze
gdan
job
kras
lt
liu
nisp
well
zimb
##the
##districtul
##him
##cova
##gata
##kof
##ел
##atum
##rez
##onal
##alna
lama
lazare
semit
saga
conne
carey
aromat
numerica
acuare
##iform
intrece
comport
##ordine
biografia
incoace
totii
traind
dada
vierm
genova
supune
istoriografia
propice
depind
armonie
agronom
munteniei
bank
scada
planificare
religiilor
defris
musc
ideologice
##cube
tineau
primitiv
proiectate
pensie
teatrala
orientului
frage
sectii
malu
sasesti
observarea
medicilor
poetii
mamaia
##waffe
egiptenii
reinn
reinno
blocat
heliul
arhitecturale
electronii
lasandu
broad
1782
targus
inchide
infranta
viceprim
fortificatie
emigranti
excesiv
patriarhului
rugaciun
infectii
ebraic
analizeaza
autostrazi
absorbt
beijing
sintagma
indemnul
calareti
fericit
convertirea
livada
rasiala
caligraf
dionisie
antiohia
semicon
jandarm
paraschiva
cricov
culoarul
dona
elu
nero
tus
vei
zw
##ajul
##uos
sid
sirul
##osti
stoma
maiden
##otom
##ury
aceiasi
faina
acuta
##odat
##ucle
orz
##geste
polim
subur
cariere
##ghai
calinesti
persane
corbul
impere
lucas
majoritari
barza
isis
albina
zeit
braun
##borough
musta
servesc
hector
imbrati
castigator
penale
petresti
jozef
magyar
absolute
procente
aurului
inregistrarile
aparitii
parcur
exceptional
iude
eftim
blocului
calatoriei
brest
figurile
neutra
prelucrat
gradinii
competitiei
disparute
amestecul
birouri
experimentala
homosexualitatea
surprinzator
zilnica
intarita
adjective
corabii
disparitie
fluxul
intreprinderilor
macedonski
autohtona
incalzirea
implinirea
enumera
frasin
traversa
antrenament
perturb
zvonuri
extensie
acompani
awards
gavriil
marfurilor
heliocent
percutie
bauhaus
bond
csa
crin
gurile
grun
lou
manta
##fort
##isi
##lici
##22
lava
##ocul
##orite
comut
##istanul
poieni
##usu
locui
apoc
prisa
##ette
impin
##ogu
nesti
teze
##mens
##igne
notele
vailor
##ietz
dail
multin
##ghin
autod
gustul
##ofor
dezlant
ilia
denis
hainele
banului
reprezentati
##eaux
mananca
ultimei
##fax
confesiuni
ramses
raspunda
lira
boy
arget
promoveze
ondul
luptau
echipajul
participant
##oartele
votului
costurilor
experimentele
##runte
campionatele
cotitura
integrata
integranta
mecanisme
donatii
depresiuni
lasata
magnetice
##desh
adaugata
astepte
vegetatiei
cleric
hidrocent
invataturile
delegatii
preocupari
certitudine
cernavoda
stoenesti
vanturi
tribunalului
exporturile
embri
infatisarea
teodosiu
inrudite
endoc
retroced
ardeleni
precedente
electromagnetice
fotbalului
hobbit
preistorice
hadrian
spusele
prosperitate
cenusie
humanitas
bolnavi
sangelui
indeapro
australiei
odorhei
luftwaffe
cerv
cism
gurgh
igi
kin
nie
sui
sne
trit
uj
vare
villon
witt
inert
##inoase
##rime
cus
cadea
causa
aluzie
fas
numis
duhul
neun
never
##anestii
orfeu
asuma
speciei
##ness
moarta
calv
##ritatii
abrog
relic
evitat
curata
1640
guvernatorului
##enau
albaniei
banilor
gruparii
verbe
etnografie
deciziei
colectiile
revars
bunul
binefa
bineinteles
lipoveni
bolt
bolile
promete
mentionam
punandu
grande
journal
fizicianul
tennes
inlocuind
metodelor
exceptionale
comandanti
transporturi
vocalele
serioasa
edil
cupola
steagului
combinata
parohiale
independenti
##judec
oferindu
delegat
tuburi
negustorilor
credite
proiectelor
renumiti
drapel
secuii
dezbatere
mediteraneene
conectate
roger
multumita
mozilla
insuficienta
recuceri
amfite
prisma
lichide
caricaturi
fanete
pachete
coincide
vacaresti
dunarene
coplesit
cani
hala
ita
kata
light
mania
oilor
tint
vart
##dati
##mut
##wal
##ев
##rimentul
sile
##unate
##teste
univ
masc
anime
##lave
##cian
raca
##eley
aportul
prig
##icircul
nuante
scala
scude
temn
bavare
caterina
spor
##festi
transc
descif
abba
absida
propunea
dependente
indra
urmatoarelor
denumiti
facem
francesco
piemon
balc
##ske
neaga
vizual
completat
cantonului
cincin
intelesul
constructor
bourb
promit
##schei
socialismul
erori
jucand
garzile
satesti
inlocuiasca
gazdu
prietenilor
debar
siliciu
ierb
distinct
minereu
slujbele
##evici
determinand
regulamentul
povestire
mixt
papal
catolicismul
acuzatia
proportionala
inmormantarea
camerele
republicile
##ftea
izolarea
masculina
performantele
stejarul
salvarii
julius
difuzate
imposibilitatea
didactica
rocilor
stroesti
rulment
ilegala
invadarea
surorile
referinte
trandafir
subcarpatilor
deserveste
acustica
retorica
periferia
jefferson
fpcd
indeaproape
citate
dana
eteri
fina
kop
late
micii
roh
visti
##tatea
##pr
##serv
##mid
##vari
##vski
##jani
##ende
##icile
##iago
remus
##side
estetic
##ped
proxim
pretori
##chile
faga
##oss
##ody
pasion
##riere
crest
vaca
208
arealul
nadej
oriunde
##ologiilor
##ghis
ocnita
tad
##ofi
imo
trig
realismului
haga
crisul
masurat
sanscri
cadril
ortografie
manager
noualea
nationalista
theatre
nichel
senatorul
brazi
##versi
pamanteni
must
rasplat
stuf
importantei
penet
radiatie
aplicatiile
sportului
silvo
indivizii
canadian
presupunea
gotice
cuceririi
lucratori
inventarea
balade
memoriala
temut
selectia
amestecat
microscop
fonetice
islamic
fascicul
patriarhiei
boian
atlanticului
tragedia
interaction
meseria
cumparata
laboratorul
beneficia
studiourile
sturza
rachetelor
bucatarie
young
intamplator
##hidric
scoaterea
opreste
reclama
hindui
colonial
apreciere
##iewicz
bovine
superioritatea
pridvor
tectonice
vanatoarea
compartiment
darmanesti
uruguay
igor
lind
m²
mistic
wes
##oo
##oani
##km
##erinei
conac
maa
estetice
##oster
##peste
localul
prince
nuanta
##stag
scort
neme
pahar
##igi
vaci
vamp
##aniste
multitudine
anihil
distant
expunerea
schei
depopul
1690
##betei
denunt
guvernat
cazimir
mangan
veronica
negresti
teles
rasputin
slabi
##ower
deosebesc
stefanesti
coloniilor
fortificat
##caruia
nevro
275
identificare
operatiunii
monumentala
turistii
excurs
dominant
chiria
cotroc
jurist
afacerea
comandamentul
primej
targuri
japonezii
revolutionarii
celular
landului
incheiate
liver
semicircul
adancimi
scenarist
inmormantare
dacic
propagand
fascist
mesteri
concepute
intrebare
manifestul
favorizeaza
bonn
olandeze
honoris
imprumutate
pronuntata
inundatiilor
subordonate
refuzand
calculatoarelor
adjectivul
xenopol
necondit
satira
adolescenta
vaticanului
renovata
miniera
reintoarcerea
bombe
senior
presedintiei
delimitat
fabricatie
fresce
lombard
troleibuz
mehmed
bologna
mosneni
abdicarea
bijuterii
medicinale
taylor
cernoziom
tennessee
aba
ficat
het
hig
husi
mw
osti
ostat
ratiunii
##ts
##oon
##gos
##wich
inro
##icol
maga
##ocoten
##ivore
firul
##elle
fasia
prinde
nuci
comunala
impins
##pres
neca
##vag
lesu
ursu
##ucin
##riean
parter
secara
cher
crescute
##mena
##igny
maresal
minune
abon
eval
potcoa
denomin
gramatic
demografic
litov
1190
index
semnale
libia
niciunul
portocal
protestele
busteni
miturile
argumentele
bell
238
proiectare
contestat
rosa
turnat
tension
dn3
predict
detinand
nepopul
specificul
atribute
cronologica
licentiat
magnitudine
frunza
consemnate
sculptate
emisie
chisina
##gonala
proportional
redob
samura
afirmarea
amenajata
insista
regizori
moleculara
delegati
preocuparile
sublocoten
testamentul
coalitiei
##heimer
lituaniene
sedimentare
taxelor
prizonierii
mestesugari
comedia
hunilor
alimentelor
moravia
rugaciunea
hardware
bilete
gogh
bloom
fierbinti
pretextul
sugerand
contradictorii
simpatiz
almeria
oituz
sarmizegetusa
centa
ida
nicula
usi
##nar
##ning
##phe
##lari
##kol
##wy
##jer
##arsa
deran
destit
##remia
##orge
##ontin
##erand
unificare
laus
##cek
##ilic
##iliana
comanesti
exca
privi
saudita
##pren
##oir
adriean
creatoare
monopolul
203
##zio
elenei
vienei
tobe
legiunii
##rone
minerva
coline
stadiu
turla
coran
geoa
faraonului
agrare
scoata
denumi
drake
motru
detrimentul
##ocam
editata
postura
##soru
multianu
civic
bogatie
proiectarea
socialism
fortati
kam
costuri
tiraj
vasal
semnificatii
calculat
sarbu
comercianti
vulpea
albumele
completeaza
week
resturile
referiri
marginit
laser
gotii
ofiterilor
charlot
climei
395
raspunsuri
explicatia
##souri
mostenitorul
florini
rival
fenomenului
deputatii
sclavilor
loturi
dotata
ignorat
rubrica
heideg
ilegal
avocatul
sevilia
zarand
apartament
folclorice
citirea
handbal
domestice
abreviat
funciare
nativi
simptomele
indeletnici
##disciplin
furniza
oedip
gdansk
liverpool
bole
bridge
jimb
sno
##tus
##our
##mura
##war
##ον
##atom
##alta
unt
##ilare
sedent
saar
aus
sude
fisier
fiicele
##mason
fam
dusi
##odon
##odif
##odrom
regn
##aneze
badea
ador
securi
orsova
##gev
carlig
dadeau
dascal
recolt
intruni
gresita
instra
guvernelor
121
litiu
caraiman
albine
manga
culmi
scrisului
aragon
buftea
voiau
ghimp
zap
primarului
puneau
dinamic
biblica
incerce
operatiile
intervine
zidit
croatilor
episcopala
atrag
modificarile
lacurilor
leib
uzinele
uzurp
migratia
1763
1768
hartile
cunostintelor
1603
temandu
cultivata
galerius
valabile
investitiilor
indicele
impresionante
ingrijit
valenii
capitalismului
conceptele
vulcanica
1552
revendica
initiaza
substantive
ilustrata
despartirea
1688
suplimentar
pianist
analizei
queen
sedintele
fericirea
cazacilor
asociaza
transmisa
recap
muncitoresti
mizil
maurice
imbolnavit
daunatoare
meridionali
petrovici
desinenta
lesbiene
rambaldi
romeo
aleksandr
scuderia
blen
cloc
gate
getic
lenta
verg
watt
yang
##dot
##oka
##hatt
##mea
##sto
uniuni
lajos
alocat
pepin
stirea
##cale
prokof
priel
privesc
lector
lexic
eram
cret
##igor
nout
##here
marsal
209
vianu
##orei
conflag
calara
milose
ofensive
persic
##gandei
1580
expir
stam
faraon
termic
urmati
baron
rusu
lucrate
propriului
dragh
putinii
##coza
omogen
apas
protect
ocupatii
casatorii
candesti
cincizeci
imparti
crusta
radiof
thumb
platite
preciza
arheologica
hero
chioj
focuri
marginita
elvetiana
elementului
##uratei
atmosferice
rezervat
astronomii
decorate
expeditiei
imprejurari
indicand
sorbona
savanti
antrenorul
asimet
asimilat
inaltimile
filipine
mahomed
ambasada
provizii
coltrane
apostolilor
culegerea
mergea
implementat
confruntari
musulmanilor
izotopi
ceangailor
prelungirea
pacala
intermediare
confiscate
vlahii
periculos
konig
adecvat
trofeul
orizontale
inversa
eclipsa
spanzurat
scanteia
obstacole
##ystok
inspira
prealabil
artefacte
tutela
990
aid
oni
##cce
inex
##str
##aland
##tet
##olic
##tag
poste
##mak
##rans
scind
##uam
leoni
##ionali
atlas
biru
vaida
pusi
marne
sfatului
legiunile
mino
descuraj
1530
fildes
##obi
estona
expozitiei
##office
inabus
specializare
hamp
barba
sannicola
##endicul
##canii
nationalismul
arhim
defensive
revin
stabilind
ambarc
mentionare
ceresc
foto
premerg
kaz
profunz
radiodif
distrug
joe
fizico
pantele
egum
procentul
observatorul
##bule
potrivita
poetic
vital
concentratia
cosmic
normelor
fierbere
cumpana
strange
tablourile
evapor
tabele
autorizat
reintro
republicana
simtea
acumularea
incarc
instaurat
blog
reproducere
vicepresedintele
missouri
dialogul
taiwan
secuilor
dulci
gravitationale
ducatului
silvaniei
caracterele
luterana
statuii
liniare
ceangai
mongolii
periculoase
vapori
aristocratiei
sprijinirea
pakistan
macedoneana
rotunjite
pretentiile
paunescu
siderurg
westfalia
cenaclului
cotroceni
prokofiev
csi
eura
grim
humb
kem
mali
seneg
##tis
##uste
##hom
##hod
##lurilor
##znic
##łe
##itarii
cuart
conces
##ocrate
##atirea
##istanului
starilor
##last
##elia
fazele
neferi
painea
##zeste
subgru
monote
card
dam
recupe
supuna
istorii
denuntat
realismul
aguile
sarcinile
denumeste
domni
publicistica
datorie
##nikov
bazine
britanicilor
ramasese
kazan
tariste
oriental
politicilor
energetica
intervina
colap
costum
arheologii
noroi
chema
cetatenie
filosofica
centralizat
##contin
edgar
perechea
umanist
evenimentului
utilizatorul
responsabile
intalneasca
laptele
vedeti
cheltuiala
fixata
achizitionarea
intentioneaza
##skaia
1723
geometria
neolitice
francmason
liege
asocierea
marsup
teroriste
dalmatia
detas
latinescul
junimea
verbului
albanezi
tortura
cristaline
insuficient
recolta
detaliile
prospera
imperfect
incarcatura
graniceri
renuntarea
exercitiu
logofat
obelisc
sardinia
groenlanda
enache
bj
cz
hd
oile
rind
ratiunea
wern
##uge
##lana
##27
##ет
##arb
##areni
inelul
##retat
##alo
##stean
cain
saseasca
##deste
##imat
##siul
##ovra
##erian
teologica
ursului
##ifi
##back
##bacee
jup
jug
spiel
atitudini
##vey
daruieste
tranzist
nag
conferi
speed
fiecaruia
abatia
claselor
cornesti
graul
##giuc
lansa
marioneta
transmita
clinton
lupului
nationalismului
vizuala
emine
conviet
constantinopolul
coloniei
kais
basorelie
garanta
inlocuieste
puskin
continuata
exceptionala
invaziile
obtinerii
navali
sony
johnny
evidenti
evolution
paleolog
recunoscuti
poses
instalatie
stratului
pasaj
municipale
lingvist
indepartata
iugare
astronomul
mesajului
prietenului
cenusi
mentinere
fonta
abordat
ecuatii
dn28
dizolva
vidin
substantelor
radicali
birm
pietrele
criteriile
mercury
bavariei
conexiune
tractiune
gramaticale
domicil
atelierele
techn
intrunit
caprioara
creierul
liturgica
bordeianu
omni
canepa
burgundia
ahe
brian
iste
iona
jpg
oz
##kiewicz
##vert
##bin
##yr
##uise
lam
laude
saisprezece
allah
cone
machia
proust
##ivalen
firesc
##ilelor
prison
##ptic
##arius
duceau
##dier
##vaz
leo
##oida
##uck
chop
biologica
##mnon
vaselor
infas
plur
viit
minut
patrata
depist
depune
tag
1620
1490
realist
clip
localizate
bancar
ruperea
publicatiile
religiile
volks
deciziilor
revit
cantata
palate
ieremia
substit
procenta
imparatilor
ucida
atacata
canaan
matern
roti
atractia
profesorilor
preferate
azte
adaugand
locuintelor
melodiile
cauzeaza
ciocolata
##villa
eseul
racor
minerala
purtator
valabila
republicani
glad
antrenat
metropola
predominante
echilibrului
inteligentei
portugheze
ruginoasa
artileriei
infranti
discursului
fuzionat
patronul
chestiune
respinse
fecioarei
profilul
ratiu
mintii
kyoto
enciclopedia
neobisnuita
##arlament
dezintegrarea
raymond
judiciar
troleibuze
blocada
cuvioasa
##schaft
euler
normandia
cenaclul
perpendicul
spielberg
esta
haret
isac
nos
nietz
wan
zbur
##rant
##oia
dedes
##leri
labi
saf
pedro
ange
##oton
procu
arderea
##antrop
##oseni
##eiro
##eriana
veveri
aferente
##opatra
contraf
##iger
nobila
##atoriul
##venite
dame
moderate
principi
greseli
clau
ecle
continente
turzii
pots
instant
lance
plauzi
cripta
capitanului
romanian
publicand
emanuel
casnice
civica
zab
ramasite
afirme
distrugeri
aripii
biblic
news
comandate
metallica
dominate
teroare
gasindu
filozofica
presupuse
universitatilor
traversand
studiata
carpen
climate
notabila
superfici
constituite
suprafetelor
luminoasa
habsburgice
ilustrat
negustor
whig
indelungate
botanice
jianu
conexiuni
intelectualii
deplasa
emancipare
jertfa
pridv
ingredi
zoroa
##arossa
inevitabil
negociat
primordial
ofensivei
rakoczi
heidegger
dedesub
bute
nir
puntea
ratiune
wrest
##nr
##phi
##head
##gile
##ρα
insti
siretul
##iam
##utia
alag
##rote
pep
##dez
##scoa
anorgan
locas
##elu
##osz
##duc
vehe
chan
limpede
asfal
piro
great
potter
consilii
instaleaza
cerbul
metalului
131
cian
niciuna
militarilor
bancare
presedinti
permisa
respectul
initiate
asiri
modernizat
casatie
stuart
utilizatorului
cannes
serpi
218
echipajului
fotosinte
##rospe
premiilor
parisul
##rism
jumatati
roland
magic
magice
pang
costume
cititori
experientei
sigmar
##oker
federatie
excomun
cantecului
sexe
php
atestari
1771
intinderea
sofistic
separare
calatoriile
broa
expresiei
staret
frontiere
solutiile
evanghelice
pacientii
inscriptiile
valahia
santiago
plasma
sinai
preocupare
avantajele
ecuator
tribunal
fuge
argumentul
fantastice
pdm
soseste
odihn
eneolitic
mediteranean
nemultumirea
orizontal
meir
perceput
rachit
spontana
belgian
intretinut
raioanele
abilitatile
##martin
pajisti
anxietate
studentesti
decesului
aetius
neoclasic
shogun
indispensa
nietzsche
area
cib
pup
smir
vali
zinc
##eg
##dom
##dimension
##gat
##viii
##58
##yes
dega
##enele
lactate
rediu
##atescu
alinia
##tau
cesiu
##urca
razele
extrate
app
##iceu
##iciana
##dioara
##inas
admit
chen
##vedere
daruri
panama
asediului
1730
calator
endem
report
taur
##ofone
gesta
geomorf
stramb
metz
mario
mariana
hamm
intercal
barne
plastici
disloc
numelor
capitalul
##gulescu
portretele
manhatt
linga
planurilor
##jevo
neaj
teleki
pop3
bunica
originare
voinesti
##lier
florilor
ghen
renovat
minoritatile
liberalii
apropia
barbarossa
umori
batrana
magel
fraze
croate
construire
obligatii
metodei
amintire
cosmice
margineni
circulatiei
psihologic
licitatie
liceale
branesti
extragerea
modeste
asigurau
exploatate
terapia
subiectului
strategii
supravietui
capetele
mostenite
cleopatra
sapun
justitia
valencia
contractului
indreptata
petroliere
malae
adaptata
sclavii
intreruperi
isabel
suplimentara
carlos
covarsit
furtuni
gravitationala
multimedia
incoronarea
valoros
nemultumiti
retrogra
electrotehn
abstracte
your
feudala
desprinde
edificiului
anuntata
apartamente
spontan
liturghie
soiuri
carpatic
divortat
platforme
confundat
arhiducele
proletari
slef
dambovitei
eufrat
hossu
obarsia
injumatatire
białystok
telespect
cose
ft
gian
osa
ohaba
rox
tis
##yana
inles
##stiei
##ref
##celu
alice
##rofa
maia
cehe
cereasca
##ander
##pedia
arse
previz
locuiasca
aport
##erila
aviv
leul
##ifor
secvente
vaga
celtic
##ditate
aprofund
##gheaza
claca
tamas
161
finit
membran
grupele
barna
cium
russell
bancile
##gula
mans
salut
305
bustul
corel
lipova
##cker
contesa
socialisti
mortem
ingeni
americanilor
pompe
parcurge
exceptand
acoperirea
efective
fundeni
termale
carbonul
raporturile
redactie
google
aradului
revoltat
exprime
celulare
pasaje
pasajul
elimine
cunosteau
terezia
obisnuiti
##richt
negruzzi
exilului
suez
olimpia
suverane
armeniei
judecatori
criticata
habsburgica
intentiile
mobilizarea
ierusalimul
rigid
sportivi
drapelului
divinitati
difuzare
sahara
subordonat
accentuate
irakului
veacului
adjectivele
anatomie
doamne
cenad
citeva
ardelean
sintaxa
iordan
folclori
precedenta
consecutiv
parintelui
orizontul
zdrobit
fsn
decernat
unanimitate
smaranda
nicolas
recunostinta
infratit
bancnote
deasemenea
repaus
silvoste
##ocamdata
radiodifuz
kova
kimi
tie
tumul
wur
##nari
##iate
##otele
##lod
##ziunea
##jin
##66
##32
##atici
inl
##angul
##its
silic
##unca
##olin
##ctu
stiau
stutt
arkan
fiscal
##ileanu
##untru
##rancea
acope
scola
nesemn
nefavora
##ernes
paie
testul
parvan
bak
catune
sporita
##spar
recital
desenul
lucret
muller
aber
eter
decit
cunoscutul
curca
cursele
iliada
1650
medicii
##onomet
densa
inacce
1080
coin
costel
translit
placea
concreta
stemei
prezice
manci
datoriile
titei
colegul
binecunoscut
hegel
animat
unesc
ajutoare
cucereste
ego
toponime
turistilor
medicinei
nuclee
borcea
indivizilor
comandantului
contabil
gior
severus
edmund
imaginatia
halucin
demonstreze
##198
mediafax
reduca
##herine
celulara
chelsea
graff
neloc
1713
sarbatorita
pcus
perspective
stapanea
lothar
1492
1658
mobilizat
fuji
manecii
sedinte
tropicala
transmisie
loial
funerara
restransa
gimnaziului
extraordinare
abrupt
ratificat
akka
##utube
indemnat
razboin
scriptura
predecesorul
rasturnarea
locomotive
glucoza
adecvata
prioritate
deluroasa
coarde
anticomuniste
spirala
circumstante
liliecii
acronim
inrolat
novgorod
reportaje
govora
reciproca
toscana
izbucnirii
shanghai
diaspora
aguilera
cenusiu
sigmaringen
hert
irit
soh
ucea
word
zan
##puri
##ior
##ouse
##gle
##got
##gerat
##wara
##zin
##bata
inman
dedu
##rajul
##olat
##stems
castru
pereg
##oco
##ivan
rasul
##iler
urlati
##rierea
eloc
asal
stator
1540
##sioneaza
gep
1090
metraj
##hide
barit
oaie
albii
zeitati
viziteze
bradu
251
musa
intelegeri
ambit
izgon
utilizeze
bolgrad
bou
boet
participarii
colonizat
##olitica
nevinov
inger
orasel
conglom
logicii
sefii
maximilian
agricultori
dezacord
saraciei
conservatorii
integritatea
dj24
bistra
practicate
erb
infrangerii
inventar
vorbitorilor
stabilea
abandoneze
prezidentiala
clerul
propagandei
ecuatia
fanari
eliminate
getii
cancelaria
telefonice
philos
nemultumit
iudaism
craciunului
mlastini
ciobanu
frederick
flanc
youtube
capitularea
partizanii
razesi
miracul
amfib
ministeri
benzina
semifinala
antarctica
recrutat
inabusi
costisitoare
surpriza
redoband
magellan
stuttgart
aqui
burs
brist
coi
golul
lata
spul
##som
##lle
##lid
##kat
##vul
##ink
defav
deocamdata
##uiala
##ilarea
referea
alchim
maca
power
acet
##dai
##ineze
##oglob
nemt
paisprezece
adjud
multimii
viktor
tours
##ghia
superv
##haza
relatat
##artes
##asilor
varset
demografice
antologie
praval
cioara
masurata
sanitare
oravita
telescop
andron
rasplata
voya
moldovan
podurile
desfasurarii
barbare
panouri
garb
##dulesti
experientele
predisp
chimiei
indiene
clasici
ungurilor
metalica
melanc
vitre
antipa
tataru
norman
reincar
##atismul
tulpina
palest
elvetiene
cicluri
erbacee
365
hotarari
capturarea
responsabili
emigrarea
episoa
prezidat
excesiva
clerici
pitica
prm
crescanda
savant
alpine
durerea
experimentat
domeniilor
anatol
rascoale
lucius
echipelor
##chett
gasirea
zburat
fantastica
toledo
conventional
coruptiei
byron
hunii
xenon
lordul
arnold
comitatele
recucerit
flamanda
preferand
dreptunghiulara
juniori
opuneau
australian
contestata
orchestrei
intuneric
naturali
##juns
incuraja
antibiotice
dresda
nomencl
queensland
berkeley
hidraul
nisporeni
trigonomet
procuro
alagoas
buri
blanda
cula
danu
kraj
rsf
##falau
##larie
##ου
##ats
##arde
##armi
delav
##sten
##rena
##leta
saba
##imo
##atau
estet
##otr
##usani
rasca
price
dudesti
mere
papale
##eras
crestea
submin
subtiri
mareste
incepute
##ingul
##ologici
readus
##tius
descent
relative
1520
represiune
invitatia
##orau
luandu
gradele
antanta
lanseze
familiale
##hius
punctului
olga
carter
oasele
iaz
directiile
micile
linistea
##famil
servind
alexandrescu
galat
arabii
bunicii
suspe
slati
caracteriza
conditionat
##rogen
kadar
lungimi
diversa
optiunea
democratilor
costat
sigure
##smus
indigene
excent
notori
grosi
##book
##bourne
caseta
locti
donatie
dictatori
atomilor
cicero
diego
instalate
elastic
meritele
1764
refugiaza
memoriale
incalca
ciocar
1601
osce
osman
antonie
marturiseste
retelelor
adrese
spuneau
medioc
delegatie
asimov
patrunderea
tranzitia
fixate
1521
pseudo
1538
1541
cumpararea
apostolic
##ervesc
calafat
culegere
juramant
demnitatea
moisei
##ograph
recuperarea
rezolvata
prabusirii
eventuale
vertical
mdc
fabricile
abrud
discipol
vulturul
intunecate
gnu
otravit
razbunare
impadurite
penitenciarul
sevast
vermont
podgoria
bordeie
esperanto
absorbtie
sanscrita
manhattan
delavrancea
bent
barie
erect
jum
miel
niculescu
til
tog
ua
yas
##pra
##ffel
##orea
##worth
##but
##68
inna
##lev
redat
cainele
sesiune
sevilla
alonso
maica
##scoperi
stig
pour
##over
##izandu
urcarea
##ionara
primire
treceau
baga
satmar
vadului
margar
formati
obe
traga
nasul
dabaca
ceah
lunara
calului
supun
inceputului
1550
turce
inventii
1610
##orasti
demarat
strazilor
intercept
sark
taramul
singuri
manner
pierit
brailei
initiative
editeaza
255
numarandu
anders
muschi
voev
bule
211
superiori
filmare
urmaresc
petrec
dobrid
craiului
interesului
episcopal
cursurilor
##phone
diviziune
declaratiei
publicatiei
trons
terminal
montate
gradului
posesiunile
magnitudinea
punctelor
revolutionarilor
studiind
desemnata
antrepren
anexe
talmud
mongoli
sperand
sperante
pregatite
colectivizarea
maestri
maestrului
grui
portughezi
pseudonim
1721
expansiunii
cumparate
mersul
criteriul
aeroportului
barocului
conventionale
arondate
ruleaza
lateral
vesnic
inrudita
prevederilor
dragomiresti
dusmanii
abrupte
verbale
intermediar
accesibil
operator
incorporata
doctrinei
rasturnat
pecene
namol
enorme
lichida
anotimpuri
adverse
minereuri
bujor
conside
karoly
struguri
virusul
neputand
country
hateg
forestiera
bucegi
divertisment
rezidu
demisioneze
moastele
##guvernament
dmitri
pokemon
mihalache
sannicolau
aia
bali
evere
gos
kip
nui
slea
saliste
tell
##out
##kai
##bie
##67
dema
reuneste
cuget
##utilor
madu
maya
##sivi
ane
intoxic
##arau
##say
aceia
prerog
##ovi
##chin
##icienilor
##ptice
##luc
##ites
neex
nehot
parizi
spd
plateau
mireasa
biseri
##antes
1715
##ativei
decurs
tacit
agri
agrav
sarpele
tipografia
mentiuni
negat
revenire
canter
rapoartele
##owice
stilurile
##strau
##niceni
punte
morfe
identica
optiuni
interpreti
toplita
spiru
cititorii
sharon
invatau
calcula
vitale
dictator
extrage
petroli
merce
select
amplasarea
reluate
particularitati
intentiona
karls
discursuri
longitudin
dirijat
intocm
transmitere
oxigenului
restranse
bauturi
orizontala
evaluare
impunatoare
surorii
cerceta
accesibila
necesitatile
lacasului
chirurgie
neutralitate
catargiu
infloritoare
interflu
studentesc
tazlau
voltaire
incaltaminte
asch
bold
blin
burt
binare
dorita
esch
hud
kok
riz
rani
suna
tuc
trie
°f
##osc
##hana
##gg
##gani
##kom
##vali
##jel
##33
inimii
dere
##lero
##omal
##olus
maf
##otin
##ursor
producere
##paul
pretului
##ovca
dubas
##ogne
##direa
##ermark
##ernet
##irul
incol
multimi
##ores
ferent
domini
califica
caldar
##haia
abc
aparatorii
##pio
grab
folosul
demite
litig
##aturale
##iculesti
km2
produceau
clin
##romet
recensaminte
trust
protejeze
anderson
tehnologica
originalului
mitoc
bogdanesti
plesu
plecati
radiatiei
vanatorii
topor
thor
predica
aduceau
debarcat
troiei
states
usd
conceptiei
sarbatorilor
circular
filozoful
##197
magnific
cavaleriei
hotararile
inventator
hartia
sulfuri
combinatul
mcd
mediteranei
talie
superstit
prund
apusene
sindromul
metroului
baptista
brancov
manifeste
adapostit
pelicul
petrecere
gravitatiei
arhiepiscopiei
aventurile
scaunului
absorbit
novac
precara
propunerile
norvegiene
sferturi
##iferele
atinsa
mazil
alunec
complicate
reconcil
operatorul
incorporate
electromagnetica
reabilitare
scump
neasteptate
terapeutice
aprecierea
suporteri
hibrid
promulgat
fsb
intelepciunea
neaccent
aachen
suzeranitatea
dilema
avraam
sloganul
toader
potcoava
edine
fric
iris
jal
jiul
kale
nom
noc
rica
tonul
xbox
##dle
##iera
##cica
##canesti
##brun
##jei
##yon
insel
##leanu
##eratie
unificat
##illo
##utori
alias
analizat
statea
pos
##isie
##rind
fiat
apucat
aver
neolog
vederi
vesel
trezit
##catori
noica
biot
informa
nada
nauru
sfir
abdul
statue
##ugu
decan
scha
depunerea
potentiale
##ofila
alteori
armon
luke
lublin
grabit
instariti
realitati
provid
imperii
banul
ajungea
asaza
zem
decese
datoriilor
datoriei
vizitate
apelat
like
contrap
##antius
mitologiei
##liana
personalitatile
servere
consideratie
participante
asigurare
271
arhitectonic
jucatorilor
vindec
variind
panica
contribui
ducesa
dovedita
transformandu
notata
individul
intrau
conceptii
cotu
sarajevo
ips
atestarea
pretentii
preferinta
presupusa
invatarea
manifestarile
uzual
tunelul
hanatul
statistici
boiereasca
armene
microbi
izolare
inamici
galactic
datora
moleculele
tesla
1745
inteligent
intention
finantate
##polis
marxist
decada
imbunatatire
colturile
colorata
baietii
olandezi
rebeliunea
bruno
stralucit
orbiteaza
selgiu
precursor
cedate
pedagogic
indeplinire
rezidenti
semnalat
renovare
perceputa
pompieri
agame
steril
fericita
aranjate
echipate
scarlat
idealul
degradare
neasteptat
spectaculoase
cimiti
mecanismele
santierul
cafea
defileul
divergente
picasso
detronat
pravda
pratchett
andorra
cucerind
eusebiu
palestinei
bisericuta
bif
hue
murale
pran
rho
sene
tinte
toamn
vele
who
##ratis
##dand
##dumul
##uoase
##oze
##hat
##bsd
##jloc
##arum
##armat
##arzi
deleni
##energ
##onda
rese
castele
##sein
pesta
##sir
comm
strand
##lach
##ciuc
##camp
##issa
regru
ursa
primise
##meana
bien
formatiunile
207
carma
aspre
diri
ased
asex
gaius
persii
pisa
##vier
##viole
coloanele
enc
generata
schro
##asii
tav
taierea
corbu
romanelor
trif
1330
solurilor
##gram
ciol
conciliu
militant
paracl
##otesc
iah
exemplele
liniar
motori
vizitata
colectarea
canto
freib
porunci
inchip
215
pasnice
morrison
magna
industrializarea
sincai
cross
predile
padova
clasament
concentrarea
cosmos
destinatia
circulare
atomului
fundamentul
##dessa
tigla
tunurile
hartiei
controleze
descrieri
prelucrarii
competitiile
tezaurului
automata
automati
propaga
umbre
formulate
fascista
fasciste
perspectiv
rodnei
1536
relevat
romantice
receptie
murind
reparata
criteriu
1475
rostit
sugera
luteran
verticale
provinciale
ceremoniei
valoroasa
meridianul
cedarea
ferestrele
babilon
speculatii
partizani
criminal
continuitate
iepurele
svabi
impodobit
##imetri
improprietariti
##electric
inzestrat
beatles
meteorologice
reusise
dreptunghiular
utilaje
subiectiv
neanderth
mausoleul
intarziere
cerebral
dragostei
percepe
relevante
ultimelor
neerlande
argetoianu
asfaltat
hui
khan
mene
pene
pend
smul
zme
##het
##erre
last
##deus
##siord
comana
compre
stanesti
##isse
regie
testele
parante
##openi
polif
monta
montat
monografie
tragere
tarista
dirig
ceasuri
ulmi
##gha
gagau
##situl
151
opoz
gusti
ecve
ocde
urmarire
haina
haiti
impres
##ublica
trebuind
valerius
##saturi
retur
salariul
arhidie
omoare
colen
popii
functionand
ionice
discului
englezii
democrit
reusite
basme
barbara
asociati
harrison
##nitei
alcatuind
prietenia
poetilor
clasandu
sonor
fundalul
cronos
vulpe
completata
declararea
seriale
edict
psihica
##ancy
competente
farkas
ciclului
revoltele
bruce
contemporanul
ansamblului
##mous
exploatari
sule
cristofor
slavici
menit
mesajele
cinematografie
nostal
judecatoreasca
acumulat
abandoneaza
indicativ
matematicianul
preocuparea
romantismului
guvernamental
tony
dificultatile
ronal
pdl
recuperare
sacrificii
pluton
confectionate
vesnica
referendumul
investigatii
cooperarii
uleiuri
inovatii
diminuat
bugetar
nigeria
percepute
litoral
periculoasa
ctitorita
intorcandu
iepuri
implinirii
dn73
yukio
carbunelui
gibral
howard
hispania
acompania
ultraviole
reeditat
trandafiri
lawrence
rebote
deviza
imbogatit
intarziat
eoliene
osiris
bartolomeu
sublocotenent
lausanne
inlatura
canterbury
gagauzi
aqu
dip
eut
hut
hend
jord
jes
nul
oder
rze
sme
urin
vreau
wic
work
zig
##ping
##oil
##ourilor
##ssa
##miei
##zite
##ziale
##29
insca
##inzand
dezech
six
sime
##uieni
##ctar
consa
##dean
antagon
suciu
intole
presiunile
racire
##antu
##izator
neta
ursi
parut
spatiilor
poline
puch
205
##ingv
domine
moschei
1725
minuni
istria
autocrat
suplin
##has
abdice
bucurandu
occit
##ofan
graj
little
##bisc
transvers
sarbesti
coposu
clinic
disputele
epica
ortografia
mentale
pielii
datarea
organizati
aproximativa
templele
##iano
cinc
bundes
manastiresti
zagre
plebisc
granul
batalioane
264
victoriile
energetice
ciudat
notre
occidentul
ungur
colaboratorii
cotmeana
fundatie
carbuni
conservat
ierarhi
325
cuplului
estimarile
inventie
comunicatiilor
cauzei
papala
criticile
cruciatii
patriarhia
1735
delegatiei
1559
1699
andreescu
echivalente
supravietuitori
consolidare
getilor
suveranitatii
koss
utc
alabama
fulger
calculatoarele
luptator
gelu
##ogeneza
culminant
protopopi
zarnesti
refacere
giurescu
cinematografiei
##mares
scandinave
nevada
enumerate
dispunand
sindicatelor
olteanu
considere
longev
alcalo
sfecla
dezamagit
pannonia
disputata
hierogl
calduroase
dispensar
mangalia
colibasi
unchiului
uzbekistan
rromi
somesul
słup
represalii
frageda
milosevic
chopin
boethius
arhidiece
dezechilib
crate
ciac
flas
hoff
jet
juna
joan
murg
pari
viilor
##trat
##meri
##varsit
##zyn
##bog
##jn
##21
##inis
##sticii
alde
maure
##imant
anteri
##peti
povara
fibre
prinsi
alegori
##stad
lez
pachetul
partiale
atl
judeca
##ged
obi
mike
oricand
eugeni
##rito
##hai
colib
coloanei
generatiile
cursei
gradu
guvernata
execute
agentie
cerute
sistematice
plai
crimele
insurg
consort
consoanele
micle
datare
verona
senna
felic
dumnea
fondeaza
actualitate
ideologica
simle
bellu
europarlament
colonizati
tanz
determine
credintele
tribului
optiune
monumentale
diamant
transformand
obiectiva
comisari
diviziile
pregateasca
nepla
antiotom
cronice
blair
afacere
invatare
elaboreaza
brez
375
1767
gripen
exercitarea
molid
prevederi
galbene
kilometru
amenintari
microorgan
exactitate
##jude
1598
livezile
reproducerea
dn24
proclamatia
stiintifico
virtu
augusta
inclinat
mergeau
apareau
proaste
tragica
eventuala
ornamente
relatarea
procedee
baiatul
vrajitoare
ritualuri
arhaice
sangeroase
somnul
algebra
foametei
discriminare
tancurilor
catalogul
adecvate
nevasta
christop
diacrit
portavi
deficit
substantiala
auriu
persista
statisticile
armistitiul
consistenta
suporterii
giulesti
incidente
orange
bacalaureat
absolventi
vistula
chitaristul
artistei
closca
circuite
imobili
nefericire
potsdam
everest
agamemnon
cati
cdu
kl
mierea
opa
right
##uve
##oy
##anj
##enus
##alin
##teti
##ares
##omia
caderii
saul
##rodu
##sad
##urce
pozn
ardea
luis
##oaiei
##oage
pascu
primari
bacon
contina
##inter
orasenesti
margini
formatiile
intrari
calm
descartes
enorma
ecologice
capsula
turku
consiliile
finalizate
agra
##olache
##mier
coanda
placuta
producea
clinice
##resu
cadou
##endorf
nationalistii
plans
schimbate
salariu
titulescu
efectueze
asiatica
256
intelegerii
porsche
zak
investi
cerebrale
##nicu
orientari
barbatul
arian
industrializare
citeaza
312
chem
pomen
vitei
concentra
fluor
roth
dezapro
evolutii
grigor
sofron
324
magnetica
pietros
competitiv
1602
emigr
autoriz
santuri
judecatoresti
slovena
##otipul
1599
redactarea
surprinde
idealurile
1672
culese
cotidiene
registrele
iudaismul
taranimii
confruntarea
cedeaza
vasiliu
aniversarea
impuscati
apartamentul
ascensiune
expulzarea
diagnosticul
pcrm
alocuri
adriatica
amiralul
niceea
etrusc
horezu
clandestin
violet
cherestea
mihaly
vikernes
intercone
antisoviet
jobs
contrafort
blinda
consacra
aka
eif
gris
kala
koz
lv
rim
ruc
##nu
##parea
##sov
##gua
##65
##но
##ая
##arro
##arata
##any
##ansa
##icl
##uncul
##rajului
cupe
cadere
semen
sesiunea
conrad
madei
pecet
anei
anenii
comic
##urlui
##lama
##cap
rain
apocal
fair
acro
actelor
pau
teologiei
##gasi
##opise
##zek
##blo
incul
pluri
limitarea
dave
dix
sfid
ceapa
ulm
undele
bucuria
schul
depinzand
contineau
ocolul
corona
cumva
gem
prapa
sarbesc
cristea
stepele
scad
presedintii
##loo
venera
gherila
inchid
invech
punga
lars
religiosi
roll
lemne
dobra
##ubert
probabilitate
muresan
stapanului
eliberarii
succesele
filosofi
canalele
rotunde
mandrie
tatare
sarah
seriile
hell
circulat
angajatii
licinius
grigorie
capacitati
brod
alimentar
valorificarea
tunisia
exclude
rezolvat
indeparteaza
incalcat
coordonata
cimitirului
pregatirile
talma
pitoresc
key
mentinuta
1744
saddam
manuscrisele
comentat
renumitul
facilita
bacteriene
imbraca
1689
incurajeaza
sedimente
avioanelor
culeg
1395
mestesugaresti
fantasy
demolarea
veacuri
ceangaii
nepotri
iluminismului
intermediara
etienne
apogeu
insuficiente
inhum
otelul
antebel
ideala
moschee
moscheea
analitica
golesti
roscata
lilieci
pretext
infinita
obeliscul
thailande
trilogia
eisenh
magneziu
geopolitica
storoj
aritmetica
cisterci
accidente
aquitania
bourbon
kossuth
bh
bow
bariu
dima
hram
ik
jid
lj
mita
ry
rou
szent
vf
##kul
##ør
silen
causeni
seme
saca
peles
##impul
##orient
##uriei
intrig
intarite
##peci
maiorul
progn
prejudec
##ovit
romanic
##chan
doze
dual
##urau
##ermann
pass
##uitor
trestie
adune
polara
biografie
vadul
plate
anularea
traco
asan
sfin
domitian
milton
reactiei
1517
patrick
bucur
aparata
cladit
ecologic
taiet
1618
consilierii
1070
##cheta
solista
copernic
clov
mason
##jeste
motilor
neagu
ministrilor
etnicii
pastorul
andro
cinste
primitiva
cercetatorilor
promisiunea
olteni
podgori
echipaj
simpli
imbratis
244
largul
socialistilor
apropierii
orientarii
panc
optic
doru
deltei
gazul
divizate
gorun
nott
parcala
calculatorul
vitej
siberiei
vitala
conducatorului
lansarii
burge
instrumentul
goti
minelor
brusca
1766
sfintirea
globului
confirmarea
climatului
locuind
merov
vandalii
letopise
violentei
exilati
tratamente
purtata
suveranul
masculii
cruciati
1739
pescari
certific
despartite
infrunt
infruntat
catalin
catalonia
arbitraj
farmacii
lugo
irlandezi
hermes
gheorghi
conectat
demolat
avocati
spectacolele
lipsiti
bugetare
##hardt
vlahuta
##swana
chinezesc
stocare
fiscala
haiduci
vizigotii
funciar
himala
flamand
renascentist
oligarh
eleganta
intravilan
eticheta
ecosiste
utrecht
##octist
##biserica
arkansas
coincid
mercedes
eisenhower
diet
edictul
guta
hale
keren
ota
varte
##ean
##pn
##fol
##gura
##gow
##ws
##arp
inhal
cami
samp
convenit
comesti
##duca
scari
vedem
baciu
chry
creare
##interv
##veta
monografii
transcri
carnii
ami
##ologului
ascet
luncii
moore
fila
depuna
tast
invierea
141
finis
##onder
coo
administra
copou
privite
##erceni
publicarii
protestelor
editiile
253
cinst
buff
fred
freatice
lirice
susan
moldovenii
recunostea
onora
pasopt
succesorii
##lalt
respinga
arhitectii
chimistul
occidentului
mortalitatii
matric
ipsil
obisnuia
atrasi
##illy
factiuni
legislatie
autonomiei
capacitatile
express
flacari
gospodaria
symp
reflectat
376
sfintit
combinatia
refugieze
responsabilitate
476
olimpiada
marturiile
tallin
castrului
acumuleaza
budismului
introducand
sapate
baiazid
1755
1752
adrianopol
abordeaza
luminos
sindicat
pilotii
1568
renumele
argumentat
cabinete
ascunsa
taxi
busui
1437
florentin
ritualul
##ografe
uneltele
recomandarea
accentueaza
teodorescu
chiliile
abstracta
dogma
recastig
antisemite
neurologie
gheorgheni
impozitele
ornamentale
arhaica
gustave
vectoriale
ploile
runcu
norocul
asteptau
raiduri
trecatoarea
gottingen
golescu
furnizor
toxice
birocrat
mugur
salariati
bolivia
tarnaveni
genocid
toulouse
geoagiu
jimbolia
claudiu
instantane
giorgio
graffiti
peregrin
notoriet
erich
fren
font
gle
gta
pila
ryu
xp
zd
##nind
##ror
##wil
##wart
##atate
##inarii
deduce
sicul
laic
laice
##cevo
cavo
sey
sesiuni
##rost
##roiu
mack
##andrei
strica
stomat
acetil
ard
prejud
##rino
##eira
acut
scob
sclava
duel
duhov
##ogeni
nesi
timoc
bahna
polin
contras
elico
ulrich
lunare
calib
reapar
opuna
opunea
gresii
gregor
depusa
armonia
vestului
vestiment
varza
tridimension
cerintelor
valurile
hades
bucurest
baronul
marton
republicilor
parasesc
localizarea
sancra
cadiz
mancarea
conserve
existential
construind
permise
##nier
303
bem
contraof
palma
bosch
ghib
##cki
tratata
##nicea
pasune
basic
apartinatoare
thril
dragon
scurgerea
##oko
sporturilor
jedi
sexul
ganduri
troita
matusa
colaborari
completarea
diferentelor
lasati
first
standardizare
inventatorul
regulament
provenita
1204
mercurul
mineral
marturisi
1707
explozia
jurnalisti
austriecilor
spunandu
glasul
fascinat
indeplinind
elisabetei
1753
1596
sublinia
1653
aviatia
bratului
stramosi
vadim
covurlui
taiate
redeschi
difuzata
pronuntate
consacrate
##roturi
iudaica
pacificului
substantivele
relatari
impulsul
historia
sferturile
statuile
vultur
migratiei
diminuarea
desavarsit
externi
semnalate
potentialului
niger
cinematograful
breasla
folcloric
aeronave
repartizat
eroziunea
intorc
bombardat
epidemie
salvador
ostasi
perimetru
compilatie
configuratie
conjunctiv
traverseze
desfasurau
separatiste
patrunda
analitice
teoretician
prusaca
prenumele
tarmurile
santier
jenn
intimid
asteroizi
beckham
colaboreze
forestier
olivier
linistita
filarmonica
nemijloc
eficace
dezvelit
andreas
consolida
rascumpar
##łesa
werner
bula
esa
fic
furat
gordon
hou
hanului
korn
qa
rationala
##fta
##hima
##zis
##yg
##atil
##atoarea
##arle
##inf
##strof
##eag
##alat
##ilita
recasatori
cuc
seine
semil
##destii
##scia
cezare
prevale
##ovna
exotice
##chis
##osie
##mbrand
teba
juvent
adj
chest
atit
poluarea
compuna
populari
plum
traiul
nast
oricat
##vena
toba
gastro
force
##tiana
persilor
propova
greve
clad
capu
potop
invizi
aglut
internetului
interfe
##erground
parag
sfarsitului
jama
cadrele
etnografice
fondatoare
centralizata
pamanturilor
surda
bunde
bunei
discurile
##itorie
gherg
minoritare
filmarile
286
variatie
vremurilor
rasaritul
inregistrand
cetatilor
insemnari
filosofic
integrarii
vulgar
vulcani
gasiti
strangerea
metalele
magnus
reducand
estimate
sacer
basarabeni
preparate
cristale
nominalizata
cauzand
mendel
mercy
tratamentului
wałesa
rivale
jurnalistul
protejeaza
luase
suedezi
alpha
pierderilor
1756
1758
orchestre
solicitarea
georgiei
vanturilor
ramnicului
dotarea
1722
adversari
instructiunii
geometrica
intocmita
pareau
consultativ
senzatia
seminar
spaniolii
binar
suspendate
preponderenta
galilei
protopopul
rabin
confederatie
kirgh
intamplari
vindeca
bastion
sapaturilor
temelii
spectacolului
infiinteze
razboinici
politehnic
liturghia
aranjat
investitori
openoffice
cnsas
inrautat
presedintie
polemica
odobesti
binecuvantarea
dregatori
sfarseste
impadurita
potrivite
digestiv
incredintata
neculce
olympia
autovehicule
paleoliticul
iugoslave
ravenna
reptile
iluminat
consimta
surplus
marsilia
holera
sartre
daily
research
kart
nt
oar
rali
ratat
tia
vile
vuia
##milor
##was
##zov
##yt
##rimi
##recht
dintii
castra
##siona
comoara
comintern
stind
arteri
##artit
##chil
alecu
##direct
nesig
regatele
##rieg
just
afil
baghe
subiectele
celib
totalizand
mounta
off
piotr
inceputuri
filotti
coliz
colind
corului
##ofile
dezarm
fostelor
1415
demo
trime
agres
agenda
agroturi
stramba
haute
martorii
scoartei
produsi
includeau
masurare
publicitatii
salile
germanic
alexandre
functionarilor
apelul
stanley
proprietarilor
bour
ott
simta
documentului
inchinata
necesarul
vicovu
asigurate
##rimea
rolling
glut
topit
pareri
bunavo
celuilalt
presus
##dong
ascendent
usb
mandra
terminale
monedelor
psihic
stranga
exploatat
afectiune
sculptat
practicau
slovac
hotarator
sculptorului
##koy
##hoek
sprijinului
mensev
craiovei
tomis
hidroelect
nelim
partenerii
bizantinii
inflatia
pregatiti
1553
horod
fixeaza
adaptarea
intrerupere
catastrof
africani
regasit
lituanieni
apelativul
etimologic
declanseaza
rebeli
ronald
supusii
foametea
caracterelor
arondat
kalin
loialitatea
locotenentul
bataie
progresului
bretania
antonius
poruncit
doctrine
alocate
balneara
rascru
prislop
alipit
domestic
admiterea
umiditatea
emanciparea
aranjament
anglicana
vestire
cenusii
kubica
dragasani
laudat
subcarpatice
regenera
toronto
banatean
inedite
dintotdeauna
semicondu
mustafa
humbold
machiavel
nesemnific
mannerheim
bele
ez
geti
huni
lantului
ub
##kara
##kja
##zum
##zka
##bd
##ulf
instig
uneasca
pede
##istrib
##sai
##chel
##chiu
teoctist
veghe
##dino
##dinci
chat
atip
vaide
pli
ploaia
tradat
davi
amonia
dise
feodor
lungu
gamb
pirinei
1525
gresel
clavi
enori
munitie
tap
tacere
urmasilor
foot
indicii
geologie
##imes
##utel
##lich
divortul
parab
masurilor
reprezentatii
##alizator
ball
planificate
afland
constructiv
conducte
noir
palm
acordurile
natalitatii
civice
podzol
##olitice
desfasoare
lemnoase
casatoriile
topirea
thras
extinderii
inlocuindu
musat
aplicarii
necl
##yama
libertatilor
ascendenta
robe
cronologic
atragerea
dimension
donald
stalinist
goale
cornul
contemporanii
brevet
meciului
desemnarea
##mouth
mutate
melodiei
rezervatii
coordonator
exilul
redarea
mostenitori
inmormantata
vedeau
intersectie
imprumuta
infloresc
densusi
peisajele
modelelor
petrecuti
ucrainenii
initierea
navigatia
substantiale
1742
smig
fermieri
1529
comentariile
coalitii
scheffel
nistor
expansion
meserie
pisania
##frey
catalana
tropical
gratuita
satelitii
pink
ovid
hatman
empire
invingand
umplu
confederate
ardelene
intunecat
temelia
legendar
transilvanene
detaliata
cuibarit
postbelice
insistentele
inraut
liturgice
aristocratia
restabilirea
cercetatorul
cuptor
acronimul
ingrasa
acvila
thailanda
bozovici
stralucire
intuneri
rhein
tgv
wikipedia
transilvanean
hochei
rfg
acuarela
neajlov
covarsitoare
ciacova
flash
burgess
meroving
borg
grile
glen
ianca
jig
kim
lod
lili
m³
murat
nieu
odin
syn
tuse
uda
##ianu
##ourg
##39
##αι
##од
##inita
##station
##ican
reben
reziste
alini
conve
ansel
cecen
##sak
##urarilor
##laul
proas
polem
##usen
##ely
pribe
privirea
faci
impunea
dup
necasatori
vez
parma
trezi
##bilul
biod
formandu
actin
204
daune
torent
##orele
##rong
##ghii
periferice
1710
calom
piers
1510
propozitia
##vira
munceasca
cerinte
activist
directorului
tiparului
manastur
privel
dragn
versiunii
verbele
##court
bradului
efectului
##istei
venita
defunct
emerit
pozitionat
rapos
ocupatiile
ramific
constructori
##estii
conventii
invecinat
simpatia
absoar
umorul
magica
diviziunea
313
retrasa
ganditori
##vatu
versurilor
cosmin
##lett
colaborarii
inconte
saracia
voievoz
homofob
catedrei
acide
cornu
tigan
fronturi
incredi
sprijinite
cinematografic
interzicea
1703
masculine
laplace
clientul
inflatiei
temporare
temporala
concertele
teoriilor
reluarea
incadrata
certificat
voluntara
1661
legionarii
taxonom
demnitari
durabila
minimum
crang
pdsr
##zanne
semintele
standardelor
sensibile
tineretea
nutri
underground
espi
complicata
expulzati
tractoare
pierduse
delacro
maryland
trimitand
bombardament
radioactive
convingerile
abilitati
##dalena
infractiuni
telefoane
brahms
amplasament
captivitate
ibraileanu
heraldica
glodeni
catastrofa
temnita
leibniz
dedesubt
extratere
voevod
ipsilanti
paraguay
densusianu
rebengiuc
delacroix
ice
lina
mim
runda
ulu
vana
##ique
##hart
##hold
##lion
##liu
##mara
##wish
##jana
##ulu
inscen
degh
##anze
##tescu
##rama
lauri
lascar
cubi
##utului
cep
auzi
##ister
##istos
intran
##cion
exig
##ogi
mesia
##oirea
##gasa
##bav
primarii
catherine
orar
judec
maret
biologiei
monop
dak
amanta
##nac
milcov
publici
##onete
exportul
exporta
stamp
centen
turco
altei
deveneau
geoana
##bius
haos
barn
ciof
semnalul
treburile
##oteze
epurare
manet
mancat
utilitatea
privea
drastic
motto
##ilau
omenirea
colester
specialistilor
cules
editarea
pierzandu
pozitiilor
androme
stiind
voit
palatele
criticului
212
heart
simpatie
fotografia
socialistii
##onstitut
distrugand
probabila
energii
diagrama
##upac
rasiale
croatii
##donald
claseaza
concentreze
carbox
intampina
israeliana
ierburi
etapele
restabile
halstatt
##ugawa
premiat
franciza
expresiv
335
modelat
economico
nazistilor
migratie
miguel
scotiana
evangheliei
macovei
fortificatiilor
redres
##quez
deportare
1701
introduca
ordonate
concluzii
luau
regizorului
7000
ochilor
stejari
1748
gospodariilor
germain
1456
baterii
1569
trimitere
incendiat
vanzarilor
oprire
tulburare
odise
sensibilitate
burgheziei
luptand
abuzuri
teius
iesind
diversificata
invingatoare
ironic
subsol
fosil
pamint
desertului
saptamanii
mongolilor
confiscat
hallstatt
devastatoare
locomotiva
converti
delimiteaza
prestigioasa
vietname
cecenia
incapacitatea
avertizat
zimnicea
coloniala
caricatura
indrepte
monahala
intariri
italica
irigatii
corbului
osemintele
enzime
infanteriei
turkmen
trezore
calitativ
saguna
bagdad
briceni
tokugawa
gamma
becali
impozitelor
gunther
impereche
omnipre
edinet
storojinet
dragnea
aaron
dati
epa
fanilor
grij
kron
mind
meni
minta
norii
osm
olah
sq
trea
tcp
ui
##rr
##fim
##feric
##ioasa
##czy
##sina
##lite
##mur
##wski
##bla
##ин
invi
deste
##icum
ungu
unilater
lake
##olita
##oliss
##ruhe
##sean
conde
cearta
comar
suici
intarire
prodi
##rint
aplice
##chow
nucet
##ograd
averilor
neh
neins
neimp
##vada
tep
vector
##ucul
erasmus
primiti
second
chiv
##mere
##intat
misiunile
##ureanu
##ghele
moinesti
1570
##reng
aparator
##ctivitate
ecologica
schon
curbe
##pide
turcului
coroz
imor
luv
lupe
1480
antologia
straduit
coste
coord
interstel
##ografiat
productiile
dispusi
banffy
domnilor
sanction
orastie
portoc
scaderii
lupi
mentiunea
manageri
etnicilor
influenti
altadata
problematica
bogdana
tratati
234
programat
inregistreze
academician
aerodina
jucate
operatori
interveni
mosnita
wilbur
crocod
source
predate
diviziuni
eliberate
aplicatiilor
complexitatea
ascunda
conservate
angajata
pilotul
##horn
grigori
##buro
estimare
332
instalatiile
charlie
candidatii
tabloului
literelor
accesului
provence
nemurit
coordonare
coordoneaza
astronomiei
sintetice
sufletele
elevul
incarcare
detinutilor
solicit
pontif
sublim
navigator
particularitatile
intrerupte
ctitor
1697
redactata
ramnic
1494
bacteriilor
scutului
julian
furtun
pronuntia
strabon
rebelii
alain
##ograma
insemnatate
recupera
iudaice
meteorit
relatarile
mlastina
ovine
demolate
admiratia
mocan
##lementa
iordania
limitrofe
diferentiaza
grupelor
##onymous
hemora
laptelui
articulare
cilindri
martiala
strigat
omorati
schelet
georgian
incursiuni
playstation
stelian
patrund
insumeaza
karolyi
fetita
gramatical
superioritate
dinozauri
macedonean
incidenta
biciclete
caraibe
tampere
vocabularul
absorbtia
ieftine
anthony
xerxes
grecescul
uleiul
boicot
domiciliul
sevastopol
dubasari
freiburg
elicopt
inrautatit
bati
bid
ferv
his
latif
ng
ole
oana
poca
tati
uzul
##pha
##fului
##opale
##hs
##hou
##giul
##31
##uleni
dereg
##icani
laz
sej
##seca
comete
##oterm
##lasi
fischer
##etar
luigi
##ogul
mess
avort
lebe
parce
##ersh
jure
basi
##zes
##zescu
cren
creaturi
complicat
plopi
refac
piscu
##virii
curcube
centri
tactic
ilici
##beck
artera
1450
realista
antifa
##giat
##ografi
semna
oliver
impresie
includa
vred
sanpetru
valerian
miceni
utilitate
privitor
nichol
motoarelor
perga
inaltei
salariile
minister
viziuni
proteinele
ideologii
descoperirii
utilizari
suseni
mitologice
poroliss
serve
tratatelor
promise
214
necesari
247
##rograf
punk
intaia
284
arhitecturala
jucata
##eds
voturilor
turner
simbolice
procesare
notiune
contabilitate
raspundere
campionate
amintind
amintiti
amintirile
efes
loess
popularitatii
angajate
promovate
filozofic
322
alimentat
axat
##harin
brebu
izbut
celebrului
intitulate
incalcarea
acuzativ
scenarii
##comun
quark
amenajare
emily
ingrijita
ingrijire
wallace
magazinul
surprindere
amploarea
telefonica
petreceri
1462
consacrata
ingineria
cunoscand
epistem
kuwe
hranesc
detecta
pictorilor
confectionat
burgheze
aniversarii
ramasesera
patratul
somnului
trupului
privatizare
steaguri
biografii
scarisoara
pogrom
deluros
aprinse
inmultirea
filipesti
porumbul
dj203
##zistenta
reprimarea
hoardei
posterioara
reykja
prezidiului
atletism
infiltr
ieftin
intemnitat
guilla
fasole
amfiteatru
vehement
voyager
karlsruhe
nesigur
jennifer
bd
bsd
dna
nis
niss
roch
tva
##eta
##ratiile
##pc
##cru
##cos
##zatori
##xandru
##ρι
##onucle
##aly
##omiresti
rebra
segar
sapa
##scus
strei
statiunile
romilor
rame
##ello
falesti
##osferei
prinda
##rani
##etii
##mbul
leuc
##aneste
##uitate
aden
orban
atot
computere
##ignon
inceta
vagin
pustii
infuri
elie
elba
actorului
actorilor
nadia
##ingo
eug
##naca
milita
1560
claud
distor
##oasei
foile
##ismele
1420
1410
specializarea
activisti
olari
paraiele
bancilor
prezum
cadrelor
linistit
neagre
vizitei
initiatorul
fondate
mihaile
arabile
liov
voicu
##atrale
stilistice
217
216
232
proceduri
245
##petii
##ungs
morse
identifice
industriile
panze
esant
mall
povestit
observatori
pomicultura
##terdam
calcule
cunoastem
atributele
teroarea
programarea
redactia
politicienii
dictatorul
1504
firmele
cuceririle
distribuita
adoptand
evanghelic
sigurantei
way
izbucneste
dacorom
sumele
sloven
abandonarea
indicatori
indicator
nelin
negocieze
valens
deputatul
suspens
exclusivitate
saxona
spiridon
szcze
1566
comentariu
##structura
sticlei
1582
influentelor
patrascanu
explorare
registru
fluvial
hidrogenului
muntenegrului
coastelor
heracle
omenesc
educationale
pericolului
suburbiile
asimilati
reactionat
capitulat
simfonica
aeronautica
arhaic
breton
calcaroase
balneoclim
tampa
sinodului
otelului
analge
##kely
oklah
pacatul
roaga
proeminent
deficitul
insistenta
elenistica
videoclipuri
admitere
hrisovul
paltinis
prenume
neregulate
recompensa
anxietatea
infinite
violoncel
bologa
reflectata
cabluri
concluzionat
manufacturi
neintrerupt
privighetoarea
##hrer
##tainment
hippocrate
snegur
prometeu
tadji
neerlandeza
espirito
reykjavik
glav
goian
iov
jele
ratei
urina
##cza
##wh
##bun
##35
##26
##stricht
##leith
##ieta
##rada
##sem
malen
##orius
ceda
##lora
##casa
aroma
rav
apo
##chine
numind
##dide
neexist
atenta
##veen
traci
##scape
carna
caritate
damian
periferi
minora
multele
piste
filantrop
ocina
tao
realism
agrar
baroca
plaman
##regiunea
tiparirea
##oniste
germanul
atasa
intelese
proprietarului
boul
poemului
imag
petrecuta
doban
dinamice
frau
tutovei
intervale
nasteri
dorna
citoplas
aurora
retrase
navalit
dezastrul
atributul
terrei
interpretarii
restabili
brazilian
regulata
brust
cluburile
sculpturile
distribuirea
resursa
prepozitie
##quin
fortificatia
supravietuire
anticor
amenintata
gimnaziale
peisajului
1734
revendicat
intrebarii
##ferenti
malaxa
sclavie
copaceni
catapet
agentilor
1564
decaderea
supraveghea
imbracam
1588
zborului
1333
catalina
silvic
chestiunile
inundatiile
prospere
rezolvare
ceremoniile
sinucidere
loire
anatomo
rezidentiale
comemorativ
neamtului
loveste
##onymus
alunis
namib
delimitata
handica
lacasuri
reabilitarea
interventiile
delimitate
restabilit
infanteria
prelungire
stralucirea
cvarte
entertainment
cvasi
iminenta
crenelat
camerun
paradigma
sporadic
pamantesti
paramilitare
bilaterale
##continent
silvostepa
gibraltar
humboldt
buil
cold
five
glande
gratia
hide
menirea
ofereau
soa
sutu
tenta
volei
wies
##uand
##hing
##sand
##kis
##venti
##ла
inunda
##strat
##rila
##anui
##rem
##itel
##uirile
##cef
alz
alfon
##imei
poen
arpa
aprins
numire
numerice
##rante
##pton
implice
teatrale
urce
##bacteri
parj
parului
jupan
baha
adan
orn
poluare
compunerea
incetul
vascau
mono
infomet
marunt
margh
##ipot
transee
##urel
aseze
legif
confid
1519
1512
patern
decol
ecli
ocnele
##oasele
mediei
geza
gemen
certe
ceruta
cerche
valley
##grame
incasari
##ardo
parasite
indeparta
orale
salii
adapta
cantate
cantitatii
cassius
mitului
angola
simti
224
228
pensiuni
pasnic
kamen
##uber
tribale
harkov
purp
italienii
divizarea
dumnezeul
insemne
cosmet
lopez
psihologiei
angajatilor
intreprinderii
dictatul
paleolitic
alimenteaza
catedrale
cornea
ofiterul
bunesti
terapie
386
artemis
producerii
explicarea
barajului
amesteca
florale
interzic
avansa
ibanesti
cantareti
purtatoare
antichitatea
colectivizare
facilitat
amanata
1642
stramtori
serbanesti
dobandite
palatinat
puiu
rezolvate
sinucide
mantuirii
cronicar
funeral
confectii
confectionarea
stimulat
teodoreanu
postav
ochiului
sobol
anatomia
caldurii
grindina
prelungita
diplomatie
veto
simfonie
coechip
alunga
sovietelor
somaj
somajul
ploilor
sufleteasca
infinitiv
avertis
margineste
nipru
glasgow
parametri
hoarda
procedurile
zadarnic
onoruri
submarine
codex
basilica
euronymous
ecleziastice
bacalaureatul
medalie
contrarevolut
degete
eronat
ateneul
nelegit
schizofrenie
ieromonahul
mohacs
zeitung
indrago
maastricht
kemal
christopher
madeira
tallinn
thriller
plumbul
antifasc
guillaume
catapeteas
dare
furie
hoj
kelly
lille
miss
nativa
tup
##fant
##mari
##34
inlant
defecte
##lee
##led
##iteaza
##icop
laden
##olis
##sek
peior
##imos
##sium
aug
intrin
stani
poi
pogor
pregn
##elei
apla
apuca
fasie
comunitar
meuse
pazit
teofil
oral
##blanca
polirom
##menaj
##hed
orasen
infrunta
206
anulata
##vene
recur
candida
##ibo
forumul
razboieni
1516
publish
nationalitatilor
eth
gres
schiller
1613
##riade
instantele
1250
1230
termop
plaje
cazand
parasita
epoc
jay
francezul
conserva
utilaj
nationalisti
planck
there
retina
perseu
latini
volker
venerat
emm
colectare
protectoare
257
ionica
mihaela
confesionale
apeleaza
buharin
simtul
structurala
241
constituire
compusilor
casatoriti
diamante
this
harold
rouma
platoului
zidarie
citita
cititorului
cititorilor
gorki
pomel
##ometru
bors
iubeste
viticultura
rott
rotund
rotterdam
dezama
saracilor
bloch
inchisorile
##iliene
lacrimi
dictatorului
depasea
elementar
acizii
cuprul
traversarea
legaturii
inventarul
exercitate
meditatie
loviturii
frecventata
vorbirea
vissi
[...]
